<pad>	0
<unk>	0
<s>	0
SELECT	0
FROM	0
WHERE	0
JOIN	0
INSERT	0
UPDATE	0
DELETE	0
CREATE	0
TABLE	0
VALUES	0
GROUP	0
BY	0
ORDER	0
AND	0
OR	0
NOT	0
<>	0
<=	0
>=	0
!=	0
||	0
&&	0
::	0
->>	0
->	0
:=	0
(	0
)	0
[	0
]	0
{	0
}	0
;	0
.	0
*	0
%	0
+	0
-	0
/	0
=	0
<	0
>	0
A	0
C	0
G	0
T	0
N	0
0	0
1	0
2	0
3	0
4	0
5	0
6	0
7	0
8	0
9	0
10	0
11	0
12	0
13	0
14	0
15	0
16	0
17	0
18	0
19	0
20	0
21	0
22	0
23	0
24	0
25	0
26	0
27	0
28	0
29	0
30	0
31	0
32	0
33	0
34	0
35	0
36	0
37	0
38	0
39	0
40	0
41	0
42	0
43	0
44	0
45	0
46	0
47	0
48	0
49	0
50	0
51	0
52	0
53	0
54	0
55	0
56	0
57	0
58	0
59	0
60	0
61	0
62	0
63	0
64	0
65	0
66	0
67	0
68	0
69	0
70	0
71	0
72	0
73	0
74	0
75	0
76	0
77	0
78	0
79	0
80	0
81	0
82	0
83	0
84	0
85	0
86	0
87	0
88	0
89	0
90	0
91	0
92	0
93	0
94	0
95	0
96	0
97	0
98	0
99	0
100	0
101	0
102	0
103	0
104	0
105	0
106	0
107	0
108	0
109	0
110	0
111	0
112	0
113	0
114	0
115	0
116	0
117	0
118	0
119	0
120	0
121	0
122	0
123	0
124	0
125	0
126	0
127	0
128	0
129	0
130	0
131	0
132	0
133	0
134	0
135	0
136	0
137	0
138	0
139	0
140	0
141	0
142	0
143	0
144	0
145	0
146	0
147	0
148	0
149	0
150	0
151	0
152	0
153	0
154	0
155	0
156	0
157	0
158	0
159	0
160	0
161	0
162	0
163	0
164	0
165	0
166	0
167	0
168	0
169	0
170	0
171	0
172	0
173	0
174	0
175	0
176	0
177	0
178	0
179	0
180	0
181	0
182	0
183	0
184	0
185	0
186	0
187	0
188	0
189	0
190	0
191	0
192	0
193	0
194	0
195	0
196	0
197	0
198	0
199	0
200	0
201	0
202	0
203	0
204	0
205	0
206	0
207	0
208	0
209	0
210	0
211	0
212	0
213	0
214	0
215	0
216	0
217	0
218	0
219	0
220	0
221	0
222	0
223	0
224	0
225	0
226	0
227	0
228	0
229	0
230	0
231	0
232	0
233	0
234	0
235	0
236	0
237	0
238	0
239	0
240	0
241	0
242	0
243	0
244	0
245	0
246	0
247	0
248	0
249	0
250	0
251	0
252	0
253	0
254	0
255	0
<image>	0
<medical>	0
<tactile>	0
<speech>	0
<database>	0
<gene>	0
<text>	0
▁t	-0
he	-1
▁a	-2
in	-3
er	-4
on	-5
▁the	-6
re	-7
or	-8
at	-9
an	-10
en	-11
is	-12
▁o	-13
es	-14
al	-15
it	-16
▁s	-17
ed	-18
▁of	-19
ar	-20
▁c	-21
''	-22
ic	-23
▁w	-24
nd	-25
▁b	-26
ion	-27
▁in	-28
▁f	-29
▁p	-30
ot	-31
le	-32
om	-33
as	-34
ing	-35
▁and	-36
▁m	-37
ou	-38
am	-39
▁d	-40
ent	-41
▁to	-42
qu	-43
▁h	-44
us	-45
id	-46
el	-47
ol	-48
il	-49
ct	-50
quot	-51
ro	-52
st	-53
▁re	-54
▁l	-55
▁e	-56
im	-57
▁th	-58
▁n	-59
et	-60
ut	-61
ce	-62
ig	-63
lt	-64
ation	-65
ch	-66
ly	-67
▁is	-68
▁S	-69
iv	-70
ag	-71
ad	-72
ur	-73
▁''	-74
ht	-75
ist	-76
▁I	-77
ers	-78
▁be	-79
ir	-80
▁g	-81
ow	-82
gt	-83
▁for	-84
▁B	-85
ra	-86
▁as	-87
amp	-88
▁on	-89
em	-90
ri	-91
um	-92
est	-93
un	-94
her	-95
os	-96
▁M	-97
and	-98
ver	-99
ay	-100
th	-101
ith	-102
ter	-103
▁&	-104
▁P	-105
▁st	-106
op	-107
ate	-108
▁H	-109
▁al	-110
od	-111
▁con	-112
▁by	-113
▁was	-114
▁that	-115
ul	-116
age	-117
▁E	-118
res	-119
▁with	-120
▁an	-121
▁wh	-122
ve	-123
ww	-124
▁D	-125
▁F	-126
ac	-127
▁or	-128
ab	-129
if	-130
ment	-131
▁R	-132
▁are	-133
ain	-134
ity	-135
▁de	-136
rom	-137
'''	-138
▁it	-139
pe	-140
ian	-141
com	-142
ies	-143
▁v	-144
oc	-145
se	-146
▁com	-147
ia	-148
ub	-149
▁W	-150
ame	-151
▁pro	-152
ory	-153
og	-154
art	-155
all	-156
▁ex	-157
▁L	-158
ant	-159
ess	-160
up	-161
ical	-162
ap	-163
ew	-164
ore	-165
ld	-166
ich	-167
ort	-168
con	-169
ex	-170
▁at	-171
ill	-172
▁from	-173
▁r	-174
ial	-175
▁he	-176
tp	-177
ip	-178
ive	-179
ud	-180
nt	-181
ard	-182
http	-183
ang	-184
ber	-185
▁se	-186
ish	-187
▁us	-188
ight	-189
sp	-190
ak	-191
ell	-192
ost	-193
ine	-194
ary	-195
end	-196
ure	-197
ction	-198
br	-199
our	-200
▁not	-201
pt	-202
ign	-203
ast	-204
▁which	-205
▁his	-206
so	-207
ern	-208
ord	-209
▁O	-210
ther	-211
ated	-212
pl	-213
▁J	-214
▁ch	-215
rib	-216
▁U	-217
www	-218
ge	-219
ave	-220
rou	-221
ov	-222
▁k	-223
ext	-224
ran	-225
ph	-226
cl	-227
ust	-228
▁In	-229
av	-230
rit	-231
ff	-232
ision	-233
ous	-234
ire	-235
ry	-236
ong	-237
ear	-238
uc	-239
ect	-240
iz	-241
ace	-242
ks	-243
▁pl	-244
ie	-245
per	-246
mer	-247
ence	-248
ome	-249
ath	-250
▁le	-251
ere	-252
ass	-253
▁St	-254
▁also	-255
gh	-256
rev	-257
erm	-258
ition	-259
▁comp	-260
ribut	-261
▁have	-262
▁y	-263
itle	-264
ations	-265
ally	-266
▁un	-267
ik	-268
▁K	-269
▁sh	-270
ult	-271
▁has	-272
ateg	-273
▁|	-274
tim	-275
act	-276
▁were	-277
land	-278
ng	-279
▁ar	-280
ide	-281
▁cont	-282
fer	-283
any	-284
are	-285
ism	-286
ue	-287
▁this	-288
ib	-289
uch	-290
cont	-291
▁int	-292
text	-293
ategory	-294
orm	-295
ates	-296
ml	-297
▁other	-298
ric	-299
ep	-300
ok	-301
title	-302
page	-303
▁cl	-304
▁but	-305
ack	-306
▁ab	-307
ree	-308
ount	-309
olog	-310
ics	-311
In	-312
hen	-313
▁can	-314
▁all	-315
ributor	-316
und	-317
ft	-318
cc	-319
ug	-320
pres	-321
tern	-322
out	-323
ould	-324
▁ad	-325
estamp	-326
revision	-327
timestamp	-328
contributor	-329
ens	-330
▁its	-331
able	-332
port	-333
over	-334
▁part	-335
▁one	-336
▁im	-337
▁wor	-338
ite	-339
▁their	-340
oll	-341
ely	-342
irst	-343
own	-344
'',	-345
here	-346
ited	-347
les	-348
ach	-349
ind	-350
▁ap	-351
ime	-352
▁'''	-353
ile	-354
▁dis	-355
ound	-356
ater	-357
ational	-358
ces	-359
int	-360
▁V	-361
ice	-362
ash	-363
ubl	-364
▁had	-365
▁sy	-366
angu	-367
▁en	-368
▁Un	-369
ec	-370
ob	-371
ase	-372
comment	-373
ions	-374
meric	-375
aw	-376
ee	-377
ru	-378
ose	-379
wo	-380
▁been	-381
▁first	-382
ron	-383
▁more	-384
ance	-385
we	-386
ever	-387
vel	-388
ci	-389
ans	-390
ors	-391
ername	-392
username	-393
▁who	-394
ne	-395
his	-396
red	-397
cent	-398
▁most	-399
clud	-400
org	-401
▁res	-402
▁year	-403
lect	-404
hed	-405
▁ev	-406
one	-407
▁langu	-408
▁used	-409
fter	-410
▁pr	-411
▁comm	-412
ents	-413
ual	-414
▁It	-415
ular	-416
ict	-417
▁per	-418
ivers	-419
▁such	-420
▁form	-421
erv	-422
stem	-423
ener	-424
▁some	-425
▁des	-426
▁they	-427
rad	-428
de	-429
▁cons	-430
form	-431
reat	-432
▁me	-433
umb	-434
▁sp	-435
ren	-436
▁rel	-437
▁j	-438
ough	-439
ram	-440
ark	-441
ons	-442
pec	-443
aus	-444
▁ag	-445
eg	-446
ten	-447
ail	-448
old	-449
ood	-450
▁into	-451
▁includ	-452
ys	-453
▁te	-454
du	-455
ings	-456
pro	-457
ress	-458
hr	-459
io	-460
ied	-461
▁two	-462
ond	-463
Im	-464
▁than	-465
td	-466
te	-467
▁cent	-468
▁many	-469
▁so	-470
▁over	-471
▁He	-472
math	-473
cess	-474
erve	-475
ious	-476
wn	-477
ology	-478
Un	-479
merican	-480
▁out	-481
▁ind	-482
▁kn	-483
▁only	-484
ific	-485
▁und	-486
▁x	-487
▁play	-488
▁bet	-489
ative	-490
▁up	-491
▁system	-492
ox	-493
ss	-494
ook	-495
oh	-496
▁pe	-497
oth	-498
ject	-499
min	-500
▁do	-501
iss	-502
▁language	-503
▁time	-504
cy	-505
uring	-506
▁there	-507
▁bec	-508
ople	-509
ert	-510
ral	-511
fl	-512
▁act	-513
uro	-514
arch	-515
html	-516
istory	-517
hem	-518
ah	-519
ublic	-520
▁would	-521
Image	-522
ann	-523
right	-524
iet	-525
li	-526
▁col	-527
ities	-528
ade	-529
▁att	-530
space	-531
▁Y	-532
▁may	-533
▁we	-534
oy	-535
▁reg	-536
ower	-537
▁sub	-538
arg	-539
lish	-540
ote	-541
ars	-542
overn	-543
ident	-544
orn	-545
sup	-546
▁after	-547
ll	-548
ution	-549
ild	-550
pos	-551
round	-552
igh	-553
ween	-554
ists	-555
▁under	-556
the	-557
▁dif	-558
owever	-559
preserve	-560
▁xml	-561
very	-562
▁inter	-563
sub	-564
▁when	-565
▁call	-566
ake	-567
▁them	-568
ilm	-569
ke	-570
als	-571
raph	-572
▁Eng	-573
mall	-574
ually	-575
ased	-576
tic	-577
▁use	-578
▁mod	-579
ury	-580
▁between	-581
ple	-582
ines	-583
▁new	-584
rans	-585
▁sc	-586
▁sup	-587
other	-588
▁num	-589
▁ac	-590
ays	-591
oint	-592
ered	-593
▁acc	-594
ince	-595
roup	-596
ix	-597
ages	-598
▁ro	-599
▁States	-600
nb	-601
cept	-602
▁ear	-603
▁am	-604
hip	-605
▁off	-606
ible	-607
▁qu	-608
▁count	-609
▁about	-610
att	-611
▁pop	-612
▁def	-613
ont	-614
gan	-615
▁rec	-616
ick	-617
ev	-618
▁pos	-619
px	-620
▁ph	-621
ames	-622
ale	-623
nbsp	-624
ced	-625
ork	-626
uss	-627
▁years	-628
rough	-629
ts	-630
▁these	-631
urn	-632
▁no	-633
ins	-634
ward	-635
hes	-636
▁pol	-637
hrist	-638
▁gener	-639
ike	-640
ating	-641
▁any	-642
ily	-643
St	-644
ures	-645
pr	-646
▁work	-647
az	-648
▁ra	-649
▁fl	-650
ock	-651
▁rem	-652
omm	-653
inal	-654
iel	-655
▁Is	-656
urope	-657
fore	-658
ise	-659
man	-660
▁him	-661
ause	-662
oun	-663
▁ass	-664
aj	-665
▁ob	-666
▁people	-667
velop	-668
ature	-669
cre	-670
▁will	-671
uth	-672
thumb	-673
ife	-674
▁inv	-675
ton	-676
elf	-677
ted	-678
eth	-679
duc	-680
ax	-681
▁known	-682
▁called	-683
▁bel	-684
overnment	-685
ically	-686
its	-687
irect	-688
▁writ	-689
put	-690
outh	-691
col	-692
ode	-693
imes	-694
▁op	-695
▁set	-696
▁number	-697
jp	-698
▁pres	-699
ract	-700
iversity	-701
▁where	-702
▁spec	-703
ement	-704
▁through	-705
▁em	-706
▁inst	-707
orld	-708
ollow	-709
▁sim	-710
der	-711
▁co	-712
▁often	-713
ble	-714
▁differ	-715
iew	-716
ium	-717
row	-718
▁term	-719
erman	-720
▁,	-721
jpg	-722
▁var	-723
usic	-724
ather	-725
▁lin	-726
air	-727
ember	-728
ished	-729
▁name	-730
har	-731
ohn	-732
▁pre	-733
co	-734
center	-735
ctions	-736
ograph	-737
▁man	-738
oot	-739
▁prov	-740
▁char	-741
yp	-742
▁bl	-743
ural	-744
yle	-745
▁fe	-746
▁add	-747
ier	-748
orth	-749
▁ext	-750
gram	-751
▁being	-752
emb	-753
ritish	-754
▁'	-755
pect	-756
▁found	-757
ians	-758
▁ent	-759
▁dist	-760
conom	-761
▁group	-762
▁examp	-763
ina	-764
▁end	-765
▁develop	-766
▁well	-767
els	-768
chn	-769
United	-770
inn	-771
lement	-772
ful	-773
oman	-774
▁For	-775
erson	-776
ove	-777
ized	-778
▁again	-779
▁made	-780
uk	-781
ange	-782
RE	-783
vers	-784
▁then	-785
▁De	-786
ues	-787
▁follow	-788
▁trans	-789
ulation	-790
▁film	-791
▁mov	-792
▁world	-793
cond	-794
▁eff	-795
ternal	-796
ball	-797
omet	-798
▁est	-799
ives	-800
ool	-801
▁during	-802
▁II	-803
▁orig	-804
▁ed	-805
▁main	-806
ined	-807
atic	-808
ility	-809
ield	-810
ty	-811
▁\	-812
▁century	-813
▁trad	-814
▁Ind	-815
▁both	-816
ially	-817
ndash	-818
▁her	-819
▁tra	-820
urch	-821
align	-822
▁fam	-823
oo	-824
▁align	-825
fr	-826
ences	-827
▁War	-828
▁consid	-829
▁ser	-830
ajor	-831
▁if	-832
lex	-833
ck	-834
▁same	-835
yn	-836
htm	-837
ouse	-838
ital	-839
▁government	-840
rop	-841
led	-842
hough	-843
▁str	-844
▁produ	-845
▁"	-846
rench	-847
stit	-848
▁example	-849
▁sign	-850
cient	-851
gy	-852
bert	-853
▁ne	-854
▁partic	-855
irc	-856
uman	-857
▁cap	-858
way	-859
▁common	-860
tt	-861
▁high	-862
▁sur	-863
▁charact	-864
▁English	-865
itt	-866
hy	-867
edia	-868
tr	-869
ternational	-870
▁sever	-871
▁cre	-872
▁refer	-873
Ex	-874
ved	-875
▁long	-876
▁word	-877
▁disc	-878
dom	-879
▁United	-880
▁class	-881
au	-882
ene	-883
▁alt	-884
:''	-885
▁own	-886
ley	-887
▁stud	-888
▁later	-889
ruct	-890
ries	-891
eb	-892
ional	-893
ole	-894
sc	-895
▁became	-896
par	-897
▁state	-898
List	-899
▁serv	-900
olution	-901
▁links	-902
enn	-903
▁ret	-904
▁lead	-905
▁different	-906
▁loc	-907
▁Europe	-908
▁while	-909
▁cur	-910
arge	-911
▁point	-912
▁result	-913
▁car	-914
ius	-915
iqu	-916
▁occ	-917
▁three	-918
ilit	-919
yl	-920
arm	-921
ived	-922
IP	-923
▁elect	-924
ization	-925
▁each	-926
ants	-927
▁appe	-928
▁style	-929
▁mon	-930
ains	-931
ank	-932
net	-933
▁even	-934
▁program	-935
▁contin	-936
ey	-937
▁including	-938
ght	-939
ament	-940
▁very	-941
istor	-942
▁because	-943
press	-944
▁Fran	-945
▁equ	-946
inc	-947
▁law	-948
▁King	-949
uccess	-950
▁early	-951
▁before	-952
▁contr	-953
▁bu	-954
lands	-955
▁you	-956
uthor	-957
▁Sp	-958
▁could	-959
aim	-960
▁small	-961
▁However	-962
▁power	-963
md	-964
ull	-965
▁major	-966
▁much	-967
ize	-968
ink	-969
iam	-970
ason	-971
▁desc	-972
▁music	-973
iver	-974
ator	-975
left	-976
sh	-977
ript	-978
nl	-979
rent	-980
▁see	-981
▁becom	-982
of	-983
por	-984
▁Pro	-985
aking	-986
vent	-987
▁det	-988
ata	-989
▁min	-990
▁design	-991
▁polit	-992
ews	-993
ross	-994
iod	-995
▁belie	-996
ained	-997
son	-998
▁University	-999
▁several	-1000
ense	-1001
formation	-1002
▁against	-1003
my	-1004
▁dr	-1005
▁dec	-1006
ms	-1007
▁right	-1008
gen	-1009
▁Ex	-1010
▁import	-1011
uary	-1012
▁Se	-1013
ref	-1014
ivid	-1015
▁vers	-1016
▁poss	-1017
▁those	-1018
▁Em	-1019
▁Pr	-1020
▁British	-1021
▁Z	-1022
mdash	-1023
▁larg	-1024
chool	-1025
ows	-1026
▁fact	-1027
▁Or	-1028
▁sing	-1029
:'''	-1030
▁since	-1031
ane	-1032
▁sl	-1033
▁oper	-1034
▁back	-1035
leg	-1036
minor	-1037
▁requ	-1038
▁large	-1039
ae	-1040
▁city	-1041
De	-1042
ired	-1043
▁like	-1044
ja	-1045
▁fun	-1046
bl	-1047
▁war	-1048
cience	-1049
▁artic	-1050
ared	-1051
ases	-1052
anad	-1053
iter	-1054
▁support	-1055
ware	-1056
Fran	-1057
ively	-1058
▁game	-1059
▁direct	-1060
isc	-1061
▁val	-1062
▁now	-1063
oci	-1064
hristian	-1065
lev	-1066
▁stand	-1067
ott	-1068
▁second	-1069
▁death	-1070
▁mat	-1071
▁leg	-1072
ories	-1073
rem	-1074
See	-1075
▁spe	-1076
aid	-1077
ets	-1078
af	-1079
ster	-1080
iving	-1081
▁last	-1082
duced	-1083
ness	-1084
▁person	-1085
▁life	-1086
omin	-1087
iven	-1088
til	-1089
apan	-1090
sy	-1091
▁effect	-1092
ird	-1093
''&	-1094
ography	-1095
▁Re	-1096
▁Wh	-1097
icial	-1098
▁comput	-1099
SB	-1100
▁Le	-1101
rew	-1102
be	-1103
itions	-1104
▁still	-1105
▁organ	-1106
▁econom	-1107
ilitary	-1108
bs	-1109
ices	-1110
fric	-1111
med	-1112
▁Sh	-1113
▁process	-1114
▁popular	-1115
let	-1116
ze	-1117
iety	-1118
▁what	-1119
ai	-1120
▁series	-1121
ony	-1122
John	-1123
▁wid	-1124
It	-1125
ilar	-1126
▁met	-1127
▁soc	-1128
iction	-1129
ustral	-1130
ument	-1131
ilos	-1132
ised	-1133
▁character	-1134
▁cor	-1135
▁br	-1136
ung	-1137
ified	-1138
embers	-1139
anc	-1140
DI	-1141
▁techn	-1142
mb	-1143
Ind	-1144
pre	-1145
ves	-1146
▁commun	-1147
▁success	-1148
▁cult	-1149
by	-1150
hey	-1151
▁until	-1152
sk	-1153
▁record	-1154
▁av	-1155
▁incre	-1156
alk	-1157
▁did	-1158
ient	-1159
ilosop	-1160
▁Rep	-1161
▁public	-1162
eng	-1163
▁ref	-1164
▁include	-1165
plic	-1166
ute	-1167
small	-1168
▁tr	-1169
▁author	-1170
ably	-1171
▁she	-1172
ese	-1173
ried	-1174
▁Sc	-1175
▁however	-1176
line	-1177
flu	-1178
▁publ	-1179
ody	-1180
illion	-1181
▁appro	-1182
day	-1183
▁great	-1184
raft	-1185
▁country	-1186
▁cell	-1187
ped	-1188
uit	-1189
reek	-1190
lection	-1191
ca	-1192
▁modern	-1193
▁four	-1194
▁using	-1195
olic	-1196
ivil	-1197
▁hand	-1198
▁eng	-1199
hese	-1200
epend	-1201
▁usually	-1202
▁theory	-1203
amb	-1204
▁history	-1205
▁fre	-1206
une	-1207
▁book	-1208
oss	-1209
ister	-1210
▁land	-1211
ooks	-1212
ald	-1213
ments	-1214
▁go	-1215
ological	-1216
attle	-1217
▁claim	-1218
ately	-1219
amed	-1220
ats	-1221
▁view	-1222
ugust	-1223
▁World	-1224
oly	-1225
lear	-1226
ission	-1227
uff	-1228
sv	-1229
ued	-1230
▁period	-1231
Eng	-1232
▁York	-1233
ration	-1234
▁non	-1235
ality	-1236
da	-1237
▁order	-1238
▁particular	-1239
Re	-1240
▁team	-1241
idd	-1242
▁mark	-1243
ham	-1244
▁based	-1245
alth	-1246
▁Bl	-1247
ven	-1248
▁dep	-1249
▁run	-1250
estern	-1251
no	-1252
▁pass	-1253
Pr	-1254
ugg	-1255
road	-1256
▁around	-1257
▁es	-1258
ting	-1259
▁art	-1260
▁Q	-1261
▁does	-1262
not	-1263
iber	-1264
▁considered	-1265
to	-1266
arty	-1267
color	-1268
▁par	-1269
ards	-1270
ertain	-1271
ometimes	-1272
▁area	-1273
ule	-1274
ought	-1275
ris	-1276
▁important	-1277
lin	-1278
▁French	-1279
▁near	-1280
▁Ph	-1281
reen	-1282
less	-1283
arb	-1284
itional	-1285
ermany	-1286
ma	-1287
▁stat	-1288
order	-1289
for	-1290
▁repres	-1291
stant	-1292
ource	-1293
ended	-1294
akes	-1295
eder	-1296
▁way	-1297
▁typ	-1298
ootball	-1299
▁prev	-1300
▁within	-1301
hurch	-1302
sl	-1303
▁expl	-1304
▁human	-1305
▁exist	-1306
▁dem	-1307
▁Mar	-1308
,&	-1309
empt	-1310
aster	-1311
work	-1312
read	-1313
▁among	-1314
ner	-1315
▁title	-1316
ides	-1317
▁exper	-1318
▁ISB	-1319
▁similar	-1320
▁rest	-1321
apt	-1322
▁adv	-1323
▁should	-1324
edu	-1325
ither	-1326
omen	-1327
▁members	-1328
ague	-1329
▁start	-1330
istic	-1331
▁every	-1332
▁text	-1333
pire	-1334
ling	-1335
ently	-1336
aced	-1337
eor	-1338
▁fin	-1339
▁influ	-1340
aving	-1341
▁another	-1342
▁general	-1343
ether	-1344
▁current	-1345
▁less	-1346
comm	-1347
▁ide	-1348
ply	-1349
▁allow	-1350
▁article	-1351
▁rele	-1352
rab	-1353
▁exp	-1354
ering	-1355
▁make	-1356
uck	-1357
urg	-1358
▁pract	-1359
▁po	-1360
reg	-1361
oon	-1362
▁ins	-1363
olit	-1364
▁mean	-1365
▁old	-1366
ales	-1367
avid	-1368
ording	-1369
la	-1370
▁show	-1371
▁languages	-1372
▁population	-1373
off	-1374
▁describ	-1375
▁proble	-1376
▁On	-1377
▁Br	-1378
▁given	-1379
Se	-1380
▁place	-1381
ery	-1382
▁top	-1383
resident	-1384
aul	-1385
▁line	-1386
▁countries	-1387
lege	-1388
ica	-1389
▁due	-1390
▁few	-1391
rown	-1392
▁crit	-1393
illiam	-1394
▁political	-1395
ival	-1396
ency	-1397
aly	-1398
arn	-1399
ethod	-1400
cil	-1401
ones	-1402
use	-1403
atural	-1404
▁cour	-1405
ior	-1406
▁bas	-1407
▁without	-1408
▁following	-1409
External	-1410
ring	-1411
ead	-1412
▁arg	-1413
omp	-1414
ots	-1415
▁relig	-1416
arth	-1417
▁player	-1418
▁short	-1419
Sp	-1420
wh	-1421
▁child	-1422
posed	-1423
▁med	-1424
▁just	-1425
ope	-1426
▁down	-1427
▁perform	-1428
▁rev	-1429
▁become	-1430
▁Be	-1431
▁mar	-1432
▁must	-1433
History	-1434
omb	-1435
ming	-1436
merica	-1437
:&	-1438
eneral	-1439
▁inf	-1440
irth	-1441
▁estab	-1442
▁left	-1443
▁US	-1444
iron	-1445
ps	-1446
▁day	-1447
▁field	-1448
▁origin	-1449
ustri	-1450
▁case	-1451
rael	-1452
ander	-1453
▁element	-1454
ka	-1455
▁beg	-1456
▁need	-1457
rain	-1458
eorge	-1459
gl	-1460
urther	-1461
▁sol	-1462
zh	-1463
urs	-1464
che	-1465
▁sometimes	-1466
▁represent	-1467
oe	-1468
ari	-1469
▁present	-1470
▁national	-1471
dd	-1472
▁head	-1473
idge	-1474
ana	-1475
eter	-1476
most	-1477
DIRE	-1478
Bl	-1479
ided	-1480
▁various	-1481
ividual	-1482
▁control	-1483
anish	-1484
REDIRE	-1485
▁er	-1486
ways	-1487
ray	-1488
▁information	-1489
self	-1490
ination	-1491
▁Kingdom	-1492
cem	-1493
▁read	-1494
iki	-1495
ches	-1496
▁pat	-1497
▁although	-1498
hat	-1499
ftware	-1500
ondon	-1501
ourn	-1502
▁el	-1503
▁iss	-1504
▁air	-1505
arian	-1506
''',	-1507
▁resp	-1508
▁began	-1509
span	-1510
▁rul	-1511
▁though	-1512
▁gl	-1513
▁Some	-1514
▁histor	-1515
▁rece	-1516
▁version	-1517
arl	-1518
alt	-1519
ler	-1520
▁chang	-1521
▁John	-1522
iles	-1523
▁Pl	-1524
app	-1525
now	-1526
see	-1527
puter	-1528
ison	-1529
rand	-1530
▁phys	-1531
▁proper	-1532
ctor	-1533
ino	-1534
▁my	-1535
▁Republic	-1536
cul	-1537
▁prot	-1538
ground	-1539
Ph	-1540
▁rad	-1541
▁England	-1542
▁school	-1543
stitution	-1544
▁level	-1545
ford	-1546
▁real	-1547
▁original	-1548
▁water	-1549
▁hel	-1550
II	-1551
▁written	-1552
otal	-1553
ype	-1554
▁attempt	-1555
▁relations	-1556
▁others	-1557
▁X	-1558
ification	-1559
▁generally	-1560
▁tem	-1561
▁comb	-1562
osp	-1563
▁prom	-1564
▁systems	-1565
ogn	-1566
fi	-1567
ention	-1568
▁conf	-1569
ocr	-1570
top	-1571
▁sk	-1572
ances	-1573
ential	-1574
▁Union	-1575
aps	-1576
rict	-1577
▁gen	-1578
▁home	-1579
▁ter	-1580
ouncil	-1581
'''&	-1582
▁His	-1583
▁invol	-1584
▁open	-1585
▁single	-1586
▁struct	-1587
▁million	-1588
▁ant	-1589
idence	-1590
▁aff	-1591
▁cr	-1592
He	-1593
▁led	-1594
US	-1595
harles	-1596
▁fore	-1597
wards	-1598
▁return	-1599
▁object	-1600
itive	-1601
ique	-1602
▁function	-1603
iness	-1604
met	-1605
ports	-1606
cember	-1607
aut	-1608
▁times	-1609
back	-1610
▁individual	-1611
Sh	-1612
Europe	-1613
hemat	-1614
ends	-1615
▁family	-1616
▁military	-1617
▁list	-1618
▁method	-1619
▁Par	-1620
tl	-1621
▁circ	-1622
oard	-1623
ources	-1624
ret	-1625
ability	-1626
▁dev	-1627
▁Man	-1628
▁port	-1629
mar	-1630
▁Roman	-1631
alf	-1632
▁Party	-1633
atter	-1634
ruction	-1635
yd	-1636
▁lim	-1637
peror	-1638
▁rather	-1639
▁ident	-1640
▁groups	-1641
ites	-1642
anada	-1643
▁states	-1644
imate	-1645
▁gu	-1646
▁Min	-1647
aterial	-1648
aining	-1649
▁light	-1650
ta	-1651
astern	-1652
rel	-1653
▁space	-1654
▁certain	-1655
gcolor	-1656
▁ann	-1657
▁der	-1658
▁event	-1659
▁prof	-1660
▁body	-1661
▁either	-1662
▁good	-1663
▁turn	-1664
aken	-1665
bit	-1666
▁means	-1667
▁prim	-1668
mon	-1669
▁intro	-1670
▁Ed	-1671
Is	-1672
▁product	-1673
na	-1674
atin	-1675
ilt	-1676
▁vol	-1677
▁Russ	-1678
▁Japan	-1679
▁compos	-1680
inese	-1681
▁computer	-1682
▁along	-1683
▁said	-1684
ured	-1685
▁caus	-1686
levision	-1687
ger	-1688
ommun	-1689
side	-1690
▁development	-1691
pecially	-1692
avy	-1693
ored	-1694
stand	-1695
▁En	-1696
hic	-1697
▁cal	-1698
▁independ	-1699
sport	-1700
acy	-1701
▁philosop	-1702
ebr	-1703
incip	-1704
▁possible	-1705
▁hig	-1706
▁Sy	-1707
inter	-1708
▁const	-1709
lo	-1710
▁beh	-1711
add	-1712
ude	-1713
▁published	-1714
rap	-1715
▁recent	-1716
▁take	-1717
uel	-1718
▁build	-1719
▁never	-1720
rac	-1721
▁app	-1722
ibr	-1723
ollege	-1724
▁named	-1725
▁developed	-1726
hern	-1727
iation	-1728
ests	-1729
Sc	-1730
iol	-1731
aint	-1732
anuary	-1733
cs	-1734
serv	-1735
ha	-1736
alif	-1737
▁data	-1738
▁strong	-1739
▁games	-1740
bum	-1741
str	-1742
▁late	-1743
▁cond	-1744
gth	-1745
▁kill	-1746
ivision	-1747
▁bre	-1748
gov	-1749
fact	-1750
hinese	-1751
png	-1752
On	-1753
▁works	-1754
mat	-1755
▁separ	-1756
For	-1757
bra	-1758
hom	-1759
ittle	-1760
inning	-1761
ief	-1762
atholic	-1763
ober	-1764
aug	-1765
imal	-1766
▁held	-1767
play	-1768
▁engine	-1769
▁km	-1770
▁grow	-1771
▁Empire	-1772
English	-1773
▁former	-1774
hina	-1775
ops	-1776
liament	-1777
▁inc	-1778
▁vis	-1779
lor	-1780
▁European	-1781
ush	-1782
▁age	-1783
Ed	-1784
▁appear	-1785
|&	-1786
que	-1787
key	-1788
World	-1789
▁know	-1790
oid	-1791
▁took	-1792
sequ	-1793
ume	-1794
▁above	-1795
▁repl	-1796
ean	-1797
▁di	-1798
▁ke	-1799
iddle	-1800
▁mult	-1801
▁how	-1802
Pro	-1803
▁concept	-1804
ID	-1805
icro	-1806
▁hold	-1807
ected	-1808
▁low	-1809
ef	-1810
Roman	-1811
oviet	-1812
▁itself	-1813
frica	-1814
▁material	-1815
note	-1816
Or	-1817
orthern	-1818
▁seen	-1819
ustralia	-1820
▁One	-1821
uly	-1822
gypt	-1823
pril	-1824
ivity	-1825
arc	-1826
▁birth	-1827
▁special	-1828
rish	-1829
▁del	-1830
usiness	-1831
ele	-1832
British	-1833
▁subject	-1834
umbers	-1835
▁la	-1836
▁frequ	-1837
arent	-1838
lthough	-1839
▁conc	-1840
▁access	-1841
▁et	-1842
enry	-1843
▁avail	-1844
▁official	-1845
aces	-1846
face	-1847
eo	-1848
▁arch	-1849
ensive	-1850
ney	-1851
▁History	-1852
▁words	-1853
atures	-1854
▁bi	-1855
▁best	-1856
▁Her	-1857
ental	-1858
▁diff	-1859
ternet	-1860
search	-1861
▁accept	-1862
hu	-1863
▁net	-1864
▁standard	-1865
▁came	-1866
▁free	-1867
ape	-1868
win	-1869
entral	-1870
▁associ	-1871
ergy	-1872
▁State	-1873
lb	-1874
comp	-1875
▁mag	-1876
▁decl	-1877
raw	-1878
sel	-1879
▁especially	-1880
zer	-1881
viron	-1882
▁having	-1883
sych	-1884
ands	-1885
▁aut	-1886
▁signific	-1887
▁regard	-1888
exual	-1889
oms	-1890
▁base	-1891
ferences	-1892
acks	-1893
▁dest	-1894
▁meas	-1895
▁$	-1896
ploy	-1897
▁#	-1898
rag	-1899
▁mass	-1900
hel	-1901
▁wr	-1902
▁clos	-1903
▁created	-1904
▁song	-1905
ators	-1906
▁ep	-1907
ror	-1908
▁red	-1909
ify	-1910
▁terms	-1911
abor	-1912
▁areas	-1913
ko	-1914
▁defin	-1915
▁himself	-1916
▁find	-1917
▁France	-1918
rm	-1919
ront	-1920
alian	-1921
bi	-1922
▁local	-1923
enc	-1924
ctober	-1925
▁side	-1926
▁By	-1927
▁West	-1928
▁treat	-1929
ym	-1930
▁force	-1931
nn	-1932
minist	-1933
aries	-1934
▁Res	-1935
lished	-1936
ecess	-1937
version	-1938
val	-1939
uation	-1940
▁sound	-1941
oph	-1942
cle	-1943
rt	-1944
▁son	-1945
▁Press	-1946
chan	-1947
▁king	-1948
ington	-1949
hers	-1950
duction	-1951
▁position	-1952
▁univers	-1953
arr	-1954
▁men	-1955
ael	-1956
ikip	-1957
istics	-1958
asing	-1959
French	-1960
aper	-1961
artic	-1962
ovember	-1963
▁liter	-1964
lam	-1965
▁President	-1966
rch	-1967
ingu	-1968
▁largest	-1969
▁House	-1970
▁camp	-1971
ij	-1972
▁South	-1973
ula	-1974
▁care	-1975
ning	-1976
hemical	-1977
▁scient	-1978
ournal	-1979
▁science	-1980
▁famous	-1981
▁East	-1982
▁color	-1983
ille	-1984
▁region	-1985
ransport	-1986
arily	-1987
index	-1988
rick	-1989
bb	-1990
cis	-1991
aged	-1992
obert	-1993
▁thus	-1994
▁available	-1995
aur	-1996
ested	-1997
▁role	-1998
ste	-1999
▁might	-2000
▁cop	-2001
lim	-2002
▁post	-2003
ikipedia	-2004
▁ship	-2005
▁further	-2006
ptember	-2007
ending	-2008
mbol	-2009
ements	-2010
▁produced	-2011
reland	-2012
▁almost	-2013
ston	-2014
berg	-2015
ebruary	-2016
▁forces	-2017
duct	-2018
▁consider	-2019
▁If	-2020
▁nov	-2021
▁change	-2022
go	-2023
ara	-2024
▁Rev	-2025
▁social	-2026
Pl	-2027
▁sugg	-2028
▁Brit	-2029
action	-2030
ago	-2031
▁See	-2032
▁children	-2033
▁hard	-2034
▁numbers	-2035
▁party	-2036
aliforn	-2037
▁pur	-2038
ising	-2039
istan	-2040
▁When	-2041
overed	-2042
▁played	-2043
ges	-2044
box	-2045
▁Other	-2046
▁upon	-2047
▁mot	-2048
outher	-2049
kn	-2050
vironment	-2051
ours	-2052
▁earli	-2053
▁full	-2054
▁forms	-2055
news	-2056
▁comple	-2057
aught	-2058
▁ball	-2059
▁story	-2060
▁thought	-2061
▁civil	-2062
▁transl	-2063
year	-2064
asc	-2065
▁mer	-2066
ewish	-2067
ights	-2068
ideo	-2069
▁Ber	-2070
dis	-2071
▁ve	-2072
rian	-2073
▁Dem	-2074
ference	-2075
▁sw	-2076
ream	-2077
▁Many	-2078
▁suff	-2079
▁north	-2080
▁Sch	-2081
▁least	-2082
cur	-2083
ett	-2084
used	-2085
orpor	-2086
outhern	-2087
▁economic	-2088
▁occur	-2089
▁whe	-2090
Em	-2091
▁border	-2092
etic	-2093
like	-2094
ser	-2095
▁far	-2096
elect	-2097
▁production	-2098
itch	-2099
▁significant	-2100
IS	-2101
▁ge	-2102
▁Israel	-2103
▁Har	-2104
▁express	-2105
main	-2106
vert	-2107
alifornia	-2108
▁site	-2109
▁Soc	-2110
▁meaning	-2111
▁recogn	-2112
▁i	-2113
▁mem	-2114
▁service	-2115
▁che	-2116
atives	-2117
▁deg	-2118
istry	-2119
▁tw	-2120
▁Pe	-2121
▁press	-2122
▁princip	-2123
ged	-2124
ids	-2125
▁south	-2126
▁addition	-2127
▁company	-2128
▁type	-2129
ysis	-2130
▁culture	-2131
ulture	-2132
▁released	-2133
▁parts	-2134
Wh	-2135
▁init	-2136
aff	-2137
▁som	-2138
▁month	-2139
▁study	-2140
▁six	-2141
▁included	-2142
adem	-2143
ched	-2144
rav	-2145
cast	-2146
ien	-2147
rip	-2148
ronic	-2149
ny	-2150
mit	-2151
▁days	-2152
▁prob	-2153
▁den	-2154
ems	-2155
▁sum	-2156
▁member	-2157
▁complex	-2158
lass	-2159
udd	-2160
▁enc	-2161
▁London	-2162
▁established	-2163
inary	-2164
▁third	-2165
▁Mc	-2166
ellig	-2167
oyal	-2168
▁always	-2169
Le	-2170
inf	-2171
itor	-2172
▁entire	-2173
▁source	-2174
▁taken	-2175
ication	-2176
▁software	-2177
ining	-2178
▁five	-2179
ourt	-2180
rest	-2181
▁energy	-2182
Mar	-2183
Be	-2184
El	-2185
▁season	-2186
ades	-2187
▁Ser	-2188
William	-2189
hi	-2190
▁El	-2191
▁report	-2192
▁ord	-2193
▁anal	-2194
▁educ	-2195
▁fail	-2196
▁League	-2197
▁pred	-2198
cite	-2199
▁arr	-2200
rum	-2201
ords	-2202
ience	-2203
▁norm	-2204
▁account	-2205
icult	-2206
▁today	-2207
▁built	-2208
ecut	-2209
ounter	-2210
▁capital	-2211
▁uses	-2212
▁making	-2213
|''	-2214
▁Des	-2215
▁international	-2216
▁tog	-2217
▁attack	-2218
▁polic	-2219
▁key	-2220
▁project	-2221
code	-2222
▁town	-2223
▁album	-2224
▁market	-2225
▁dou	-2226
▁died	-2227
▁deb	-2228
itect	-2229
En	-2230
▁next	-2231
urb	-2232
reed	-2233
▁together	-2234
▁determ	-2235
▁compet	-2236
roy	-2237
▁movement	-2238
odes	-2239
▁code	-2240
▁quest	-2241
▁sent	-2242
usion	-2243
South	-2244
▁territ	-2245
University	-2246
▁below	-2247
asp	-2248
▁log	-2249
▁prop	-2250
with	-2251
icism	-2252
▁pri	-2253
elling	-2254
▁May	-2255
▁observ	-2256
▁International	-2257
European	-2258
ceed	-2259
▁box	-2260
inct	-2261
lexander	-2262
name	-2263
▁gr	-2264
▁value	-2265
▁problem	-2266
mp	-2267
erous	-2268
▁except	-2269
▁Islands	-2270
▁say	-2271
▁Sw	-2272
▁books	-2273
ux	-2274
▁She	-2275
▁range	-2276
▁fall	-2277
▁bgcolor	-2278
▁Pol	-2279
▁broad	-2280
ength	-2281
gress	-2282
alv	-2283
selves	-2284
oney	-2285
▁Earth	-2286
▁natural	-2287
sw	-2288
▁mach	-2289
▁amount	-2290
oz	-2291
ircraft	-2292
▁players	-2293
▁lo	-2294
▁rate	-2295
▁half	-2296
▁plan	-2297
▁cases	-2298
▁Mon	-2299
▁father	-2300
icon	-2301
▁But	-2302
▁difficult	-2303
isl	-2304
▁size	-2305
▁religious	-2306
irit	-2307
▁referred	-2308
ini	-2309
▁president	-2310
can	-2311
▁themselves	-2312
me	-2313
▁young	-2314
▁clear	-2315
cycl	-2316
▁once	-2317
hib	-2318
▁little	-2319
ederal	-2320
▁respect	-2321
▁structure	-2322
▁names	-2323
dam	-2324
frican	-2325
irt	-2326
▁previous	-2327
▁Pri	-2328
▁pers	-2329
▁imp	-2330
▁sold	-2331
ria	-2332
ounty	-2333
ros	-2334
ened	-2335
ledge	-2336
merc	-2337
▁Int	-2338
▁abs	-2339
International	-2340
▁rights	-2341
rup	-2342
Fl	-2343
FF	-2344
▁Sup	-2345
ask	-2346
atal	-2347
Japan	-2348
plement	-2349
▁evidence	-2350
raz	-2351
wood	-2352
ustry	-2353
▁traditional	-2354
olar	-2355
▁River	-2356
▁whose	-2357
ola	-2358
pop	-2359
burg	-2360
▁Island	-2361
acing	-2362
▁feature	-2363
▁fem	-2364
ocratic	-2365
▁temper	-2366
igital	-2367
ocument	-2368
known	-2369
▁sett	-2370
▁total	-2371
anguage	-2372
orse	-2373
▁link	-2374
view	-2375
ania	-2376
▁anim	-2377
orph	-2378
▁put	-2379
▁model	-2380
▁symbol	-2381
useum	-2382
▁:	-2383
▁cost	-2384
asy	-2385
oice	-2386
hus	-2387
▁related	-2388
▁fund	-2389
▁help	-2390
hematics	-2391
atively	-2392
▁band	-2393
utch	-2394
▁lik	-2395
ached	-2396
tion	-2397
▁cy	-2398
▁necess	-2399
rg	-2400
lbert	-2401
illa	-2402
amer	-2403
▁page	-2404
▁elements	-2405
▁won	-2406
olumb	-2407
fa	-2408
Russ	-2409
▁impro	-2410
pen	-2411
ires	-2412
onic	-2413
▁football	-2414
tain	-2415
ama	-2416
▁get	-2417
▁India	-2418
sim	-2419
echn	-2420
field	-2421
homas	-2422
▁adop	-2423
▁species	-2424
▁wrote	-2425
oper	-2426
▁discuss	-2427
▁David	-2428
▁applic	-2429
▁dom	-2430
▁continued	-2431
▁Day	-2432
▁past	-2433
pite	-2434
asion	-2435
rovers	-2436
▁house	-2437
anadian	-2438
head	-2439
pd	-2440
▁Most	-2441
▁width	-2442
▁Med	-2443
▁research	-2444
▁coll	-2445
position	-2446
oral	-2447
▁instead	-2448
ension	-2449
▁mechan	-2450
▁rule	-2451
▁particularly	-2452
▁too	-2453
▁lower	-2454
▁described	-2455
atch	-2456
font	-2457
▁tre	-2458
▁z	-2459
▁television	-2460
▁reason	-2461
reme	-2462
▁priv	-2463
▁image	-2464
▁tradition	-2465
▁final	-2466
flag	-2467
▁tri	-2468
otes	-2469
ortug	-2470
▁interest	-2471
▁influence	-2472
lf	-2473
▁able	-2474
ipp	-2475
mith	-2476
▁Indian	-2477
▁successful	-2478
▁viol	-2479
▁fig	-2480
▁characters	-2481
rim	-2482
▁Qu	-2483
▁domin	-2484
iting	-2485
uture	-2486
▁come	-2487
FO	-2488
sia	-2489
iers	-2490
ustralian	-2491
uke	-2492
▁profess	-2493
▁living	-2494
ensus	-2495
▁indic	-2496
▁integ	-2497
▁cities	-2498
odern	-2499
▁island	-2500
▁concern	-2501
▁We	-2502
▁Pal	-2503
▁eth	-2504
▁higher	-2505
▁whether	-2506
▁community	-2507
onn	-2508
▁commonly	-2509
▁hum	-2510
▁bo	-2511
▁fav	-2512
imately	-2513
▁practice	-2514
stitute	-2515
vention	-2516
ccording	-2517
▁according	-2518
aves	-2519
▁creat	-2520
MP	-2521
ills	-2522
anced	-2523
▁cross	-2524
▁nature	-2525
iff	-2526
▁let	-2527
ona	-2528
ichard	-2529
ech	-2530
▁food	-2531
acter	-2532
David	-2533
lections	-2534
▁III	-2535
time	-2536
▁belief	-2537
▁church	-2538
▁formed	-2539
olf	-2540
rought	-2541
het	-2542
▁business	-2543
php	-2544
nder	-2545
▁sit	-2546
▁With	-2547
Element	-2548
▁produc	-2549
▁central	-2550
odox	-2551
▁fri	-2552
▁Ireland	-2553
▁imm	-2554
poll	-2555
computer	-2556
▁cannot	-2557
unk	-2558
ores	-2559
▁women	-2560
ixed	-2561
Sw	-2562
▁throughout	-2563
bor	-2564
▁neg	-2565
▁followed	-2566
ufact	-2567
▁Im	-2568
▁Off	-2569
▁god	-2570
book	-2571
ounced	-2572
film	-2573
▁ill	-2574
▁Britain	-2575
mark	-2576
eck	-2577
▁born	-2578
▁actually	-2579
▁System	-2580
▁ess	-2581
▁ground	-2582
▁election	-2583
▁problems	-2584
▁specific	-2585
ulf	-2586
DP	-2587
▁foreign	-2588
ipl	-2589
▁widely	-2590
unic	-2591
▁detail	-2592
▁offer	-2593
▁aircraft	-2594
ection	-2595
▁administ	-2596
rated	-2597
ving	-2598
anted	-2599
▁Fl	-2600
▁valign	-2601
▁host	-2602
ription	-2603
Br	-2604
OS	-2605
'''''	-2606
ibility	-2607
plied	-2608
olk	-2609
▁Per	-2610
▁Western	-2611
ption	-2612
ssoci	-2613
▁films	-2614
▁simply	-2615
▁relationship	-2616
▁sch	-2617
ns	-2618
▁Bar	-2619
atory	-2620
omer	-2621
France	-2622
ichael	-2623
▁While	-2624
▁true	-2625
nother	-2626
▁speak	-2627
chie	-2628
Her	-2629
▁script	-2630
EE	-2631
Some	-2632
▁fire	-2633
ashington	-2634
ico	-2635
▁altern	-2636
▁Mac	-2637
▁Soviet	-2638
hab	-2639
onf	-2640
utions	-2641
▁compan	-2642
▁pot	-2643
och	-2644
rmy	-2645
abet	-2646
▁trade	-2647
isk	-2648
band	-2649
stein	-2650
▁Park	-2651
▁SI	-2652
ES	-2653
▁Egypt	-2654
icient	-2655
itiz	-2656
▁Sea	-2657
ommon	-2658
war	-2659
▁gre	-2660
earch	-2661
tlant	-2662
▁ever	-2663
▁test	-2664
▁cause	-2665
eorg	-2666
part	-2667
▁received	-2668
Par	-2669
▁lost	-2670
Rep	-2671
omy	-2672
get	-2673
▁star	-2674
▁believe	-2675
▁interpre	-2676
▁jo	-2677
cell	-2678
▁fight	-2679
ilities	-2680
ican	-2681
▁Sec	-2682
fin	-2683
rich	-2684
▁Bel	-2685
▁our	-2686
owers	-2687
▁action	-2688
▁required	-2689
yr	-2690
medi	-2691
▁consist	-2692
ocol	-2693
ouis	-2694
▁ancient	-2695
pha	-2696
pose	-2697
▁outside	-2698
rect	-2699
ishing	-2700
gar	-2701
▁remov	-2702
pdf	-2703
gu	-2704
▁hom	-2705
▁network	-2706
▁black	-2707
hest	-2708
eff	-2709
▁UK	-2710
▁invest	-2711
▁defined	-2712
▁respons	-2713
born	-2714
ties	-2715
ili	-2716
▁laws	-2717
▁self	-2718
▁Minister	-2719
▁includes	-2720
▁prote	-2721
▁sense	-2722
gor	-2723
▁events	-2724
▁idea	-2725
Har	-2726
mag	-2727
ambig	-2728
lected	-2729
▁associated	-2730
gi	-2731
uous	-2732
King	-2733
ida	-2734
ributed	-2735
ready	-2736
▁added	-2737
▁novel	-2738
image	-2739
▁went	-2740
▁designed	-2741
▁Bo	-2742
▁Red	-2743
mercial	-2744
▁points	-2745
▁defe	-2746
▁introduced	-2747
esus	-2748
▁changes	-2749
▁here	-2750
cap	-2751
itude	-2752
▁coast	-2753
▁offic	-2754
▁provide	-2755
▁require	-2756
thodox	-2757
▁fa	-2758
▁surv	-2759
resp	-2760
otland	-2761
▁types	-2762
▁allowed	-2763
▁close	-2764
rd	-2765
azine	-2766
▁cover	-2767
▁eventually	-2768
▁divid	-2769
▁employ	-2770
▁features	-2771
flict	-2772
▁understand	-2773
rn	-2774
▁majority	-2775
edy	-2776
cyclop	-2777
▁increasing	-2778
verage	-2779
James	-2780
Robert	-2781
orks	-2782
▁programming	-2783
annel	-2784
▁battle	-2785
omputer	-2786
▁jud	-2787
▁economy	-2788
▁believed	-2789
cean	-2790
▁sat	-2791
▁achie	-2792
▁originally	-2793
unt	-2794
▁started	-2795
▁activ	-2796
Int	-2797
isher	-2798
eek	-2799
oles	-2800
orts	-2801
iding	-2802
iberal	-2803
▁industry	-2804
ni	-2805
ayer	-2806
▁ver	-2807
▁etc	-2808
▁located	-2809
References	-2810
West	-2811
▁approx	-2812
▁grad	-2813
▁rock	-2814
come	-2815
reet	-2816
iment	-2817
quare	-2818
ranch	-2819
Main	-2820
Other	-2821
men	-2822
▁away	-2823
▁miss	-2824
ump	-2825
▁occup	-2826
▁Inter	-2827
urk	-2828
rier	-2829
oul	-2830
Elementbox	-2831
Qu	-2832
▁beginning	-2833
ects	-2834
Pe	-2835
itz	-2836
pecial	-2837
▁fiction	-2838
▁conn	-2839
▁court	-2840
▁brought	-2841
rist	-2842
▁controvers	-2843
▁typically	-2844
▁across	-2845
▁William	-2846
▁actor	-2847
asons	-2848
▁mid	-2849
May	-2850
▁speed	-2851
▁legal	-2852
▁Jewish	-2853
▁January	-2854
▁look	-2855
aching	-2856
December	-2857
enced	-2858
▁society	-2859
▁longer	-2860
set	-2861
FL	-2862
haps	-2863
▁March	-2864
▁remains	-2865
Battle	-2866
ider	-2867
|'''	-2868
▁Law	-2869
enter	-2870
▁larger	-2871
BM	-2872
Dem	-2873
inger	-2874
▁elected	-2875
▁leaders	-2876
arter	-2877
▁kind	-2878
▁live	-2879
bu	-2880
uclear	-2881
▁colspan	-2882
▁already	-2883
▁dial	-2884
alled	-2885
oor	-2886
reece	-2887
adding	-2888
ulated	-2889
▁sequ	-2890
ynam	-2891
▁foc	-2892
▁date	-2893
▁probably	-2894
writ	-2895
▁Jews	-2896
▁earlier	-2897
▁Hol	-2898
where	-2899
▁School	-2900
ada	-2901
thology	-2902
ribution	-2903
ZE	-2904
pon	-2905
Bel	-2906
▁You	-2907
▁movie	-2908
▁complete	-2909
▁manufact	-2910
etro	-2911
▁therefore	-2912
ghan	-2913
▁lab	-2914
hicago	-2915
public	-2916
hristianity	-2917
▁army	-2918
cons	-2919
▁independent	-2920
▁Me	-2921
onstant	-2922
▁manag	-2923
ala	-2924
▁contains	-2925
SI	-2926
well	-2927
class	-2928
ongress	-2929
▁separate	-2930
▁Fin	-2931
Man	-2932
aign	-2933
▁future	-2934
▁reference	-2935
world	-2936
ounds	-2937
amm	-2938
▁meet	-2939
▁pain	-2940
ountry	-2941
▁dam	-2942
rogen	-2943
umber	-2944
▁Ro	-2945
list	-2946
▁During	-2947
▁give	-2948
▁companies	-2949
▁rules	-2950
▁status	-2951
▁physical	-2952
hood	-2953
▁anti	-2954
inet	-2955
▁Reg	-2956
▁largely	-2957
▁produce	-2958
▁directly	-2959
uments	-2960
ompany	-2961
▁results	-2962
▁better	-2963
ibrary	-2964
▁length	-2965
▁appoint	-2966
obal	-2967
Henry	-2968
itation	-2969
▁things	-2970
▁learn	-2971
ER	-2972
ken	-2973
▁your	-2974
▁Spanish	-2975
▁environment	-2976
uda	-2977
▁aud	-2978
pollo	-2979
▁quick	-2980
By	-2981
▁dise	-2982
▁services	-2983
▁div	-2984
las	-2985
▁SIZE	-2986
▁makes	-2987
▁effects	-2988
bo	-2989
lso	-2990
artment	-2991
hold	-2992
▁remained	-2993
airs	-2994
▁products	-2995
urt	-2996
▁gave	-2997
change	-2998
background	-2999
uses	-3000
▁mount	-3001
▁—	-3002
organ	-3003
▁technology	-3004
▁mus	-3005
▁pen	-3006
frac	-3007
ictor	-3008
▁December	-3009
▁saw	-3010
ssociation	-3011
▁pron	-3012
▁External	-3013
▁lack	-3014
▁keep	-3015
▁growth	-3016
▁limited	-3017
iant	-3018
ustrial	-3019
▁Dr	-3020
▁enough	-3021
▁personal	-3022
▁parties	-3023
▁id	-3024
▁web	-3025
▁From	-3026
ables	-3027
▁soon	-3028
▁founded	-3029
embly	-3030
▁behav	-3031
obel	-3032
uries	-3033
▁Irish	-3034
ya	-3035
rif	-3036
▁Paul	-3037
▁leader	-3038
▁Japanese	-3039
▁caused	-3040
▁west	-3041
▁question	-3042
▁webs	-3043
▁historical	-3044
ician	-3045
▁capt	-3046
▁whole	-3047
▁writing	-3048
▁highly	-3049
ato	-3050
▁Parliament	-3051
omic	-3052
▁simple	-3053
rth	-3054
▁unit	-3055
▁mother	-3056
uslim	-3057
▁address	-3058
lan	-3059
respond	-3060
bg	-3061
based	-3062
board	-3063
▁likely	-3064
za	-3065
ati	-3066
ampions	-3067
uitar	-3068
▁matter	-3069
▁months	-3070
Sup	-3071
▁killed	-3072
Ber	-3073
phabet	-3074
▁leading	-3075
ki	-3076
cer	-3077
bridge	-3078
▁Dep	-3079
▁issues	-3080
▁education	-3081
ises	-3082
▁gas	-3083
▁moved	-3084
aker	-3085
▁radio	-3086
▁policy	-3087
▁super	-3088
▁deaths	-3089
ship	-3090
▁colon	-3091
▁center	-3092
▁writer	-3093
coh	-3094
▁yet	-3095
▁rap	-3096
gebra	-3097
▁weap	-3098
fghan	-3099
izations	-3100
irg	-3101
amily	-3102
razil	-3103
▁expect	-3104
▁definition	-3105
One	-3106
ita	-3107
wik	-3108
iques	-3109
▁minor	-3110
▁knowledge	-3111
▁mostly	-3112
▁division	-3113
▁Rec	-3114
▁provided	-3115
pple	-3116
▁High	-3117
▁lines	-3118
han	-3119
ishop	-3120
history	-3121
porary	-3122
▁building	-3123
alle	-3124
▁instit	-3125
gorith	-3126
oted	-3127
state	-3128
▁Serv	-3129
ocal	-3130
▁Bas	-3131
▁arm	-3132
▁remain	-3133
▁regular	-3134
endar	-3135
hemistry	-3136
ads	-3137
anded	-3138
▁architect	-3139
▁implement	-3140
urd	-3141
indows	-3142
artin	-3143
▁complet	-3144
▁cut	-3145
▁destroy	-3146
utes	-3147
orial	-3148
▁east	-3149
▁surface	-3150
__	-3151
ecause	-3152
▁citiz	-3153
▁bar	-3154
which	-3155
▁smaller	-3156
nic	-3157
▁So	-3158
▁fac	-3159
▁acid	-3160
▁Stud	-3161
▁commercial	-3162
iance	-3163
▁copy	-3164
▁govern	-3165
▁replaced	-3166
quote	-3167
aval	-3168
▁done	-3169
bon	-3170
▁issue	-3171
king	-3172
cal	-3173
▁Mag	-3174
▁tro	-3175
▁October	-3176
anned	-3177
ented	-3178
rs	-3179
▁appeared	-3180
▁establish	-3181
ga	-3182
lav	-3183
rol	-3184
▁eas	-3185
olitics	-3186
eal	-3187
▁basis	-3188
post	-3189
▁deal	-3190
▁currently	-3191
▁Sim	-3192
oseph	-3193
Per	-3194
▁Italian	-3195
▁Book	-3196
▁particip	-3197
ender	-3198
▁greater	-3199
▁towards	-3200
ocial	-3201
ift	-3202
▁eight	-3203
January	-3204
▁video	-3205
▁Society	-3206
elligence	-3207
▁epis	-3208
ado	-3209
enes	-3210
▁emer	-3211
group	-3212
▁sources	-3213
onald	-3214
thing	-3215
▁double	-3216
▁earth	-3217
ena	-3218
arly	-3219
▁rout	-3220
isation	-3221
▁distinct	-3222
rey	-3223
▁metal	-3224
▁divided	-3225
Black	-3226
▁heav	-3227
▁appears	-3228
vi	-3229
hing	-3230
rypt	-3231
astic	-3232
izing	-3233
hens	-3234
perial	-3235
▁reform	-3236
osis	-3237
▁working	-3238
istance	-3239
▁Since	-3240
▁execut	-3241
▁islands	-3242
▁variety	-3243
▁philosophy	-3244
oke	-3245
▁increase	-3246
law	-3247
olid	-3248
icine	-3249
rthur	-3250
▁claims	-3251
eta	-3252
racy	-3253
▁Hall	-3254
▁First	-3255
▁stories	-3256
ras	-3257
▁ht	-3258
▁Islam	-3259
▁births	-3260
elebr	-3261
▁fr	-3262
▁cou	-3263
idents	-3264
▁break	-3265
▁changed	-3266
▁scientific	-3267
hal	-3268
Paul	-3269
▁pie	-3270
▁tax	-3271
tters	-3272
▁step	-3273
oto	-3274
▁ten	-3275
ensity	-3276
▁front	-3277
▁June	-3278
▁blood	-3279
▁quant	-3280
▁methods	-3281
▁degree	-3282
▁brother	-3283
nov	-3284
▁office	-3285
''':	-3286
alism	-3287
▁involved	-3288
▁northern	-3289
irl	-3290
▁cust	-3291
▁rare	-3292
▁vari	-3293
▁wife	-3294
▁Prize	-3295
▁Revolution	-3296
▁course	-3297
President	-3298
▁letter	-3299
olitical	-3300
▁ang	-3301
stron	-3302
▁http	-3303
▁think	-3304
▁white	-3305
▁Emperor	-3306
▁whom	-3307
▁theore	-3308
ueen	-3309
const	-3310
▁increased	-3311
rea	-3312
ait	-3313
▁mention	-3314
Pol	-3315
raq	-3316
▁dire	-3317
west	-3318
music	-3319
▁Science	-3320
▁measure	-3321
ador	-3322
▁July	-3323
▁psych	-3324
▁programs	-3325
Frank	-3326
La	-3327
▁conflict	-3328
▁correspond	-3329
ething	-3330
▁transport	-3331
cadem	-3332
▁Mat	-3333
Phil	-3334
mas	-3335
▁loss	-3336
July	-3337
▁era	-3338
ustria	-3339
▁pay	-3340
▁becomes	-3341
onstitution	-3342
▁relatively	-3343
gn	-3344
▁hyp	-3345
olden	-3346
▁trib	-3347
ky	-3348
ngel	-3349
▁disput	-3350
▁nation	-3351
▁hon	-3352
▁primary	-3353
▁property	-3354
ears	-3355
Inter	-3356
ictionary	-3357
poly	-3358
rabic	-3359
▁values	-3360
▁drug	-3361
▁conditions	-3362
Elect	-3363
riage	-3364
▁subsequ	-3365
iple	-3366
▁move	-3367
▁happ	-3368
▁My	-3369
igned	-3370
reement	-3371
spe	-3372
▁Smith	-3373
▁section	-3374
clus	-3375
▁bound	-3376
▁travel	-3377
▁Institute	-3378
▁analysis	-3379
▁hyd	-3380
acific	-3381
aud	-3382
▁laun	-3383
isms	-3384
olec	-3385
pression	-3386
etherlands	-3387
disambig	-3388
▁constitution	-3389
▁release	-3390
estic	-3391
▁decision	-3392
craft	-3393
▁existence	-3394
ali	-3395
▁objects	-3396
▁average	-3397
Wikipedia	-3398
▁draw	-3399
▁religion	-3400
date	-3401
▁Web	-3402
light	-3403
▁career	-3404
▁claimed	-3405
ols	-3406
▁tour	-3407
ibly	-3408
aring	-3409
▁southern	-3410
onse	-3411
▁functions	-3412
▁Prot	-3413
▁Latin	-3414
fe	-3415
ias	-3416
phys	-3417
▁tend	-3418
unction	-3419
▁hit	-3420
DS	-3421
otic	-3422
▁takes	-3423
▁James	-3424
▁create	-3425
▁Orthodox	-3426
▁sea	-3427
▁September	-3428
▁bene	-3429
▁nearly	-3430
anks	-3431
olars	-3432
rical	-3433
irgin	-3434
▁Frank	-3435
▁basic	-3436
▁frequently	-3437
Mon	-3438
overy	-3439
wise	-3440
ips	-3441
▁solid	-3442
OM	-3443
▁edition	-3444
▁letters	-3445
start	-3446
▁counter	-3447
▁Kong	-3448
▁journal	-3449
▁studies	-3450
ache	-3451
▁station	-3452
▁table	-3453
▁Jesus	-3454
▁instance	-3455
arp	-3456
erc	-3457
itted	-3458
level	-3459
rying	-3460
▁Black	-3461
uge	-3462
fect	-3463
▁gun	-3464
▁calcul	-3465
axim	-3466
▁adopted	-3467
ua	-3468
▁Ham	-3469
ellow	-3470
▁male	-3471
▁Sen	-3472
▁wide	-3473
igation	-3474
padding	-3475
▁website	-3476
cyclopedia	-3477
BB	-3478
verse	-3479
▁western	-3480
▁Val	-3481
▁discovered	-3482
lov	-3483
lying	-3484
MS	-3485
▁Ev	-3486
When	-3487
,''	-3488
England	-3489
ici	-3490
water	-3491
point	-3492
▁ideas	-3493
oston	-3494
▁mess	-3495
▁memory	-3496
Do	-3497
hyd	-3498
▁assum	-3499
▁placed	-3500
ilosophy	-3501
UK	-3502
Ben	-3503
agn	-3504
ultural	-3505
▁Mo	-3506
elled	-3507
▁extrem	-3508
▁animals	-3509
▁primarily	-3510
cing	-3511
raction	-3512
▁contain	-3513
▁returned	-3514
ho	-3515
iana	-3516
▁Rel	-3517
▁don	-3518
▁immedi	-3519
▁articles	-3520
▁ir	-3521
erry	-3522
umer	-3523
Des	-3524
rief	-3525
igg	-3526
▁latter	-3527
▁Russian	-3528
rade	-3529
leges	-3530
wiki	-3531
▁concent	-3532
▁private	-3533
▁document	-3534
abb	-3535
opp	-3536
soft	-3537
▁Del	-3538
▁card	-3539
London	-3540
February	-3541
▁constant	-3542
▁territory	-3543
▁Henry	-3544
LI	-3545
ano	-3546
hard	-3547
▁peace	-3548
▁chemical	-3549
▁legisl	-3550
new	-3551
▁shown	-3552
cel	-3553
do	-3554
ncient	-3555
▁money	-3556
style	-3557
▁daught	-3558
web	-3559
▁pages	-3560
▁February	-3561
inent	-3562
▁served	-3563
▁machine	-3564
free	-3565
▁aspect	-3566
September	-3567
▁students	-3568
cret	-3569
▁pric	-3570
▁conversion	-3571
roll	-3572
▁thous	-3573
ella	-3574
▁More	-3575
▁shows	-3576
▁married	-3577
▁campaign	-3578
oken	-3579
ittee	-3580
▁acqu	-3581
▁temperature	-3582
utom	-3583
Latin	-3584
article	-3585
asty	-3586
▁units	-3587
pri	-3588
East	-3589
▁Spain	-3590
▁accepted	-3591
xford	-3592
undred	-3593
sch	-3594
▁Lin	-3595
March	-3596
▁club	-3597
rument	-3598
▁reported	-3599
October	-3600
ications	-3601
cles	-3602
▁consists	-3603
ying	-3604
cious	-3605
▁seem	-3606
▁levels	-3607
▁schools	-3608
▁experience	-3609
▁instrument	-3610
di	-3611
Republic	-3612
ye	-3613
First	-3614
mov	-3615
▁Its	-3616
from	-3617
Old	-3618
elt	-3619
Italy	-3620
▁graph	-3621
▁numerous	-3622
Red	-3623
olved	-3624
rgent	-3625
▁health	-3626
BS	-3627
▁percent	-3628
▁controll	-3629
▁cred	-3630
▁literature	-3631
uz	-3632
hesis	-3633
throp	-3634
▁examples	-3635
uba	-3636
▁Dis	-3637
▁rail	-3638
cher	-3639
▁oil	-3640
more	-3641
olor	-3642
vis	-3643
spir	-3644
▁refers	-3645
▁pressure	-3646
▁cat	-3647
▁quite	-3648
Richard	-3649
▁perhaps	-3650
▁perm	-3651
▁context	-3652
▁normal	-3653
iah	-3654
sex	-3655
▁targ	-3656
▁independence	-3657
We	-3658
ambridge	-3659
▁flag	-3660
▁celebr	-3661
▁location	-3662
▁surround	-3663
Ev	-3664
des	-3665
▁mis	-3666
▁Series	-3667
▁serious	-3668
DO	-3669
▁Ill	-3670
▁bro	-3671
▁highest	-3672
nce	-3673
enth	-3674
▁ways	-3675
▁ability	-3676
▁quickly	-3677
agan	-3678
ancial	-3679
oreign	-3680
▁media	-3681
▁creation	-3682
▁interpret	-3683
obox	-3684
▁troops	-3685
cat	-3686
illed	-3687
▁autom	-3688
▁equival	-3689
▁evolution	-3690
cgi	-3691
▁sm	-3692
▁Rome	-3693
uis	-3694
▁something	-3695
rid	-3696
onia	-3697
▁ens	-3698
ordin	-3699
▁older	-3700
▁prevent	-3701
▁elections	-3702
▁lic	-3703
San	-3704
ios	-3705
▁centuries	-3706
uy	-3707
▁Do	-3708
▁Brown	-3709
▁alleg	-3710
▁print	-3711
▁derived	-3712
▁estim	-3713
▁female	-3714
▁performance	-3715
uine	-3716
▁rat	-3717
▁harm	-3718
ocracy	-3719
▁recently	-3720
▁construction	-3721
IV	-3722
▁exact	-3723
Sy	-3724
rack	-3725
▁command	-3726
▁proposed	-3727
Econom	-3728
▁mainly	-3729
▁spread	-3730
sr	-3731
▁behind	-3732
house	-3733
▁equip	-3734
▁noted	-3735
▁organization	-3736
▁possess	-3737
err	-3738
▁properties	-3739
▁poor	-3740
bur	-3741
log	-3742
reaty	-3743
▁diss	-3744
tained	-3745
▁compon	-3746
▁applied	-3747
ava	-3748
Ep	-3749
trans	-3750
▁Organ	-3751
henomen	-3752
▁collect	-3753
Irish	-3754
▁individuals	-3755
exas	-3756
▁von	-3757
▁pattern	-3758
▁authority	-3759
arwin	-3760
unn	-3761
phas	-3762
▁Pres	-3763
Internet	-3764
ervative	-3765
hap	-3766
▁talk	-3767
▁regions	-3768
▁sens	-3769
▁scholars	-3770
▁equal	-3771
atur	-3772
▁recorded	-3773
ampionship	-3774
▁passed	-3775
▁necessary	-3776
▁Vol	-3777
▁cand	-3778
▁demon	-3779
aine	-3780
lymp	-3781
▁cultural	-3782
ctr	-3783
hor	-3784
oa	-3785
del	-3786
oic	-3787
aches	-3788
▁collection	-3789
!!	-3790
June	-3791
emporary	-3792
curity	-3793
▁neigh	-3794
mi	-3795
wide	-3796
▁saf	-3797
▁content	-3798
▁operations	-3799
▁user	-3800
▁versions	-3801
obile	-3802
ira	-3803
aled	-3804
itors	-3805
▁poet	-3806
▁playing	-3807
▁provides	-3808
▁display	-3809
▁Internet	-3810
ntar	-3811
rate	-3812
▁cart	-3813
▁prec	-3814
▁active	-3815
▁mind	-3816
IM	-3817
'':	-3818
▁sus	-3819
ville	-3820
▁seven	-3821
▁forced	-3822
rin	-3823
▁paper	-3824
▁bond	-3825
▁taking	-3826
ube	-3827
▁Wil	-3828
anner	-3829
ungary	-3830
▁faith	-3831
Spanish	-3832
▁distingu	-3833
rk	-3834
also	-3835
orage	-3836
▁electron	-3837
rtic	-3838
ously	-3839
such	-3840
amental	-3841
osm	-3842
▁Life	-3843
▁comes	-3844
▁contract	-3845
▁universe	-3846
▁dead	-3847
mod	-3848
▁plant	-3849
ading	-3850
▁Russia	-3851
fghanistan	-3852
Dan	-3853
▁Lord	-3854
▁stri	-3855
▁parent	-3856
duce	-3857
▁note	-3858
▁Econom	-3859
▁disease	-3860
cest	-3861
eden	-3862
inton	-3863
Michael	-3864
cademy	-3865
urches	-3866
▁techniques	-3867
atab	-3868
▁vow	-3869
▁repe	-3870
▁powers	-3871
▁threat	-3872
▁intended	-3873
Ser	-3874
▁opt	-3875
wa	-3876
▁sem	-3877
▁slow	-3878
▁conver	-3879
▁Pat	-3880
▁rep	-3881
▁via	-3882
▁strateg	-3883
▁performed	-3884
▁sym	-3885
▁Museum	-3886
▁correct	-3887
▁apparent	-3888
oday	-3889
hematical	-3890
▁additional	-3891
Rel	-3892
iger	-3893
arrow	-3894
▁cells	-3895
ographic	-3896
PS	-3897
▁algorith	-3898
▁resources	-3899
mir	-3900
▁ox	-3901
anda	-3902
▁response	-3903
▁How	-3904
▁Holy	-3905
▁sexual	-3906
▁rise	-3907
▁somew	-3908
▁citizens	-3909
bell	-3910
▁Force	-3911
▁needed	-3912
▁reached	-3913
▁publisher	-3914
lean	-3915
▁heavy	-3916
▁spect	-3917
cluding	-3918
▁baseball	-3919
amin	-3920
▁White	-3921
▁river	-3922
imb	-3923
Isl	-3924
▁removed	-3925
▁purpose	-3926
vard	-3927
▁Mor	-3928
▁award	-3929
Med	-3930
netic	-3931
▁foot	-3932
▁synt	-3933
sec	-3934
▁regarded	-3935
▁cast	-3936
ii	-3937
alo	-3938
equ	-3939
▁phot	-3940
▁map	-3941
▁pict	-3942
mann	-3943
ferred	-3944
▁benef	-3945
archy	-3946
inction	-3947
▁reject	-3948
▁direction	-3949
If	-3950
▁cho	-3951
▁drop	-3952
istorical	-3953
▁Of	-3954
Many	-3955
lexand	-3956
ynasty	-3957
▁avoid	-3958
vey	-3959
ryst	-3960
ieties	-3961
nowiki	-3962
osexual	-3963
▁activity	-3964
My	-3965
▁file	-3966
irm	-3967
under	-3968
active	-3969
▁billion	-3970
orporation	-3971
adio	-3972
encies	-3973
▁places	-3974
▁Scotland	-3975
▁progress	-3976
ón	-3977
Book	-3978
agon	-3979
▁allows	-3980
had	-3981
uls	-3982
ottish	-3983
▁writers	-3984
non	-3985
▁lay	-3986
Ste	-3987
enz	-3988
▁Bay	-3989
▁rapid	-3990
▁nations	-3991
▁pun	-3992
▁stage	-3993
▁–	-3994
ova	-3995
▁night	-3996
▁conduct	-3997
:#	-3998
ani	-3999
▁tit	-4000
▁spirit	-4001
ributions	-4002
▁treatment	-4003
mig	-4004
ares	-4005
human	-4006
▁circum	-4007
▁background	-4008
Dis	-4009
▁suc	-4010
rie	-4011
Israel	-4012
▁alphabet	-4013
inem	-4014
inois	-4015
▁depend	-4016
▁comment	-4017
▁construct	-4018
Inf	-4019
▁Fre	-4020
▁conne	-4021
reder	-4022
▁Pers	-4023
itting	-4024
eography	-4025
home	-4026
▁contrast	-4027
rix	-4028
▁oppos	-4029
▁appointed	-4030
enh	-4031
quad	-4032
▁ple	-4033
▁prior	-4034
▁reaction	-4035
Bar	-4036
▁Ep	-4037
angel	-4038
arbon	-4039
▁Francis	-4040
uese	-4041
iform	-4042
aseball	-4043
▁love	-4044
▁actual	-4045
▁volume	-4046
▁suggest	-4047
een	-4048
▁Free	-4049
▁stop	-4050
olumbia	-4051
▁notable	-4052
▁broadcast	-4053
Bi	-4054
zech	-4055
▁conv	-4056
simple	-4057
rec	-4058
uan	-4059
▁Elect	-4060
▁humans	-4061
apse	-4062
ilies	-4063
▁Muslim	-4064
▁Bi	-4065
Pers	-4066
Sam	-4067
ils	-4068
nam	-4069
▁gives	-4070
▁Washington	-4071
ictory	-4072
▁worked	-4073
times	-4074
Soviet	-4075
▁approach	-4076
▁Dutch	-4077
rees	-4078
urity	-4079
iamond	-4080
▁Italy	-4081
▁chief	-4082
uing	-4083
▁middle	-4084
▁unique	-4085
ommission	-4086
bre	-4087
heir	-4088
▁bur	-4089
bgcolor	-4090
ortuguese	-4091
▁ut	-4092
indu	-4093
andard	-4094
▁round	-4095
▁approximately	-4096
occ	-4097
▁Dan	-4098
▁mission	-4099
aven	-4100
ndrew	-4101
▁Public	-4102
dr	-4103
ero	-4104
db	-4105
abs	-4106
real	-4107
▁dim	-4108
aging	-4109
cohol	-4110
▁Ocean	-4111
ansion	-4112
power	-4113
▁Mass	-4114
▁enem	-4115
▁daughter	-4116
alls	-4117
▁conqu	-4118
echnology	-4119
isters	-4120
ione	-4121
▁ult	-4122
abeth	-4123
url	-4124
brew	-4125
Italian	-4126
▁describe	-4127
uten	-4128
▁bank	-4129
ML	-4130
Sch	-4131
osa	-4132
▁batt	-4133
▁motion	-4134
Del	-4135
▁ste	-4136
▁deep	-4137
▁supported	-4138
Mac	-4139
▁Def	-4140
urrent	-4141
▁singer	-4142
iled	-4143
gency	-4144
During	-4145
▁inhab	-4146
▁formal	-4147
oud	-4148
▁Sam	-4149
▁fle	-4150
▁Music	-4151
ek	-4152
amples	-4153
▁bring	-4154
▁compar	-4155
▁carried	-4156
mathematics	-4157
bed	-4158
ully	-4159
▁stated	-4160
▁hundred	-4161
▁race	-4162
ulations	-4163
▁operating	-4164
opes	-4165
Saint	-4166
block	-4167
▁bomb	-4168
▁accur	-4169
tlantic	-4170
▁Football	-4171
▁extremely	-4172
rency	-4173
itable	-4174
▁vehic	-4175
fort	-4176
▁Old	-4177
▁inj	-4178
icted	-4179
▁useful	-4180
▁professional	-4181
rant	-4182
uthors	-4183
▁Eastern	-4184
▁reasons	-4185
▁completely	-4186
▁hous	-4187
ota	-4188
usc	-4189
arts	-4190
apers	-4191
▁virt	-4192
▁speech	-4193
Pal	-4194
ealand	-4195
riculture	-4196
Islam	-4197
inner	-4198
▁running	-4199
▁advant	-4200
▁multiple	-4201
▁BB	-4202
▁share	-4203
▁write	-4204
▁classical	-4205
rat	-4206
usal	-4207
ients	-4208
▁Bible	-4209
▁La	-4210
roat	-4211
▁Service	-4212
▁computers	-4213
Bill	-4214
down	-4215
leph	-4216
ellect	-4217
▁seems	-4218
▁bass	-4219
PP	-4220
life	-4221
eral	-4222
rone	-4223
▁feel	-4224
▁follows	-4225
▁continue	-4226
▁responsible	-4227
▁Haw	-4228
▁stren	-4229
▁figure	-4230
icrosoft	-4231
azi	-4232
oca	-4233
oration	-4234
▁director	-4235
ora	-4236
▁IV	-4237
umin	-4238
hristians	-4239
▁remaining	-4240
▁engineering	-4241
dv	-4242
size	-4243
urban	-4244
▁Direct	-4245
▁joined	-4246
arol	-4247
▁sac	-4248
mitted	-4249
▁slight	-4250
Den	-4251
lic	-4252
|'''&	-4253
▁candid	-4254
▁Dist	-4255
People	-4256
▁users	-4257
ulate	-4258
▁phenomen	-4259
▁theories	-4260
▁difference	-4261
▁sex	-4262
▁farm	-4263
▁usage	-4264
entially	-4265
▁Zealand	-4266
▁distance	-4267
aded	-4268
eless	-4269
anal	-4270
▁news	-4271
▁ask	-4272
omorph	-4273
PL	-4274
▁vote	-4275
comple	-4276
▁freed	-4277
▁branch	-4278
Japanese	-4279
OL	-4280
▁Inc	-4281
▁sil	-4282
odies	-4283
▁else	-4284
▁guitar	-4285
plies	-4286
▁wind	-4287
▁occurs	-4288
▁internal	-4289
big	-4290
coln	-4291
▁format	-4292
igen	-4293
race	-4294
success	-4295
▁actress	-4296
▁Den	-4297
▁resulting	-4298
wid	-4299
▁path	-4300
univers	-4301
▁settlement	-4302
mission	-4303
',	-4304
▁Mount	-4305
▁Mal	-4306
▁fif	-4307
Royal	-4308
inian	-4309
ospel	-4310
▁models	-4311
olt	-4312
ells	-4313
▁San	-4314
ilton	-4315
aria	-4316
bour	-4317
Egypt	-4318
▁hands	-4319
enty	-4320
▁week	-4321
hematic	-4322
▁alternative	-4323
eds	-4324
edic	-4325
olly	-4326
▁weight	-4327
▁powerful	-4328
▁distribution	-4329
▁“	-4330
mosp	-4331
▁Phil	-4332
anet	-4333
oring	-4334
▁dram	-4335
▁carbon	-4336
azz	-4337
oples	-4338
▁reading	-4339
▁records	-4340
▁fast	-4341
▁impact	-4342
▁applications	-4343
po	-4344
ned	-4345
▁lived	-4346
stances	-4347
bel	-4348
▁bit	-4349
▁elev	-4350
▁pack	-4351
▁opposed	-4352
allel	-4353
▁kil	-4354
India	-4355
▁spoken	-4356
stantial	-4357
▁potential	-4358
▁Kn	-4359
bury	-4360
▁mix	-4361
▁phr	-4362
▁ax	-4363
ocks	-4364
▁shot	-4365
▁secret	-4366
bot	-4367
rus	-4368
▁cellpadding	-4369
izes	-4370
works	-4371
▁face	-4372
▁hours	-4373
▁represented	-4374
▁sports	-4375
▁Us	-4376
▁sec	-4377
ception	-4378
aily	-4379
▁sets	-4380
▁turned	-4381
▁spl	-4382
▁songs	-4383
▁somewhat	-4384
cks	-4385
cts	-4386
div	-4387
▁charge	-4388
erem	-4389
osen	-4390
▁fair	-4391
antasy	-4392
ifically	-4393
language	-4394
▁medical	-4395
agg	-4396
ucle	-4397
▁contact	-4398
iro	-4399
isp	-4400
oting	-4401
▁electric	-4402
ault	-4403
▁exists	-4404
▁influenced	-4405
iop	-4406
heat	-4407
bar	-4408
▁Mod	-4409
▁vary	-4410
▁signal	-4411
▁protect	-4412
▁translation	-4413
era	-4414
ancy	-4415
▁activities	-4416
eu	-4417
colspan	-4418
▁online	-4419
ffff	-4420
▁tree	-4421
▁consequ	-4422
sole	-4423
tonic	-4424
▁emphas	-4425
▁previously	-4426
▁easily	-4427
oma	-4428
▁corpor	-4429
▁security	-4430
Peter	-4431
▁behavior	-4432
info	-4433
▁nor	-4434
inces	-4435
place	-4436
ssembly	-4437
▁causes	-4438
▁becoming	-4439
Mal	-4440
osh	-4441
▁ended	-4442
▁ships	-4443
▁Project	-4444
▁decided	-4445
▁Bur	-4446
▁Eth	-4447
▁Mov	-4448
▁Mary	-4449
▁mill	-4450
▁block	-4451
▁finally	-4452
izabeth	-4453
▁device	-4454
▁argument	-4455
▁episode	-4456
▁initial	-4457
oses	-4458
Edward	-4459
▁Under	-4460
velopment	-4461
▁composed	-4462
estant	-4463
lorida	-4464
▁notably	-4465
From	-4466
long	-4467
▁Duke	-4468
atabase	-4469
▁hot	-4470
achus	-4471
▁consum	-4472
▁native	-4473
▁despite	-4474
▁lif	-4475
uinea	-4476
den	-4477
sper	-4478
▁Love	-4479
▁brief	-4480
▁Street	-4481
▁signed	-4482
mericans	-4483
ante	-4484
▁ones	-4485
hile	-4486
▁board	-4487
▁mentioned	-4488
ри	-4489
nton	-4490
▁reve	-4491
umn	-4492
▁rot	-4493
▁Prov	-4494
abyl	-4495
kins	-4496
▁attempts	-4497
▁teams	-4498
Emperor	-4499
fess	-4500
▁Mark	-4501
▁failed	-4502
estament	-4503
yes	-4504
agram	-4505
hristmas	-4506
▁eastern	-4507
etts	-4508
uddh	-4509
ewton	-4510
Western	-4511
ederation	-4512
yond	-4513
▁flow	-4514
onvention	-4515
▁Bow	-4516
orders	-4517
▁review	-4518
▁condition	-4519
claim	-4520
▁views	-4521
▁arrang	-4522
▁musical	-4523
dem	-4524
ety	-4525
after	-4526
called	-4527
actions	-4528
ermanic	-4529
▁attacks	-4530
▁federal	-4531
▁su	-4532
▁win	-4533
aters	-4534
▁rank	-4535
▁friend	-4536
▁Just	-4537
▁capac	-4538
igan	-4539
▁empire	-4540
opy	-4541
poss	-4542
▁Bank	-4543
▁miles	-4544
▁beyond	-4545
▁topics	-4546
pa	-4547
ан	-4548
Special	-4549
VD	-4550
mus	-4551
ril	-4552
stra	-4553
▁Secret	-4554
War	-4555
poses	-4556
▁reign	-4557
▁belong	-4558
JP	-4559
lfred	-4560
▁Found	-4561
overnor	-4562
science	-4563
▁succeed	-4564
▁appearance	-4565
▁equivalent	-4566
pat	-4567
ockey	-4568
▁allowing	-4569
andom	-4570
hetic	-4571
itzer	-4572
ottom	-4573
▁doctr	-4574
▁favor	-4575
▁friends	-4576
▁featured	-4577
▁heat	-4578
▁People	-4579
ologists	-4580
▁equipment	-4581
▁operation	-4582
iring	-4583
▁fuel	-4584
ibl	-4585
▁Sun	-4586
▁flu	-4587
▁hor	-4588
etics	-4589
▁target	-4590
▁solution	-4591
DE	-4592
SE	-4593
Sim	-4594
gian	-4595
uide	-4596
linton	-4597
▁giving	-4598
▁screen	-4599
ules	-4600
Russia	-4601
▁charg	-4602
▁declared	-4603
▁IMP	-4604
▁dark	-4605
Bal	-4606
gam	-4607
commun	-4608
▁kingdom	-4609
width	-4610
▁doll	-4611
▁compared	-4612
▁standards	-4613
▁industrial	-4614
▁Ste	-4615
▁vill	-4616
▁track	-4617
▁astron	-4618
onversion	-4619
hief	-4620
hree	-4621
mond	-4622
wing	-4623
▁Jud	-4624
▁disk	-4625
eorgia	-4626
▁drive	-4627
▁wood	-4628
▁focus	-4629
▁immediately	-4630
▁Ver	-4631
cules	-4632
iated	-4633
udaism	-4634
▁micro	-4635
▁blue	-4636
▁meant	-4637
Francis	-4638
▁centre	-4639
▁financial	-4640
empl	-4641
minus	-4642
▁Iraq	-4643
▁critic	-4644
▁replace	-4645
▁entirely	-4646
iny	-4647
igin	-4648
zant	-4649
▁presence	-4650
▁differences	-4651
print	-4652
spacing	-4653
▁argued	-4654
▁efforts	-4655
lub	-4656
libr	-4657
▁Hill	-4658
ellite	-4659
▁moving	-4660
▁proved	-4661
ictional	-4662
hall	-4663
onym	-4664
stract	-4665
onc	-4666
rig	-4667
anto	-4668
▁Boy	-4669
nia	-4670
ommunity	-4671
▁Because	-4672
▁quality	-4673
alvin	-4674
▁fully	-4675
sil	-4676
▁requires	-4677
▁Wikipedia	-4678
▁principle	-4679
foot	-4680
achusetts	-4681
cd	-4682
oment	-4683
usalem	-4684
wealth	-4685
▁announced	-4686
oast	-4687
angle	-4688
▁goal	-4689
ortugal	-4690
▁risk	-4691
▁encour	-4692
polytonic	-4693
▁agreement	-4694
▁revolution	-4695
iling	-4696
erusalem	-4697
▁Language	-4698
jo	-4699
ging	-4700
alpha	-4701
ст	-4702
adium	-4703
▁crew	-4704
▁council	-4705
▁Department	-4706
force	-4707
▁Ford	-4708
▁dang	-4709
▁Louis	-4710
▁algebra	-4711
▁earliest	-4712
▁occasion	-4713
▁organizations	-4714
Bob	-4715
You	-4716
Spain	-4717
▁Disc	-4718
▁oppon	-4719
akistan	-4720
▁constit	-4721
▁expected	-4722
▁opposition	-4723
ragon	-4724
ellectual	-4725
pass	-4726
▁Bal	-4727
▁Olymp	-4728
▁scale	-4729
▁serve	-4730
gium	-4731
ogen	-4732
Louis	-4733
▁conson	-4734
▁demonstr	-4735
▁vic	-4736
instein	-4737
▁cellspacing	-4738
va	-4739
zen	-4740
alax	-4741
ping	-4742
eters	-4743
econom	-4744
etwork	-4745
▁situation	-4746
▁gram	-4747
▁combined	-4748
ba	-4749
phi	-4750
keley	-4751
Di	-4752
nat	-4753
run	-4754
Most	-4755
oven	-4756
▁`	-4757
rock	-4758
▁runs	-4759
▁incorpor	-4760
▁starting	-4761
ois	-4762
▁row	-4763
▁rough	-4764
▁unc	-4765
ommittee	-4766
▁unknown	-4767
▁IP	-4768
eeee	-4769
▁Dou	-4770
exico	-4771
▁peoples	-4772
Reg	-4773
even	-4774
teen	-4775
▁''&	-4776
named	-4777
▁van	-4778
overs	-4779
▁ruled	-4780
▁prison	-4781
▁search	-4782
anning	-4783
erved	-4784
ieval	-4785
tical	-4786
▁Film	-4787
rative	-4788
▁Hebrew	-4789
▁suggested	-4790
!&	-4791
vement	-4792
▁going	-4793
utomated	-4794
bf	-4795
▁infin	-4796
▁flight	-4797
population	-4798
▁otherwise	-4799
sey	-4800
everal	-4801
ribute	-4802
▁gained	-4803
Free	-4804
Mark	-4805
ogue	-4806
▁Human	-4807
▁Robert	-4808
▁growing	-4809
▁Illinois	-4810
▁critical	-4811
III	-4812
but	-4813
rog	-4814
enger	-4815
▁fans	-4816
▁marriage	-4817
zero	-4818
igion	-4819
▁fell	-4820
ilding	-4821
stream	-4822
▁Jones	-4823
▁stars	-4824
▁debate	-4825
▁reduced	-4826
▁references	-4827
Sem	-4828
ika	-4829
▁Rail	-4830
▁woman	-4831
▁communities	-4832
▁plants	-4833
▁possibly	-4834
uris	-4835
▁aim	-4836
▁domestic	-4837
▁occurred	-4838
ito	-4839
joy	-4840
▁ath	-4841
black	-4842
▁stra	-4843
DF	-4844
lab	-4845
eltic	-4846
ructure	-4847
▁fields	-4848
ader	-4849
hand	-4850
Prime	-4851
aling	-4852
ening	-4853
▁burn	-4854
Eastern	-4855
▁inside	-4856
▁Johnson	-4857
▁discussion	-4858
Fin	-4859
din	-4860
burgh	-4861
▁Both	-4862
▁Part	-4863
ologist	-4864
▁weapons	-4865
nline	-4866
▁adult	-4867
▁brain	-4868
ady	-4869
▁ice	-4870
ometry	-4871
gif	-4872
▁Leg	-4873
ilbert	-4874
▁choice	-4875
▁factors	-4876
▁magazine	-4877
arib	-4878
Second	-4879
▁match	-4880
▁criticism	-4881
▁recognized	-4882
▁'''''	-4883
▁effective	-4884
iable	-4885
eld	-4886
ura	-4887
▁Oxford	-4888
▁calendar	-4889
igious	-4890
▁technique	-4891
▁containing	-4892
Flag	-4893
▁limit	-4894
▁Berlin	-4895
▁copyright	-4896
▁contemporary	-4897
doc	-4898
▁answ	-4899
▁Books	-4900
▁purch	-4901
Military	-4902
▁stations	-4903
sian	-4904
Bas	-4905
ette	-4906
yper	-4907
▁feet	-4908
▁says	-4909
▁Paris	-4910
bbc	-4911
oat	-4912
hild	-4913
aints	-4914
alile	-4915
▁actions	-4916
gg	-4917
Mat	-4918
city	-4919
▁bal	-4920
emale	-4921
otion	-4922
▁myth	-4923
▁cycle	-4924
▁heart	-4925
▁newsp	-4926
ciation	-4927
▁attract	-4928
▁materials	-4929
oured	-4930
▁Open	-4931
▁Research	-4932
▁sequence	-4933
▁Organization	-4934
type	-4935
▁families	-4936
▁determined	-4937
▁hero	-4938
▁alone	-4939
▁closely	-4940
▁completed	-4941
▁connected	-4942
iplom	-4943
ceived	-4944
▁income	-4945
▁emperor	-4946
▁management	-4947
▁hop	-4948
▁classes	-4949
▁victory	-4950
owa	-4951
Jean	-4952
With	-4953
▁parliament	-4954
asa	-4955
deg	-4956
riz	-4957
ruit	-4958
▁Royal	-4959
ologies	-4960
illy	-4961
mong	-4962
rank	-4963
spired	-4964
▁grand	-4965
▁animal	-4966
▁relative	-4967
▁attention	-4968
▁expansion	-4969
▁introduction	-4970
Iran	-4971
avis	-4972
ffic	-4973
isted	-4974
▁politics	-4975
▁combination	-4976
tari	-4977
including	-4978
▁Information	-4979
▁application	-4980
eto	-4981
ctors	-4982
▁equation	-4983
▁training	-4984
▁Spe	-4985
eline	-4986
heast	-4987
▁Univers	-4988
▁advanced	-4989
▁greatest	-4990
stub	-4991
atman	-4992
ifying	-4993
▁argue	-4994
ression	-4995
▁Finland	-4996
ewis	-4997
inus	-4998
ephen	-4999
▁Over	-5000
▁gold	-5001
▁Queen	-5002
▁extensive	-5003
Joseph	-5004
▁extra	-5005
▁domain	-5006
ommonwealth	-5007
ager	-5008
link	-5009
▁Sub	-5010
odore	-5011
▁extended	-5012
PU	-5013
Pop	-5014
▁mut	-5015
▁sort	-5016
Eth	-5017
uisine	-5018
▁damage	-5019
▁marked	-5020
▁Program	-5021
▁positive	-5022
▁Democratic	-5023
▁popularity	-5024
bin	-5025
cor	-5026
▁Peter	-5027
▁protection	-5028
she	-5029
▁external	-5030
ao	-5031
vest	-5032
ishes	-5033
▁Prime	-5034
▁sites	-5035
articles	-5036
▁slightly	-5037
▁architecture	-5038
▁Social	-5039
▁churches	-5040
acher	-5041
uated	-5042
Russian	-5043
ungarian	-5044
▁Library	-5045
▁Official	-5046
blockquote	-5047
▁kept	-5048
plicit	-5049
cription	-5050
km	-5051
aved	-5052
uther	-5053
án	-5054
stat	-5055
▁administration	-5056
rot	-5057
andon	-5058
person	-5059
▁Brazil	-5060
Leg	-5061
Min	-5062
ouch	-5063
ership	-5064
▁Martin	-5065
▁entered	-5066
▁resulted	-5067
pi	-5068
adel	-5069
Heb	-5070
▁advoc	-5071
library	-5072
▁Virgin	-5073
▁forest	-5074
▁perman	-5075
▁structures	-5076
irds	-5077
iller	-5078
ummer	-5079
flagicon	-5080
▁composer	-5081
▁directed	-5082
▁maintain	-5083
anes	-5084
▁apply	-5085
▁enter	-5086
▁climate	-5087
▁offered	-5088
ygen	-5089
estival	-5090
rgentina	-5091
▁continues	-5092
pir	-5093
▁emb	-5094
errit	-5095
▁Stat	-5096
▁entry	-5097
sky	-5098
ensions	-5099
▁details	-5100
▁attempted	-5101
frame	-5102
urkey	-5103
ollowing	-5104
▁understanding	-5105
▁quot	-5106
▁holds	-5107
▁advantage	-5108
mo	-5109
rupt	-5110
onst	-5111
While	-5112
omput	-5113
abylon	-5114
▁string	-5115
▁province	-5116
▁destroyed	-5117
inth	-5118
uate	-5119
▁Bul	-5120
contin	-5121
atically	-5122
SS	-5123
▁fixed	-5124
ocation	-5125
▁importance	-5126
Bah	-5127
Prot	-5128
ommons	-5129
▁devices	-5130
▁figures	-5131
gr	-5132
▁ec	-5133
pers	-5134
▁ancest	-5135
Pope	-5136
▁Dev	-5137
▁pure	-5138
▁Modern	-5139
▁Windows	-5140
▁algorithm	-5141
▁increasingly	-5142
dec	-5143
▁shall	-5144
▁custom	-5145
▁Rob	-5146
movie	-5147
▁chall	-5148
▁digital	-5149
aa	-5150
iano	-5151
▁road	-5152
▁ft	-5153
High	-5154
imin	-5155
▁Lab	-5156
Dutch	-5157
urkish	-5158
▁nothing	-5159
▁existing	-5160
Film	-5161
first	-5162
uster	-5163
▁scene	-5164
▁identity	-5165
uard	-5166
▁frequency	-5167
▁officially	-5168
yg	-5169
bal	-5170
▁begins	-5171
hampionship	-5172
pp	-5173
edish	-5174
natural	-5175
▁factor	-5176
▁defeated	-5177
▁estimated	-5178
hol	-5179
ruce	-5180
▁Even	-5181
▁inde	-5182
allery	-5183
▁experim	-5184
▁processes	-5185
Don	-5186
etary	-5187
▁acts	-5188
▁notes	-5189
▁category	-5190
▁du	-5191
▁dig	-5192
number	-5193
▁plays	-5194
▁helped	-5195
▁inform	-5196
car	-5197
char	-5198
▁dog	-5199
▁cards	-5200
▁carry	-5201
▁extent	-5202
national	-5203
▁invasion	-5204
nal	-5205
ften	-5206
▁maxim	-5207
riedrich	-5208
Hel	-5209
▁Rom	-5210
entre	-5211
urder	-5212
Dr	-5213
aph	-5214
crete	-5215
orway	-5216
redirect	-5217
▁authors	-5218
▁reflect	-5219
▁theorem	-5220
▁buildings	-5221
▁prominent	-5222
?&	-5223
ра	-5224
Pat	-5225
fix	-5226
oes	-5227
▁Ben	-5228
▁coal	-5229
▁Wales	-5230
▁needs	-5231
vol	-5232
▁Jr	-5233
▁aid	-5234
stone	-5235
hannel	-5236
▁horse	-5237
Politics	-5238
▁kilomet	-5239
▁formation	-5240
PR	-5241
arden	-5242
orough	-5243
▁Pacific	-5244
lv	-5245
▁pp	-5246
▁bad	-5247
▁opin	-5248
ecution	-5249
hio	-5250
▁adj	-5251
▁pil	-5252
shtml	-5253
hester	-5254
Ham	-5255
uter	-5256
akers	-5257
▁suit	-5258
▁agreed	-5259
rust	-5260
ngeles	-5261
olorado	-5262
▁images	-5263
cf	-5264
rawn	-5265
▁shoot	-5266
▁texts	-5267
However	-5268
itarian	-5269
▁output	-5270
Big	-5271
iler	-5272
unicip	-5273
▁decades	-5274
▁experiment	-5275
aes	-5276
fully	-5277
▁roll	-5278
▁decre	-5279
related	-5280
▁minister	-5281
▁negative	-5282
▁positions	-5283
kin	-5284
lem	-5285
about	-5286
Middle	-5287
▁effort	-5288
lassical	-5289
▁bul	-5290
rison	-5291
▁Bill	-5292
▁league	-5293
▁ign	-5294
anges	-5295
rticle	-5296
▁green	-5297
▁sides	-5298
fri	-5299
pol	-5300
mouth	-5301
▁grav	-5302
▁categ	-5303
▁illust	-5304
mad	-5305
▁sun	-5306
hical	-5307
▁legend	-5308
▁scientists	-5309
▁description	-5310
ogle	-5311
itness	-5312
▁defense	-5313
▁liberal	-5314
▁statement	-5315
wan	-5316
rave	-5317
▁why	-5318
ustrian	-5319
▁convent	-5320
Early	-5321
▁Phys	-5322
▁doub	-5323
▁expressed	-5324
Bo	-5325
legal	-5326
Indian	-5327
▁Engine	-5328
▁ethnic	-5329
▁identified	-5330
BR	-5331
bd	-5332
ker	-5333
▁traditions	-5334
▁controversy	-5335
acc	-5336
▁Such	-5337
▁aspects	-5338
icks	-5339
ongo	-5340
ample	-5341
▁heavily	-5342
▁governments	-5343
ees	-5344
aming	-5345
▁Land	-5346
ackson	-5347
▁reach	-5348
▁fourth	-5349
▁square	-5350
igration	-5351
▁mythology	-5352
▁Hong	-5353
▁artist	-5354
▁closed	-5355
▁specifically	-5356
▁toward	-5357
ommunist	-5358
▁receive	-5359
ographics	-5360
kh	-5361
eler	-5362
game	-5363
Since	-5364
▁labor	-5365
▁opened	-5366
▁proced	-5367
▁wealth	-5368
▁student	-5369
▁observed	-5370
idae	-5371
▁cod	-5372
irport	-5373
▁enjoy	-5374
▁lives	-5375
▁atmosp	-5376
▁presented	-5377
ogg	-5378
ciences	-5379
anta	-5380
site	-5381
▁frame	-5382
▁exchange	-5383
▁respectively	-5384
Me	-5385
mal	-5386
▁job	-5387
▁Each	-5388
uar	-5389
▁url	-5390
ograp	-5391
mult	-5392
▁arms	-5393
▁Young	-5394
▁supply	-5395
cientific	-5396
▁mathematics	-5397
▁institutions	-5398
fish	-5399
ashion	-5400
braham	-5401
▁storage	-5402
▁thousands	-5403
▁controversial	-5404
User	-5405
▁Year	-5406
ichigan	-5407
▁Palest	-5408
▁beliefs	-5409
▁transform	-5410
▁big	-5411
▁simpl	-5412
▁greatly	-5413
▁fundamental	-5414
sen	-5415
▁Far	-5416
▁Ret	-5417
uration	-5418
▁continuous	-5419
ila	-5420
map	-5421
host	-5422
▁pal	-5423
▁vast	-5424
▁moment	-5425
▁artists	-5426
▁creating	-5427
▁redirect	-5428
lad	-5429
▁Senate	-5430
▁critics	-5431
How	-5432
tra	-5433
▁drink	-5434
▁sport	-5435
ativity	-5436
football	-5437
aby	-5438
ivia	-5439
Hebrew	-5440
Wik	-5441
aka	-5442
bean	-5443
▁fan	-5444
omple	-5445
onesia	-5446
▁voice	-5447
ducation	-5448
▁formula	-5449
▁typical	-5450
▁considerable	-5451
Lin	-5452
rial	-5453
ublin	-5454
▁Second	-5455
rictions	-5456
ré	-5457
aic	-5458
roc	-5459
▁Iran	-5460
▁label	-5461
▁Darwin	-5462
▁parallel	-5463
erg	-5464
neg	-5465
eeks	-5466
spec	-5467
inema	-5468
overe	-5469
▁Later	-5470
clusion	-5471
▁channel	-5472
▁freedom	-5473
▁inhabit	-5474
Rec	-5475
aac	-5476
▁Way	-5477
apole	-5478
argin	-5479
▁want	-5480
▁logic	-5481
disambiguation	-5482
ISB	-5483
opher	-5484
▁Space	-5485
Univers	-5486
lig	-5487
irus	-5488
▁goods	-5489
Jim	-5490
iat	-5491
alty	-5492
stood	-5493
▁Bush	-5494
▁Publ	-5495
▁warm	-5496
Jewish	-5497
▁input	-5498
onstantin	-5499
Met	-5500
andy	-5501
ctic	-5502
▁weak	-5503
▁abandon	-5504
Rever	-5505
▁purs	-5506
▁manner	-5507
obe	-5508
▁Fe	-5509
ormal	-5510
capital	-5511
▁raised	-5512
ello	-5513
▁Kore	-5514
▁hypot	-5515
ansas	-5516
antic	-5517
ontin	-5518
▁grew	-5519
flation	-5520
▁concepts	-5521
IR	-5522
ngl	-5523
ylv	-5524
rics	-5525
atform	-5526
ji	-5527
mes	-5528
ques	-5529
laska	-5530
▁spent	-5531
▁controlled	-5532
▁processing	-5533
sq	-5534
enses	-5535
social	-5536
stance	-5537
▁instrum	-5538
▁relation	-5539
jan	-5540
dess	-5541
▁strip	-5542
▁withd	-5543
raf	-5544
▁Bre	-5545
osing	-5546
perors	-5547
▁leave	-5548
▁minutes	-5549
▁connection	-5550
▁instruments	-5551
▁Bu	-5552
itic	-5553
acteria	-5554
▁summer	-5555
▁Further	-5556
▁regional	-5557
oir	-5558
Star	-5559
arus	-5560
▁upper	-5561
▁Middle	-5562
▁Security	-5563
▁purposes	-5564
Dou	-5565
appe	-5566
SP	-5567
agen	-5568
anti	-5569
heme	-5570
risis	-5571
olecular	-5572
▁physics	-5573
▁sufficient	-5574
alse	-5575
etroit	-5576
▁intelligence	-5577
ен	-5578
maz	-5579
elve	-5580
glas	-5581
mail	-5582
▁Mil	-5583
▁academ	-5584
▁policies	-5585
rome	-5586
oeing	-5587
▁stay	-5588
▁cultures	-5589
She	-5590
auc	-5591
ogy	-5592
lark	-5593
lease	-5594
rence	-5595
▁union	-5596
??	-5597
House	-5598
▁tribes	-5599
DD	-5600
olon	-5601
▁Bob	-5602
▁shape	-5603
program	-5604
▁bus	-5605
▁nob	-5606
ervation	-5607
▁leaving	-5608
▁Standard	-5609
orb	-5610
altar	-5611
icode	-5612
entury	-5613
▁chosen	-5614
▁strength	-5615
Euro	-5616
disc	-5617
▁Miss	-5618
▁Port	-5619
▁atoms	-5620
▁wanted	-5621
▁normally	-5622
agement	-5623
ificial	-5624
def	-5625
idden	-5626
▁Wood	-5627
▁asked	-5628
▁tried	-5629
▁characteristics	-5630
nth	-5631
sur	-5632
ylan	-5633
urisd	-5634
▁glass	-5635
▁dut	-5636
▁appropri	-5637
▁hab	-5638
Human	-5639
▁lingu	-5640
cu	-5641
▁Out	-5642
▁die	-5643
olute	-5644
▁pair	-5645
zantine	-5646
standing	-5647
▁college	-5648
▁someone	-5649
▁Sir	-5650
alter	-5651
▁Kenn	-5652
▁Poland	-5653
▁failure	-5654
ка	-5655
iser	-5656
otor	-5657
▁defeat	-5658
▁nuclear	-5659
▁describes	-5660
SO	-5661
His	-5662
low	-5663
pet	-5664
umm	-5665
uto	-5666
fare	-5667
iants	-5668
omics	-5669
author	-5670
Sub	-5671
rapy	-5672
▁Bra	-5673
▁bodies	-5674
▁dynasty	-5675
ricultural	-5676
▁regarding	-5677
Res	-5678
story	-5679
▁territories	-5680
▁presidential	-5681
▁traditionally	-5682
room	-5683
▁Mem	-5684
pread	-5685
common	-5686
ducing	-5687
▁exclus	-5688
▁explos	-5689
▁Richard	-5690
▁speakers	-5691
▁determine	-5692
▁initially	-5693
▁leadership	-5694
▁principles	-5695
▁competition	-5696
ransportation	-5697
isf	-5698
uted	-5699
▁Wall	-5700
▁Islamic	-5701
▁writings	-5702
▁subsequent	-5703
▁Mont	-5704
▁prep	-5705
▁violence	-5706
▁generation	-5707
wer	-5708
▁il	-5709
▁told	-5710
▁comic	-5711
olumbus	-5712
chem	-5713
▁Sur	-5714
▁armed	-5715
olomb	-5716
▁inspired	-5717
▁technical	-5718
▁launched	-5719
▁soldiers	-5720
heim	-5721
border	-5722
▁Online	-5723
▁assert	-5724
ibraltar	-5725
▁hardware	-5726
▁Foundation	-5727
nti	-5728
gment	-5729
▁fish	-5730
▁opening	-5731
utt	-5732
hird	-5733
▁goes	-5734
▁combat	-5735
▁twenty	-5736
▁depending	-5737
det	-5738
▁kg	-5739
emin	-5740
▁global	-5741
▁descend	-5742
lexandria	-5743
▁musician	-5744
RI	-5745
sa	-5746
olis	-5747
rmen	-5748
rose	-5749
reedom	-5750
▁interpretation	-5751
ancing	-5752
▁annual	-5753
vo	-5754
sid	-5755
riev	-5756
▁Rock	-5757
▁invent	-5758
▁representation	-5759
ilk	-5760
aneous	-5761
possible	-5762
▁electronic	-5763
hop	-5764
What	-5765
itler	-5766
ouston	-5767
▁prime	-5768
▁insert	-5769
▁master	-5770
leveland	-5771
▁repeated	-5772
lat	-5773
ums	-5774
Brit	-5775
Super	-5776
▁exam	-5777
▁vowel	-5778
aration	-5779
olecules	-5780
mathbf	-5781
▁police	-5782
ependent	-5783
starting	-5784
▁alleged	-5785
▁forward	-5786
ependence	-5787
iac	-5788
rod	-5789
celand	-5790
elligent	-5791
▁transfer	-5792
table	-5793
▁folk	-5794
Modern	-5795
apital	-5796
▁Death	-5797
▁Domin	-5798
▁strugg	-5799
▁symbols	-5800
ups	-5801
▁dance	-5802
▁genre	-5803
▁wides	-5804
▁achieved	-5805
▁supposed	-5806
universities	-5807
tlas	-5808
▁Victor	-5809
rederick	-5810
▁battles	-5811
▁monarch	-5812
▁surrounding	-5813
▁Encyclopedia	-5814
Sir	-5815
▁Big	-5816
ohann	-5817
▁Bern	-5818
▁pick	-5819
Brazil	-5820
innish	-5821
▁movements	-5822
▁distinction	-5823
So	-5824
mn	-5825
▁Met	-5826
▁pieces	-5827
si	-5828
Fre	-5829
anon	-5830
▁ends	-5831
▁protocol	-5832
▁quarter	-5833
▁winning	-5834
Ott	-5835
cia	-5836
enna	-5837
velt	-5838
▁reput	-5839
archive	-5840
roadcast	-5841
▁reports	-5842
▁Software	-5843
ubs	-5844
uras	-5845
▁price	-5846
▁split	-5847
ropical	-5848
▁meeting	-5849
▁opposite	-5850
onso	-5851
then	-5852
▁plane	-5853
▁tim	-5854
▁Moon	-5855
▁Wars	-5856
▁fort	-5857
▁dialects	-5858
je	-5859
star	-5860
▁iron	-5861
▁Spirit	-5862
aribbean	-5863
▁showing	-5864
▁projects	-5865
pan	-5866
Earth	-5867
found	-5868
▁seats	-5869
theless	-5870
colleges	-5871
▁Lincoln	-5872
onstantine	-5873
▁widespread	-5874
lie	-5875
bout	-5876
total	-5877
▁Form	-5878
▁cold	-5879
▁reality	-5880
▁machines	-5881
lock	-5882
▁chain	-5883
▁accomp	-5884
▁covered	-5885
▁density	-5886
▁dispute	-5887
▁granted	-5888
Haw	-5889
unar	-5890
▁Radio	-5891
dminist	-5892
▁movies	-5893
▁proport	-5894
▁suffered	-5895
MD	-5896
lines	-5897
▁Mars	-5898
portun	-5899
▁thing	-5900
▁Prince	-5901
▁editor	-5902
▁showed	-5903
▁capacity	-5904
▁fighting	-5905
▁practices	-5906
ommunications	-5907
icy	-5908
Indo	-5909
▁Bah	-5910
asure	-5911
▁imag	-5912
arters	-5913
▁parents	-5914
elevision	-5915
▁indicate	-5916
▁exception	-5917
bes	-5918
shire	-5919
Social	-5920
▁height	-5921
▁reduce	-5922
▁connect	-5923
▁cars	-5924
osevelt	-5925
▁studied	-5926
iterature	-5927
▁particles	-5928
▁mathematic	-5929
SM	-5930
ibn	-5931
Port	-5932
ingly	-5933
▁unus	-5934
comput	-5935
▁adapt	-5936
▁strict	-5937
▁Foreign	-5938
▁proceed	-5939
itionally	-5940
onference	-5941
unciation	-5942
▁represents	-5943
▁communication	-5944
eed	-5945
▁sal	-5946
iously	-5947
▁Saint	-5948
▁piece	-5949
▁awarded	-5950
▁medicine	-5951
▁Francisco	-5952
▁influential	-5953
IF	-5954
ails	-5955
▁What	-5956
▁roughly	-5957
▁worship	-5958
▁Di	-5959
Link	-5960
ormon	-5961
▁liqu	-5962
▁dates	-5963
Ireland	-5964
▁novels	-5965
▁clearly	-5966
▁Best	-5967
▁noun	-5968
▁deriv	-5969
▁Florida	-5970
▁expression	-5971
▁subsequently	-5972
know	-5973
nglo	-5974
▁Str	-5975
books	-5976
▁Barb	-5977
ricket	-5978
▁exhib	-5979
▁phrase	-5980
▁Division	-5981
▁Dictionary	-5982
anging	-5983
iblical	-5984
▁Family	-5985
▁message	-5986
▁perfect	-5987
UR	-5988
gate	-5989
grad	-5990
▁Hel	-5991
spect	-5992
▁feat	-5993
▁wild	-5994
▁zone	-5995
▁moral	-5996
Infobox	-5997
▁titles	-5998
▁ordered	-5999
▁involves	-6000
▁manufactur	-6001
mm	-6002
una	-6003
▁rates	-6004
▁conscious	-6005
▁inhabitants	-6006
ер	-6007
enge	-6008
▁phase	-6009
▁anything	-6010
ypr	-6011
talk	-6012
alent	-6013
emple	-6014
▁gain	-6015
▁gods	-6016
rizona	-6017
ictions	-6018
▁doctrine	-6019
fo	-6020
rows	-6021
etter	-6022
thens	-6023
▁Earl	-6024
▁Fact	-6025
▁orbit	-6026
▁bridge	-6027
▁questions	-6028
▁syn	-6029
udget	-6030
online	-6031
country	-6032
▁Edward	-6033
▁Office	-6034
▁Despite	-6035
llen	-6036
nost	-6037
sche	-6038
▁lat	-6039
heory	-6040
▁Four	-6041
▁negot	-6042
▁advent	-6043
▁narrow	-6044
ocuments	-6045
▁organized	-6046
BI	-6047
White	-6048
▁wave	-6049
ricity	-6050
▁actors	-6051
▁saying	-6052
▁Development	-6053
ISO	-6054
bat	-6055
▁vel	-6056
icide	-6057
ourse	-6058
seud	-6059
▁roy	-6060
ltern	-6061
atters	-6062
▁Liber	-6063
biology	-6064
awa	-6065
itled	-6066
ynamic	-6067
onfeder	-6068
unch	-6069
▁issued	-6070
official	-6071
Mor	-6072
isot	-6073
▁End	-6074
achine	-6075
▁weeks	-6076
▁explan	-6077
Fort	-6078
▁Lake	-6079
▁Rights	-6080
▁historians	-6081
opt	-6082
inder	-6083
Victor	-6084
ession	-6085
▁traffic	-6086
End	-6087
utral	-6088
▁Post	-6089
▁isol	-6090
▁Order	-6091
▁check	-6092
▁enemy	-6093
▁urban	-6094
tionary	-6095
▁Democr	-6096
▁persons	-6097
▁understood	-6098
alg	-6099
tes	-6100
▁Pop	-6101
▁Sat	-6102
ennis	-6103
resent	-6104
▁doing	-6105
SR	-6106
gain	-6107
▁Moore	-6108
▁jurisd	-6109
kes	-6110
▁Ke	-6111
jamin	-6112
▁Blue	-6113
▁honor	-6114
▁proof	-6115
▁weapon	-6116
▁degrees	-6117
▁publication	-6118
на	-6119
▁sector	-6120
that	-6121
▁root	-6122
▁wear	-6123
▁literary	-6124
▁occupied	-6125
▁contained	-6126
▁providing	-6127
▁alcohol	-6128
▁discovery	-6129
▁practical	-6130
▁components	-6131
▁translated	-6132
rb	-6133
▁Long	-6134
isions	-6135
▁minim	-6136
▁capable	-6137
▁workers	-6138
▁radiation	-6139
len	-6140
thew	-6141
▁sen	-6142
▁lands	-6143
▁Health	-6144
▁diplom	-6145
▁expanded	-6146
▁pronounced	-6147
▁resistance	-6148
▁composition	-6149
mu	-6150
Lord	-6151
▁Bro	-6152
green	-6153
▁oldest	-6154
▁recomm	-6155
Washington	-6156
IDS	-6157
▁Bos	-6158
▁score	-6159
speranto	-6160
▁respond	-6161
▁politician	-6162
Post	-6163
▁felt	-6164
▁Labor	-6165
▁beaut	-6166
▁principal	-6167
Jac	-6168
▁swe	-6169
eller	-6170
iffer	-6171
omial	-6172
▁Oper	-6173
▁valid	-6174
▁Father	-6175
▁massive	-6176
larg	-6177
ailed	-6178
▁towns	-6179
jection	-6180
▁Michael	-6181
▁extreme	-6182
▁obtained	-6183
▁mechanics	-6184
roph	-6185
apter	-6186
Boston	-6187
rystal	-6188
▁physic	-6189
▁classic	-6190
▁poll	-6191
▁victim	-6192
Football	-6193
▁Journal	-6194
Bul	-6195
herent	-6196
▁nomin	-6197
ylvania	-6198
ommodore	-6199
▁speaking	-6200
▁university	-6201
Death	-6202
aptism	-6203
▁plans	-6204
Economy	-6205
content	-6206
ographical	-6207
onservative	-6208
ED	-6209
Ma	-6210
ipher	-6211
▁Inst	-6212
aptain	-6213
▁Kings	-6214
▁ending	-6215
division	-6216
▁refused	-6217
angl	-6218
area	-6219
arry	-6220
lovak	-6221
▁rejected	-6222
ega	-6223
▁mm	-6224
hire	-6225
othe	-6226
▁font	-6227
Donald	-6228
▁rarely	-6229
▁strongly	-6230
aya	-6231
high	-6232
▁demand	-6233
▁planet	-6234
▁Massachusetts	-6235
iate	-6236
writer	-6237
▁mathematical	-6238
▁da	-6239
▁Home	-6240
illing	-6241
ecutive	-6242
ugustus	-6243
▁Valley	-6244
▁bottom	-6245
▁merely	-6246
▁significantly	-6247
su	-6248
aste	-6249
▁exc	-6250
icate	-6251
techn	-6252
ietnam	-6253
▁maint	-6254
▁whereas	-6255
▁worldwide	-6256
iox	-6257
▁recip	-6258
▁Hungary	-6259
▁coordin	-6260
▁killing	-6261
odz	-6262
resh	-6263
stan	-6264
atible	-6265
▁defend	-6266
▁collapse	-6267
Sec	-6268
▁bow	-6269
hrough	-6270
▁codes	-6271
▁files	-6272
utenberg	-6273
▁Indiana	-6274
▁portion	-6275
▁rapidly	-6276
▁suggests	-6277
▁Secretary	-6278
▁interview	-6279
ingle	-6280
▁susp	-6281
ih	-6282
Jack	-6283
▁flat	-6284
▁dedic	-6285
▁nucle	-6286
▁truth	-6287
▁divers	-6288
▁shared	-6289
▁unable	-6290
▁genetic	-6291
▁District	-6292
this	-6293
antly	-6294
▁magn	-6295
ía	-6296
psych	-6297
▁Ball	-6298
▁Bond	-6299
physics	-6300
▁propos	-6301
▁sought	-6302
▁measures	-6303
kt	-6304
ima	-6305
▁Sal	-6306
▁ago	-6307
amous	-6308
▁cool	-6309
▁rese	-6310
▁store	-6311
▁engines	-6312
▁consonant	-6313
Mary	-6314
▁huge	-6315
▁severe	-6316
▁assumed	-6317
▁impossible	-6318
▁mist	-6319
enesis	-6320
▁react	-6321
▁stock	-6322
▁portray	-6323
itzerland	-6324
▁explicit	-6325
government	-6326
▁Jerusalem	-6327
▁producing	-6328
▁occasionally	-6329
zy	-6330
Sun	-6331
rait	-6332
▁Work	-6333
▁feed	-6334
▁rend	-6335
▁teach	-6336
Sk	-6337
igr	-6338
lon	-6339
▁abb	-6340
anian	-6341
iciency	-6342
▁really	-6343
▁currency	-6344
▁apparently	-6345
mic	-6346
osc	-6347
ilia	-6348
yles	-6349
compl	-6350
▁room	-6351
▁wars	-6352
▁cable	-6353
igenous	-6354
vertical	-6355
▁exactly	-6356
▁Southern	-6357
▁opportun	-6358
ugh	-6359
▁har	-6360
▁corn	-6361
▁nine	-6362
▁begin	-6363
▁accounts	-6364
▁captured	-6365
succession	-6366
▁societies	-6367
ez	-6368
Mel	-6369
fire	-6370
itage	-6371
▁Star	-6372
▁frag	-6373
Martin	-6374
cluded	-6375
iginal	-6376
▁Super	-6377
▁edits	-6378
▁coming	-6379
▁mountain	-6380
cos	-6381
sum	-6382
asts	-6383
igma	-6384
▁zero	-6385
▁ratio	-6386
▁Joseph	-6387
▁Judaism	-6388
▁Supreme	-6389
ucl	-6390
▁Lee	-6391
▁got	-6392
tlanta	-6393
▁Bridge	-6394
▁prohib	-6395
anguages	-6396
▁Federal	-6397
▁molecules	-6398
▁succeeded	-6399
construction	-6400
yah	-6401
ture	-6402
olitan	-6403
ellation	-6404
▁Sk	-6405
abul	-6406
ibli	-6407
▁Dead	-6408
▁cook	-6409
olecule	-6410
▁straight	-6411
ontributions	-6412
▁universities	-6413
zo	-6414
ams	-6415
dams	-6416
▁Sol	-6417
IBM	-6418
oen	-6419
coll	-6420
iced	-6421
▁Line	-6422
ynamics	-6423
▁advert	-6424
ensional	-6425
▁executive	-6426
uits	-6427
▁Boston	-6428
▁indeed	-6429
▁viewed	-6430
herefore	-6431
▁ultimately	-6432
ski	-6433
▁Don	-6434
Paris	-6435
iences	-6436
▁anarch	-6437
▁assass	-6438
▁detect	-6439
▁necessarily	-6440
ão	-6441
cha	-6442
pot	-6443
rium	-6444
othic	-6445
Jud	-6446
Bern	-6447
eman	-6448
greg	-6449
▁Spr	-6450
apoleon	-6451
▁detailed	-6452
▁invented	-6453
olph	-6454
osph	-6455
unct	-6456
garia	-6457
alia	-6458
laud	-6459
▁Only	-6460
▁Play	-6461
▁dism	-6462
ranean	-6463
▁houses	-6464
chemical	-6465
▁existed	-6466
▁colonies	-6467
cr	-6468
Mad	-6469
rts	-6470
antry	-6471
▁rich	-6472
▁preced	-6473
▁managed	-6474
▁district	-6475
iful	-6476
irty	-6477
Mount	-6478
illes	-6479
radio	-6480
▁lies	-6481
▁fought	-6482
▁listed	-6483
▁medium	-6484
▁winter	-6485
▁setting	-6486
svg	-6487
▁ce	-6488
file	-6489
miga	-6490
▁Mer	-6491
alaxy	-6492
▁easy	-6493
▁batter	-6494
▁orders	-6495
▁throne	-6496
ructions	-6497
hl	-6498
▁Sox	-6499
▁Who	-6500
anged	-6501
▁ring	-6502
▁route	-6503
▁trial	-6504
electron	-6505
▁circuit	-6506
▁maximum	-6507
roduction	-6508
▁spiritual	-6509
bn	-6510
uns	-6511
▁pit	-6512
prise	-6513
▁ampl	-6514
▁fashion	-6515
Los	-6516
dist	-6517
▁Fort	-6518
▁paid	-6519
second	-6520
▁sched	-6521
Rom	-6522
ontrol	-6523
▁calls	-6524
▁Polish	-6525
▁arrest	-6526
function	-6527
▁improved	-6528
▁candidate	-6529
Id	-6530
Off	-6531
who	-6532
amine	-6533
irmed	-6534
ristot	-6535
▁chrom	-6536
▁compl	-6537
▁permanent	-6538
Map	-6539
hips	-6540
osta	-6541
▁sole	-6542
▁drugs	-6543
present	-6544
▁strategy	-6545
bian	-6546
mund	-6547
ustin	-6548
▁layer	-6549
▁theat	-6550
▁visit	-6551
▁dialect	-6552
▁interests	-6553
Jul	-6554
▁walk	-6555
abinet	-6556
▁joint	-6557
product	-6558
▁teaching	-6559
circ	-6560
▁canon	-6561
▁producer	-6562
▁developing	-6563
▁Ho	-6564
▁IR	-6565
▁sn	-6566
Mont	-6567
Oper	-6568
word	-6569
osaur	-6570
ugged	-6571
▁seat	-6572
▁crime	-6573
▁hydrogen	-6574
gave	-6575
▁cerem	-6576
▁neither	-6577
▁constructed	-6578
Mag	-6579
▁VI	-6580
Mass	-6581
romag	-6582
white	-6583
yprus	-6584
▁Records	-6585
plications	-6586
uum	-6587
olin	-6588
elson	-6589
pective	-6590
elsh	-6591
▁Equ	-6592
istical	-6593
aux	-6594
eus	-6595
enns	-6596
▁synd	-6597
hedral	-6598
iology	-6599
▁define	-6600
▁founder	-6601
▁picture	-6602
▁learning	-6603
▁expensive	-6604
Kn	-6605
aron	-6606
rail	-6607
party	-6608
apping	-6609
ortion	-6610
▁audio	-6611
▁researc	-6612
▁employed	-6613
female	-6614
▁periods	-6615
▁investig	-6616
▁modified	-6617
Bur	-6618
Vol	-6619
▁Hell	-6620
▁wrong	-6621
▁planned	-6622
▁neighbor	-6623
▁household	-6624
EF	-6625
Rob	-6626
ordon	-6627
▁clock	-6628
▁stress	-6629
Reverted	-6630
▁Michigan	-6631
▁Military	-6632
▁documents	-6633
nim	-6634
▁obv	-6635
ierre	-6636
orrow	-6637
▁Bell	-6638
▁bits	-6639
▁elimin	-6640
▁taught	-6641
▁Israeli	-6642
▁amounts	-6643
▁concert	-6644
Wiki	-6645
▁try	-6646
video	-6647
▁Power	-6648
▁theme	-6649
▁stands	-6650
▁Williams	-6651
ifications	-6652
▁interface	-6653
▁References	-6654
▁destruction	-6655
sm	-6656
uat	-6657
van	-6658
ownt	-6659
Queen	-6660
▁fear	-6661
▁server	-6662
▁termin	-6663
▁Russell	-6664
▁causing	-6665
▁dedicated	-6666
dim	-6667
ido	-6668
enus	-6669
wall	-6670
erals	-6671
▁mode	-6672
atomic	-6673
▁universal	-6674
osy	-6675
▁fil	-6676
▁none	-6677
claimed	-6678
▁dollar	-6679
eneration	-6680
anth	-6681
notes	-6682
urance	-6683
▁arbit	-6684
Persian	-6685
▁Brother	-6686
▁settled	-6687
Microsoft	-6688
▁Protocol	-6689
és	-6690
Rock	-6691
orest	-6692
regor	-6693
▁Fire	-6694
▁mixed	-6695
▁dominant	-6696
▁networks	-6697
oj	-6698
aga	-6699
▁ran	-6700
antum	-6701
Histor	-6702
ishops	-6703
▁error	-6704
▁Sweden	-6705
iterranean	-6706
ennsylvania	-6707
ester	-6708
going	-6709
ampion	-6710
▁drawn	-6711
ishment	-6712
jective	-6713
▁behavi	-6714
▁Philosophy	-6715
anic	-6716
load	-6717
▁mel	-6718
rance	-6719
bishop	-6720
▁Board	-6721
▁recording	-6722
▁atmosphere	-6723
ubb	-6724
▁Mad	-6725
▁pione	-6726
▁tools	-6727
Kingdom	-6728
odzilla	-6729
▁safety	-6730
hristopher	-6731
sea	-6732
body	-6733
orter	-6734
▁Brun	-6735
ntario	-6736
▁Early	-6737
▁Major	-6738
▁twice	-6739
▁choose	-6740
▁Justice	-6741
▁essential	-6742
how	-6743
uin	-6744
axon	-6745
ugar	-6746
ugos	-6747
▁authorities	-6748
▁contributed	-6749
dev	-6750
▁qual	-6751
encing	-6752
people	-6753
unting	-6754
▁Jackson	-6755
▁essentially	-6756
Sat	-6757
▁vs	-6758
▁Hon	-6759
▁Labour	-6760
▁orient	-6761
▁holding	-6762
▁identical	-6763
▁maintained	-6764
nne	-6765
Holy	-6766
Life	-6767
efef	-6768
▁dry	-6769
▁evil	-6770
aptist	-6771
▁staff	-6772
▁topic	-6773
▁trees	-6774
Political	-6775
leep	-6776
▁semi	-6777
ienced	-6778
▁leads	-6779
issance	-6780
▁treated	-6781
▁featuring	-6782
onstantinople	-6783
lit	-6784
oter	-6785
ulpt	-6786
▁abol	-6787
isource	-6788
▁Hitler	-6789
▁attend	-6790
▁diamond	-6791
▁audience	-6792
▁discover	-6793
▁converted	-6794
▁appropriate	-6795
anim	-6796
ynch	-6797
▁Field	-6798
▁liber	-6799
▁stone	-6800
plication	-6801
oli	-6802
yan	-6803
unit	-6804
▁mor	-6805
▁treaty	-6806
▁achieve	-6807
ami	-6808
Open	-6809
rarr	-6810
inson	-6811
ische	-6812
▁peak	-6813
▁innov	-6814
▁motor	-6815
Foreign	-6816
reation	-6817
▁platform	-6818
▁component	-6819
▁Portuguese	-6820
cht	-6821
Blue	-6822
mers	-6823
umes	-6824
▁Mel	-6825
etime	-6826
▁arts	-6827
insula	-6828
nuclear	-6829
Scotland	-6830
▁origins	-6831
▁relationships	-6832
ро	-6833
▁EU	-6834
ista	-6835
ersey	-6836
▁Stan	-6837
▁dict	-6838
▁nick	-6839
▁clean	-6840
▁paint	-6841
▁prefer	-6842
▁remove	-6843
▁sovere	-6844
▁Several	-6845
▁democracy	-6846
▁attributed	-6847
ME	-6848
Disc	-6849
lang	-6850
publ	-6851
udes	-6852
▁evolved	-6853
▁opinion	-6854
▁newspaper	-6855
▁effectively	-6856
▁environmental	-6857
Ern	-6858
▁lit	-6859
ransp	-6860
Berlin	-6861
▁assist	-6862
▁sounds	-6863
▁arrived	-6864
MI	-6865
fre	-6866
orman	-6867
▁Lewis	-6868
▁Scottish	-6869
▁affected	-6870
▁compounds	-6871
▁involving	-6872
▁commission	-6873
▁Up	-6874
acon	-6875
album	-6876
▁anthrop	-6877
▁overall	-6878
political	-6879
▁subjects	-6880
▁civilization	-6881
▁temperatures	-6882
dou	-6883
educ	-6884
unday	-6885
▁Song	-6886
direct	-6887
▁costs	-6888
▁affect	-6889
▁faster	-6890
▁stable	-6891
▁cuisine	-6892
▁visible	-6893
operation	-6894
television	-6895
▁philosopher	-6896
uv	-6897
▁Po	-6898
▁wall	-6899
▁items	-6900
▁Wilson	-6901
Scottish	-6902
▁designs	-6903
▁selection	-6904
▁homosexual	-6905
▁intellectual	-6906
▁Ma	-6907
prov	-6908
▁Luc	-6909
▁tact	-6910
alileo	-6911
▁bands	-6912
▁courts	-6913
▁Roosevelt	-6914
▁membership	-6915
cut	-6916
▁Op	-6917
aped	-6918
crib	-6919
▁Dun	-6920
family	-6921
▁analy	-6922
▁mouth	-6923
▁reven	-6924
atorial	-6925
▁Battle	-6926
▁desert	-6927
DR	-6928
acle	-6929
riff	-6930
▁voc	-6931
ifest	-6932
▁core	-6933
etween	-6934
▁worth	-6935
▁warfare	-6936
▁acquired	-6937
▁concerned	-6938
▁Fa	-6939
iner	-6940
ropy	-6941
▁hus	-6942
▁san	-6943
istle	-6944
▁revealed	-6945
▁conservative	-6946
hum	-6947
mun	-6948
Major	-6949
iopia	-6950
▁apart	-6951
▁separated	-6952
▁electrical	-6953
▁reputation	-6954
iti	-6955
Stat	-6956
helm	-6957
reeks	-6958
▁vess	-6959
former	-6960
▁murder	-6961
▁priest	-6962
nel	-6963
ners	-6964
▁Fle	-6965
ivate	-6966
▁Ohio	-6967
▁bind	-6968
solete	-6969
uations	-6970
▁adding	-6971
▁stored	-6972
Of	-6973
sat	-6974
▁gra	-6975
iliar	-6976
quest	-6977
sters	-6978
▁prem	-6979
ornell	-6980
system	-6981
uscript	-6982
▁remark	-6983
evolution	-6984
▁minority	-6985
data	-6986
▁bran	-6987
▁moder	-6988
▁plate	-6989
▁Studies	-6990
▁deliver	-6991
aeus	-6992
card	-6993
Domin	-6994
aware	-6995
inity	-6996
integ	-6997
metic	-6998
▁logo	-6999
▁substance	-7000
athy	-7001
imdb	-7002
ocity	-7003
Sweden	-7004
hronic	-7005
▁Scott	-7006
▁Intelligence	-7007
Luc	-7008
akh	-7009
▁Dec	-7010
▁Pen	-7011
▁sons	-7012
icians	-7013
▁daily	-7014
Unicode	-7015
alvador	-7016
rection	-7017
▁favour	-7018
iph	-7019
ples	-7020
▁trou	-7021
▁committed	-7022
▁supporters	-7023
Mc	-7024
Mic	-7025
sem	-7026
▁ban	-7027
▁rival	-7028
▁trying	-7029
▁imperial	-7030
▁Republican	-7031
aca	-7032
aret	-7033
reas	-7034
acles	-7035
worth	-7036
▁Road	-7037
inners	-7038
ocaust	-7039
nglican	-7040
ospital	-7041
▁anyone	-7042
▁depart	-7043
▁radical	-7044
rc	-7045
aza	-7046
stm	-7047
eton	-7048
idel	-7049
open	-7050
civil	-7051
dvent	-7052
Johann	-7053
▁agree	-7054
▁hence	-7055
▁inher	-7056
▁lists	-7057
▁owned	-7058
▁accompl	-7059
▁affairs	-7060
▁disorder	-7061
▁entitled	-7062
▁extension	-7063
ku	-7064
Land	-7065
term	-7066
udio	-7067
ounded	-7068
roatia	-7069
▁veget	-7070
Digital	-7071
▁notion	-7072
▁mainstream	-7073
▁phenomenon	-7074
oved	-7075
onnect	-7076
▁Dylan	-7077
abilities	-7078
▁finished	-7079
▁dangerous	-7080
▁statistics	-7081
yo	-7082
HMS	-7083
nan	-7084
ori	-7085
fall	-7086
prop	-7087
▁Rod	-7088
orses	-7089
▁crown	-7090
Pre	-7091
orwe	-7092
osed	-7093
▁Hay	-7094
▁explo	-7095
▁launch	-7096
▁sister	-7097
cfm	-7098
▁OS	-7099
erse	-7100
ypes	-7101
▁plus	-7102
▁verb	-7103
▁royal	-7104
process	-7105
▁circle	-7106
▁nearby	-7107
ployment	-7108
▁consisting	-7109
aro	-7110
▁Id	-7111
▁HIV	-7112
ptoms	-7113
source	-7114
weight	-7115
▁Buddh	-7116
▁broke	-7117
▁excess	-7118
▁unusual	-7119
▁vehicles	-7120
▁dominated	-7121
▁efficient	-7122
▁provinces	-7123
adi	-7124
Hell	-7125
issue	-7126
lobal	-7127
orship	-7128
olombia	-7129
▁Systems	-7130
▁request	-7131
▁recognition	-7132
▁philosophical	-7133
ethe	-7134
lton	-7135
ricts	-7136
Daniel	-7137
asters	-7138
Hungary	-7139
pressed	-7140
▁Review	-7141
▁Edition	-7142
Dev	-7143
▁Pict	-7144
▁advance	-7145
▁decline	-7146
▁missile	-7147
Portuguese	-7148
▁gradually	-7149
▁officials	-7150
▁categories	-7151
▁classified	-7152
▁Will	-7153
▁sales	-7154
▁rivers	-7155
▁collabor	-7156
▁fictional	-7157
▁satellite	-7158
icht	-7159
rice	-7160
▁cru	-7161
unnel	-7162
annels	-7163
nthony	-7164
▁false	-7165
▁femin	-7166
▁roots	-7167
▁partly	-7168
communic	-7169
mythology	-7170
▁measured	-7171
aco	-7172
cho	-7173
euro	-7174
▁Men	-7175
ancer	-7176
athan	-7177
Public	-7178
general	-7179
ometric	-7180
▁vehicle	-7181
▁predomin	-7182
▁rational	-7183
▁Education	-7184
▁philosophers	-7185
▁corresponding	-7186
EL	-7187
nds	-7188
cape	-7189
omes	-7190
ropolitan	-7191
▁Economic	-7192
▁Virginia	-7193
▁academic	-7194
Sen	-7195
orms	-7196
quis	-7197
Windows	-7198
▁Kennedy	-7199
▁graphics	-7200
uer	-7201
ulin	-7202
▁crim	-7203
ollins	-7204
▁Hawai	-7205
▁aware	-7206
▁resemb	-7207
▁Berkeley	-7208
Bre	-7209
lap	-7210
iary	-7211
rayer	-7212
▁narr	-7213
▁soul	-7214
Pacific	-7215
▁linked	-7216
speaking	-7217
▁selected	-7218
▁superior	-7219
▁legislation	-7220
▁characteristic	-7221
ел	-7222
uity	-7223
▁Like	-7224
▁bear	-7225
▁hair	-7226
ruption	-7227
▁beings	-7228
▁acceler	-7229
▁carrier	-7230
▁secondary	-7231
▁successor	-7232
▁concerning	-7233
▁Mu	-7234
▁fit	-7235
▁multi	-7236
ustries	-7237
western	-7238
▁Franklin	-7239
▁particle	-7240
▁equations	-7241
▁administrative	-7242
SD	-7243
eh	-7244
▁inn	-7245
▁lot	-7246
nimal	-7247
incinn	-7248
▁shell	-7249
english	-7250
iations	-7251
▁oxygen	-7252
▁accident	-7253
▁patients	-7254
philosophy	-7255
▁occupation	-7256
hose	-7257
▁cas	-7258
Doctor	-7259
▁crypt	-7260
▁pitch	-7261
▁Mexico	-7262
▁colony	-7263
Democratic	-7264
▁experienced	-7265
▁interesting	-7266
▁possibility	-7267
▁constitutional	-7268
eda	-7269
lik	-7270
hess	-7271
eenth	-7272
▁febr	-7273
carbon	-7274
▁Korea	-7275
▁walls	-7276
▁analog	-7277
▁leaves	-7278
▁Profess	-7279
▁denomin	-7280
▁changing	-7281
▁thousand	-7282
▁convention	-7283
Pan	-7284
Hong	-7285
prot	-7286
▁join	-7287
▁broken	-7288
quarters	-7289
aren	-7290
case	-7291
oger	-7292
▁eat	-7293
▁Light	-7294
▁ideal	-7295
owntown	-7296
▁spring	-7297
▁perceived	-7298
▁accessdate	-7299
▁investment	-7300
▁incorporated	-7301
hron	-7302
iang	-7303
ubble	-7304
▁crop	-7305
airman	-7306
▁fleet	-7307
▁occas	-7308
Federal	-7309
▁decade	-7310
▁discip	-7311
▁liquid	-7312
wikitable	-7313
▁Einstein	-7314
▁Movement	-7315
▁patterns	-7316
vironmental	-7317
him	-7318
▁na	-7319
hart	-7320
olas	-7321
▁Sil	-7322
scape	-7323
▁Dale	-7324
▁Full	-7325
idency	-7326
▁heard	-7327
▁terror	-7328
▁Similar	-7329
Equ	-7330
ods	-7331
appa	-7332
anton	-7333
▁Ruth	-7334
▁onto	-7335
▁Histor	-7336
▁commit	-7337
▁Elizabeth	-7338
▁mechanism	-7339
▁substantial	-7340
▁Dam	-7341
▁subt	-7342
▁agent	-7343
▁kings	-7344
▁prepar	-7345
rchitect	-7346
▁Denmark	-7347
▁capture	-7348
▁shortly	-7349
▁uniform	-7350
▁chemistry	-7351
▁conducted	-7352
▁concentration	-7353
onom	-7354
▁DVD	-7355
itism	-7356
▁Writ	-7357
▁Peace	-7358
▁breed	-7359
▁youth	-7360
▁library	-7361
OP	-7362
fil	-7363
Part	-7364
othing	-7365
ulating	-7366
▁stream	-7367
orwegian	-7368
▁explain	-7369
▁protein	-7370
▁biological	-7371
▁°	-7372
Hom	-7373
Ray	-7374
awn	-7375
agle	-7376
hyth	-7377
amber	-7378
itual	-7379
Poland	-7380
▁increases	-7381
▁successfully	-7382
Val	-7383
soc	-7384
iego	-7385
rors	-7386
▁amb	-7387
▁Spec	-7388
▁answer	-7389
▁census	-7390
▁switch	-7391
▁unless	-7392
▁manager	-7393
▁formally	-7394
▁abandoned	-7395
Rome	-7396
beta	-7397
oiced	-7398
▁expand	-7399
▁regime	-7400
▁computing	-7401
ар	-7402
agh	-7403
obi	-7404
lium	-7405
▁nav	-7406
novel	-7407
▁eyes	-7408
ommand	-7409
rieved	-7410
military	-7411
▁accurate	-7412
ansk	-7413
▁Fox	-7414
aesar	-7415
letter	-7416
riptions	-7417
▁Defense	-7418
incinnati	-7419
Ol	-7420
Hol	-7421
icut	-7422
onan	-7423
▁Dra	-7424
emper	-7425
onder	-7426
▁plot	-7427
upiter	-7428
▁Daniel	-7429
▁ensure	-7430
Hz	-7431
Sal	-7432
don	-7433
iom	-7434
lpha	-7435
wich	-7436
hered	-7437
▁Expl	-7438
adelph	-7439
▁linear	-7440
▁license	-7441
▁Egyptian	-7442
▁mountains	-7443
▁variations	-7444
Log	-7445
dig	-7446
orf	-7447
anol	-7448
east	-7449
▁sin	-7450
intosh	-7451
▁draft	-7452
▁matters	-7453
omorphism	-7454
▁assembly	-7455
▁infinite	-7456
EEE	-7457
dep	-7458
atra	-7459
mass	-7460
etball	-7461
rowser	-7462
▁random	-7463
▁spelling	-7464
evertheless	-7465
nc	-7466
Day	-7467
opter	-7468
▁park	-7469
hapter	-7470
lements	-7471
▁Romans	-7472
▁prices	-7473
▁multipl	-7474
▁criminal	-7475
▁governor	-7476
rv	-7477
ught	-7478
ibniz	-7479
▁Lords	-7480
▁repro	-7481
arolina	-7482
ilation	-7483
▁meters	-7484
▁reforms	-7485
▁variable	-7486
▁residents	-7487
▁fly	-7488
▁athl	-7489
▁iocc	-7490
alling	-7491
uffalo	-7492
alendar	-7493
▁visual	-7494
▁concerns	-7495
▁preferred	-7496
▁distinguish	-7497
amel	-7498
elly	-7499
▁Ott	-7500
▁icon	-7501
pected	-7502
▁holid	-7503
emplate	-7504
▁binary	-7505
inations	-7506
▁everything	-7507
он	-7508
eria	-7509
lger	-7510
riot	-7511
▁Pet	-7512
State	-7513
ifies	-7514
ordan	-7515
using	-7516
▁sections	-7517
edd	-7518
▁Rh	-7519
▁Pre	-7520
▁eye	-7521
unter	-7522
▁Show	-7523
▁bill	-7524
▁task	-7525
Prince	-7526
▁newly	-7527
▁branches	-7528
▁Represent	-7529
▁instruction	-7530
▁agricultural	-7531
mk	-7532
hot	-7533
gence	-7534
while	-7535
ermans	-7536
orning	-7537
planet	-7538
▁Davis	-7539
▁acting	-7540
▁chance	-7541
▁colors	-7542
▁complexity	-7543
lg	-7544
Hyd	-7545
Over	-7546
oons	-7547
micro	-7548
▁mort	-7549
Polish	-7550
▁Water	-7551
▁produces	-7552
▁consumption	-7553
Ke	-7554
Web	-7555
Pres	-7556
▁pan	-7557
▁rac	-7558
omers	-7559
▁Hindu	-7560
▁Design	-7561
▁abbrev	-7562
▁depends	-7563
▁hundreds	-7564
▁succession	-7565
▁circumstances	-7566
lar	-7567
nty	-7568
tre	-7569
Four	-7570
▁coup	-7571
▁infr	-7572
Science	-7573
playing	-7574
▁styles	-7575
unicipal	-7576
▁disappe	-7577
▁distinguished	-7578
Dec	-7579
riel	-7580
▁firm	-7581
ioxide	-7582
ourney	-7583
▁fifth	-7584
inburgh	-7585
▁Report	-7586
▁Portugal	-7587
FFFF	-7588
aver	-7589
▁Rem	-7590
▁gene	-7591
▁Years	-7592
▁index	-7593
hildren	-7594
▁serving	-7595
▁Pakistan	-7596
Us	-7597
alm	-7598
oks	-7599
Intel	-7600
Water	-7601
▁Well	-7602
irtual	-7603
Liberal	-7604
▁mental	-7605
▁Instead	-7606
▁dropped	-7607
▁improve	-7608
▁trading	-7609
Er	-7610
ال	-7611
Fer	-7612
amma	-7613
four	-7614
names	-7615
orous	-7616
ductor	-7617
▁Enter	-7618
▁camer	-7619
▁exerc	-7620
Belgium	-7621
▁bishop	-7622
▁emerged	-7623
ки	-7624
Bra	-7625
▁Ha	-7626
avel	-7627
orer	-7628
▁Hug	-7629
oding	-7630
category	-7631
▁husband	-7632
Jo	-7633
Ver	-7634
ieth	-7635
oque	-7636
▁Ext	-7637
appro	-7638
ounce	-7639
▁hole	-7640
▁poem	-7641
▁yield	-7642
▁episodes	-7643
▁notation	-7644
▁spectrum	-7645
Sur	-7646
yer	-7647
Lake	-7648
▁mir	-7649
bible	-7650
merce	-7651
ronze	-7652
levant	-7653
▁rural	-7654
▁touch	-7655
▁Danish	-7656
ristotle	-7657
▁restric	-7658
▁identify	-7659
▁republic	-7660
▁distributed	-7661
▁requirements	-7662
▁classification	-7663
tw	-7664
Def	-7665
Law	-7666
var	-7667
▁ly	-7668
Ford	-7669
▁boy	-7670
▁enh	-7671
aiwan	-7672
owder	-7673
riers	-7674
▁wing	-7675
spiracy	-7676
▁sacrif	-7677
▁vision	-7678
aturally	-7679
▁channels	-7680
▁database	-7681
cart	-7682
sect	-7683
anter	-7684
ossil	-7685
ureau	-7686
ailing	-7687
Denmark	-7688
▁compre	-7689
▁frequent	-7690
▁geometry	-7691
▁divisions	-7692
lib	-7693
wind	-7694
▁hier	-7695
▁goals	-7696
section	-7697
anglades	-7698
plicated	-7699
▁balance	-7700
▁variant	-7701
▁executed	-7702
Protestant	-7703
hon	-7704
Stan	-7705
ignty	-7706
▁Beng	-7707
▁Data	-7708
vision	-7709
chestra	-7710
▁passing	-7711
▁accompan	-7712
▁organisms	-7713
▁establishment	-7714
Sl	-7715
Mer	-7716
USS	-7717
inch	-7718
ools	-7719
astle	-7720
▁Down	-7721
▁beer	-7722
father	-7723
▁Front	-7724
▁moves	-7725
hensive	-7726
▁crisis	-7727
▁museum	-7728
▁strings	-7729
▁operated	-7730
▁explained	-7731
▁foundation	-7732
offs	-7733
▁Han	-7734
▁beat	-7735
incess	-7736
lberta	-7737
▁satisf	-7738
▁Examples	-7739
Demographics	-7740
▁institution	-7741
iji	-7742
▁MP	-7743
endo	-7744
raine	-7745
▁List	-7746
▁recon	-7747
minster	-7748
▁fairly	-7749
▁spaces	-7750
▁assigned	-7751
rik	-7752
wig	-7753
Karl	-7754
hris	-7755
itus	-7756
scale	-7757
▁Mess	-7758
▁clar	-7759
Palest	-7760
▁signs	-7761
issions	-7762
although	-7763
▁challeng	-7764
▁Ob	-7765
prison	-7766
▁closer	-7767
erritory	-7768
▁facilities	-7769
##	-7770
bow	-7771
boy	-7772
olo	-7773
▁dece	-7774
modern	-7775
▁Persian	-7776
▁Stadium	-7777
▁signals	-7778
▁standing	-7779
onnecticut	-7780
raditional	-7781
▁resolution	-7782
רי	-7783
pub	-7784
uchy	-7785
▁Ess	-7786
andin	-7787
esley	-7788
ijing	-7789
▁Marx	-7790
▁votes	-7791
Further	-7792
culture	-7793
▁biology	-7794
▁attached	-7795
▁symptoms	-7796
▁characterized	-7797
eam	-7798
last	-7799
olve	-7800
oust	-7801
▁Van	-7802
Organ	-7803
ivals	-7804
owell	-7805
▁Pruss	-7806
▁horiz	-7807
▁dioxide	-7808
▁absolute	-7809
▁collected	-7810
ls	-7811
Bos	-7812
But	-7813
▁mi	-7814
Iraq	-7815
▁Hem	-7816
emble	-7817
▁cosm	-7818
ompson	-7819
▁shift	-7820
Because	-7821
▁comedy	-7822
▁racing	-7823
▁Babylon	-7824
▁officer	-7825
▁Province	-7826
▁formerly	-7827
▁arguments	-7828
py	-7829
▁ה	-7830
Mil	-7831
▁PR	-7832
enev	-7833
▁Mur	-7834
break	-7835
onomy	-7836
▁phon	-7837
astron	-7838
hammad	-7839
nderson	-7840
▁voting	-7841
▁markets	-7842
▁scholar	-7843
▁Medicine	-7844
international	-7845
Ha	-7846
Head	-7847
▁IBM	-7848
Under	-7849
ierce	-7850
oogle	-7851
openh	-7852
years	-7853
▁Page	-7854
▁trav	-7855
Southern	-7856
ithmetic	-7857
▁visited	-7858
▁populations	-7859
▁implementation	-7860
irk	-7861
lets	-7862
leum	-7863
limate	-7864
ported	-7865
▁coach	-7866
▁finite	-7867
▁compound	-7868
▁pictures	-7869
▁percentage	-7870
▁explanation	-7871
DM	-7872
IE	-7873
____	-7874
hent	-7875
▁maps	-7876
riarch	-7877
Stephen	-7878
▁bright	-7879
▁county	-7880
▁select	-7881
▁grammar	-7882
Elizabeth	-7883
▁approved	-7884
▁officers	-7885
▁ordinary	-7886
Ob	-7887
ds	-7888
nih	-7889
▁aer	-7890
lbania	-7891
▁Saints	-7892
▁limits	-7893
baseball	-7894
Friedrich	-7895
Population	-7896
▁mechanical	-7897
OW	-7898
?''	-7899
Ret	-7900
base	-7901
brid	-7902
iscop	-7903
ridge	-7904
▁Fame	-7905
▁ster	-7906
ersion	-7907
heatre	-7908
omical	-7909
▁Holly	-7910
▁hockey	-7911
▁thinking	-7912
▁Democrats	-7913
▁musicians	-7914
roadcasting	-7915
oni	-7916
anga	-7917
chen	-7918
odia	-7919
▁Hor	-7920
lingu	-7921
dinand	-7922
▁grown	-7923
▁guard	-7924
▁themes	-7925
▁vector	-7926
outheast	-7927
software	-7928
▁younger	-7929
▁opponent	-7930
▁Following	-7931
▁locations	-7932
ол	-7933
bec	-7934
mph	-7935
cock	-7936
estab	-7937
short	-7938
▁Farm	-7939
▁tall	-7940
▁depos	-7941
▁train	-7942
central	-7943
▁colour	-7944
▁obtain	-7945
▁varies	-7946
etroleum	-7947
▁descent	-7948
▁Hamilton	-7949
▁statements	-7950
ée	-7951
uta	-7952
erto	-7953
▁Shar	-7954
▁dual	-7955
▁laid	-7956
ianism	-7957
▁forth	-7958
▁intern	-7959
▁renamed	-7960
onfederate	-7961
zone	-7962
▁Jul	-7963
opper	-7964
uatem	-7965
▁tell	-7966
▁Short	-7967
▁throw	-7968
▁Forces	-7969
▁divine	-7970
▁street	-7971
Frederick	-7972
▁religions	-7973
▁descendants	-7974
WB	-7975
oker	-7976
omon	-7977
orah	-7978
Hindu	-7979
error	-7980
▁fran	-7981
rations	-7982
▁reserv	-7983
▁neutral	-7984
▁!!	-7985
hell	-7986
hero	-7987
▁Est	-7988
Steve	-7989
ateur	-7990
▁Here	-7991
▁diet	-7992
▁tool	-7993
groups	-7994
▁begun	-7995
▁buried	-7996
▁amongst	-7997
▁colonial	-7998
▁Federation	-7999
▁association	-8000
RP	-8001
num	-8002
Marc	-8003
esty	-8004
▁Jac	-8005
▁Log	-8006
▁ion	-8007
ushed	-8008
Philip	-8009
comics	-8010
ramaic	-8011
▁doesn	-8012
▁usual	-8013
hompson	-8014
ivation	-8015
▁easier	-8016
▁exceed	-8017
▁excell	-8018
▁illegal	-8019
▁looking	-8020
▁medieval	-8021
▁interaction	-8022
ige	-8023
mid	-8024
two	-8025
Play	-8026
anger	-8027
child	-8028
square	-8029
▁arbitr	-8030
▁consult	-8031
▁Business	-8032
▁hypothesis	-8033
▁influences	-8034
ikh	-8035
indi	-8036
mbox	-8037
▁Fantasy	-8038
▁charged	-8039
▁Magazine	-8040
▁colleges	-8041
▁constitu	-8042
▁transmission	-8043
aked	-8044
ascal	-8045
iesel	-8046
liter	-8047
▁stim	-8048
Finland	-8049
▁emphasis	-8050
▁generated	-8051
▁preserved	-8052
▁boundaries	-8053
▁experiments	-8054
RY	-8055
show	-8056
uled	-8057
Isaac	-8058
faces	-8059
▁fine	-8060
ancell	-8061
▁kinds	-8062
ampbell	-8063
journal	-8064
complete	-8065
▁goddess	-8066
▁village	-8067
▁familiar	-8068
▁opponents	-8069
▁Ly	-8070
argo	-8071
itis	-8072
omed	-8073
berde	-8074
ifier	-8075
igins	-8076
▁Hand	-8077
ennium	-8078
fortun	-8079
▁param	-8080
▁Swedish	-8081
▁attacked	-8082
▁attended	-8083
ор	-8084
bus	-8085
ulu	-8086
▁Pope	-8087
▁absor	-8088
▁steps	-8089
▁therm	-8090
▁finding	-8091
▁decisions	-8092
Bu	-8093
gal	-8094
Eric	-8095
avia	-8096
onial	-8097
eeeeee	-8098
ributes	-8099
▁learned	-8100
▁integral	-8101
▁variation	-8102
▁psychology	-8103
Rh	-8104
fit	-8105
ados	-8106
Books	-8107
ennes	-8108
udden	-8109
▁atom	-8110
▁hope	-8111
otable	-8112
▁fruit	-8113
vements	-8114
standard	-8115
▁forming	-8116
▁meanings	-8117
▁manuscript	-8118
▁supporting	-8119
Ext	-8120
Men	-8121
jud	-8122
dmir	-8123
ietz	-8124
▁reb	-8125
▁owner	-8126
▁archae	-8127
▁historian	-8128
▁definitions	-8129
▁moon	-8130
▁seek	-8131
▁birds	-8132
▁doubt	-8133
ameroon	-8134
▁railway	-8135
▁prepared	-8136
▁virtually	-8137
bro	-8138
▁Hot	-8139
astro	-8140
▁cogn	-8141
▁rain	-8142
▁parad	-8143
▁column	-8144
▁benefit	-8145
▁Hungarian	-8146
LE	-8147
Lat	-8148
Mod	-8149
esh	-8150
enny	-8151
rous	-8152
▁Pan	-8153
▁tal	-8154
Final	-8155
Music	-8156
▁chem	-8157
enburg	-8158
▁prove	-8159
▁Liberal	-8160
▁elsewhere	-8161
ibliography	-8162
substantial	-8163
▁conventional	-8164
male	-8165
▁Mic	-8166
onian	-8167
Muslim	-8168
▁pilot	-8169
▁desire	-8170
▁twelve	-8171
gressive	-8172
▁Olympic	-8173
▁chapter	-8174
▁execution	-8175
▁literally	-8176
WP	-8177
phot	-8178
▁Khan	-8179
▁athe	-8180
Boeing	-8181
hedron	-8182
▁Every	-8183
iveness	-8184
onymous	-8185
finition	-8186
▁Special	-8187
▁partner	-8188
▁Salvador	-8189
▁approxim	-8190
▁alternate	-8191
▁difficulty	-8192
orp	-8193
Brian	-8194
acent	-8195
brane	-8196
laude	-8197
▁Kent	-8198
▁thin	-8199
Direct	-8200
avalry	-8201
▁ruler	-8202
complex	-8203
▁copies	-8204
▁escape	-8205
▁intent	-8206
atholicism	-8207
▁indicates	-8208
▁referring	-8209
▁transition	-8210
Han	-8211
tym	-8212
zym	-8213
Mike	-8214
▁VII	-8215
format	-8216
stonia	-8217
▁Basque	-8218
▁Sunday	-8219
▁agents	-8220
▁albums	-8221
aneously	-8222
research	-8223
angladesh	-8224
▁operator	-8225
BSD	-8226
exp	-8227
Miss	-8228
oked	-8229
okes	-8230
▁Hond	-8231
algary	-8232
cision	-8233
cuador	-8234
overty	-8235
ogether	-8236
▁Harvard	-8237
▁accused	-8238
▁withdraw	-8239
esc	-8240
vin	-8241
aiti	-8242
blue	-8243
▁Once	-8244
commons	-8245
▁Jersey	-8246
▁accord	-8247
▁myster	-8248
▁unlike	-8249
▁Muslims	-8250
▁quantum	-8251
▁partially	-8252
▁Protestant	-8253
▁representing	-8254
mac	-8255
emen	-8256
ugen	-8257
aceae	-8258
▁conj	-8259
reements	-8260
▁operate	-8261
▁discussed	-8262
HE	-8263
ür	-8264
hana	-8265
inds	-8266
query	-8267
▁stre	-8268
▁cited	-8269
prising	-8270
▁skills	-8271
▁predict	-8272
▁Biography	-8273
▁offensive	-8274
▁assistance	-8275
Sil	-8276
sin	-8277
Barb	-8278
▁hal	-8279
▁ing	-8280
annib	-8281
creen	-8282
super	-8283
▁guide	-8284
entieth	-8285
▁budget	-8286
ietzsche	-8287
▁insubstantial	-8288
Mo	-8289
iy	-8290
abil	-8291
▁fled	-8292
▁dress	-8293
▁refuge	-8294
opyright	-8295
▁confirmed	-8296
oil	-8297
iege	-8298
orum	-8299
unte	-8300
▁Bowl	-8301
▁Jack	-8302
▁ment	-8303
▁tone	-8304
▁males	-8305
adelphia	-8306
▁painting	-8307
▁survived	-8308
▁commander	-8309
▁solutions	-8310
▁educational	-8311
▁consciousness	-8312
bul	-8313
uzz	-8314
yth	-8315
Hans	-8316
only	-8317
ucky	-8318
death	-8319
server	-8320
▁Psych	-8321
▁covers	-8322
▁sevent	-8323
Portugal	-8324
▁relativity	-8325
▁publications	-8326
Es	-8327
cm	-8328
ais	-8329
raham	-8330
▁Sing	-8331
▁VIII	-8332
▁edge	-8333
metric	-8334
ourism	-8335
▁april	-8336
▁roles	-8337
usually	-8338
▁Little	-8339
▁poetry	-8340
▁stages	-8341
▁winner	-8342
▁absence	-8343
▁calling	-8344
▁variants	-8345
▁democratic	-8346
▁originated	-8347
▁Pennsylvania	-8348
dog	-8349
anni	-8350
iece	-8351
itan	-8352
mill	-8353
onto	-8354
orps	-8355
quir	-8356
▁bin	-8357
esian	-8358
prote	-8359
▁util	-8360
arians	-8361
rkansas	-8362
▁config	-8363
ographer	-8364
▁involve	-8365
▁printed	-8366
▁syndrome	-8367
▁procedure	-8368
Ec	-8369
MF	-8370
Dun	-8371
bas	-8372
faq	-8373
lay	-8374
oga	-8375
Rich	-8376
good	-8377
ifer	-8378
iral	-8379
izer	-8380
quar	-8381
▁vac	-8382
essed	-8383
omega	-8384
uable	-8385
▁Ross	-8386
▁depth	-8387
partial	-8388
ugoslav	-8389
▁acknow	-8390
▁dating	-8391
▁offers	-8392
▁testing	-8393
classical	-8394
▁remember	-8395
▁legislative	-8396
MM	-8397
Mars	-8398
ardo	-8399
cross	-8400
ienna	-8401
night	-8402
though	-8403
▁fresh	-8404
Project	-8405
▁encounter	-8406
▁compression	-8407
Lab	-8408
Dist	-8409
Java	-8410
alic	-8411
tech	-8412
▁fix	-8413
▁guns	-8414
▁solo	-8415
marine	-8416
igrants	-8417
mericas	-8418
▁Disney	-8419
▁borders	-8420
▁witness	-8421
gutenberg	-8422
▁bacteria	-8423
▁dependent	-8424
kl	-8425
ин	-8426
anas	-8427
▁Bon	-8428
owned	-8429
▁filled	-8430
▁franch	-8431
▁sculpt	-8432
udi	-8433
▁wa	-8434
song	-8435
stro	-8436
adder	-8437
iders	-8438
phone	-8439
▁Your	-8440
▁girl	-8441
▁jump	-8442
Pierre	-8443
lephone	-8444
▁Donald	-8445
▁rebell	-8446
▁regist	-8447
▁Festival	-8448
▁confused	-8449
dditionally	-8450
▁depression	-8451
▁manufacturing	-8452
Long	-8453
oppy	-8454
gener	-8455
mazon	-8456
▁save	-8457
▁syll	-8458
▁coalition	-8459
▁researchers	-8460
Uk	-8461
Ill	-8462
Best	-8463
capt	-8464
live	-8465
osto	-8466
exist	-8467
oster	-8468
▁spot	-8469
atalan	-8470
ective	-8471
▁tests	-8472
lliance	-8473
verseas	-8474
▁diseases	-8475
▁restricted	-8476
▁probability	-8477
▁responsibility	-8478
zz	-8479
iar	-8480
oup	-8481
Home	-8482
atus	-8483
elle	-8484
▁orb	-8485
▁tank	-8486
▁drawing	-8487
▁enemies	-8488
▁perspective	-8489
Est	-8490
fam	-8491
ugs	-8492
aman	-8493
feld	-8494
aylor	-8495
liber	-8496
▁Dick	-8497
▁snow	-8498
ritics	-8499
▁angle	-8500
▁Dublin	-8501
▁edited	-8502
▁contrad	-8503
aki	-8504
blog	-8505
kept	-8506
▁Sem	-8507
abled	-8508
▁Fair	-8509
ocaine	-8510
timore	-8511
▁naval	-8512
▁deliber	-8513
▁incident	-8514
▁struggle	-8515
▁Indonesia	-8516
ti	-8517
▁nom	-8518
▁odd	-8519
athol	-8520
▁Mart	-8521
▁fert	-8522
▁harb	-8523
▁hour	-8524
▁fluid	-8525
▁stret	-8526
▁diverse	-8527
▁behaviour	-8528
▁implemented	-8529
adv	-8530
god	-8531
lia	-8532
mem	-8533
rek	-8534
oids	-8535
rike	-8536
▁Run	-8537
▁uns	-8538
prime	-8539
▁nort	-8540
▁Story	-8541
▁merch	-8542
Pakistan	-8543
astructure	-8544
▁continent	-8545
Jos	-8546
oyd	-8547
acker	-8548
▁Site	-8549
▁bases	-8550
ritical	-8551
▁dismiss	-8552
▁passage	-8553
▁promote	-8554
▁Sciences	-8555
dor	-8556
ooth	-8557
▁Son	-8558
▁ham	-8559
bling	-8560
▁poly	-8561
▁soil	-8562
▁abuse	-8563
▁plain	-8564
endment	-8565
▁certainly	-8566
▁instructions	-8567
lk	-8568
zeg	-8569
ilst	-8570
antor	-8571
ovina	-8572
ucose	-8573
▁Rand	-8574
▁prol	-8575
▁rein	-8576
▁merged	-8577
▁notice	-8578
▁cartoon	-8579
▁credited	-8580
information	-8581
Max	-8582
Mus	-8583
iva	-8584
Herm	-8585
▁Dom	-8586
Harry	-8587
lavic	-8588
▁Main	-8589
▁didn	-8590
orrect	-8591
▁chart	-8592
▁funds	-8593
▁squad	-8594
▁appeal	-8595
▁gravity	-8596
▁grounds	-8597
▁longest	-8598
▁molecule	-8599
▁electrons	-8600
Fe	-8601
PM	-8602
iov	-8603
full	-8604
iast	-8605
ogram	-8606
secut	-8607
Living	-8608
before	-8609
▁legit	-8610
▁milit	-8611
otional	-8612
▁condem	-8613
▁gender	-8614
▁studio	-8615
▁Ontario	-8616
▁historic	-8617
▁phenomena	-8618
lob	-8619
More	-8620
▁rom	-8621
nergy	-8622
orient	-8623
▁skill	-8624
lovakia	-8625
▁seemed	-8626
electric	-8627
▁survive	-8628
Historical	-8629
▁encouraged	-8630
▁possession	-8631
▁Engineering	-8632
▁transferred	-8633
▁communications	-8634
RS	-8635
rox	-8636
acre	-8637
amps	-8638
arms	-8639
uban	-8640
ocket	-8641
▁mand	-8642
bourne	-8643
coming	-8644
▁diagn	-8645
▁displ	-8646
▁inner	-8647
hrugged	-8648
▁serves	-8649
hydrogen	-8650
▁keeping	-8651
▁Imperial	-8652
▁Microsoft	-8653
▁reactions	-8654
▁celebrated	-8655
acts	-8656
orate	-8657
rchae	-8658
labama	-8659
▁Baron	-8660
▁clubs	-8661
▁steel	-8662
▁counties	-8663
izz	-8664
▁Su	-8665
owed	-8666
▁Dog	-8667
▁Hob	-8668
olicy	-8669
ateral	-8670
iggest	-8671
▁watch	-8672
▁Others	-8673
Benjamin	-8674
▁carrying	-8675
▁Furthermore	-8676
iko	-8677
loc	-8678
nasa	-8679
actor	-8680
annon	-8681
argon	-8682
▁Iowa	-8683
▁forb	-8684
histor	-8685
algebra	-8686
iginally	-8687
▁Digital	-8688
claration	-8689
▁velocity	-8690
▁Esperanto	-8691
▁Publishing	-8692
▁interpreted	-8693
Po	-8694
ahn	-8695
furt	-8696
ulty	-8697
engers	-8698
regular	-8699
▁margin	-8700
▁plural	-8701
ancellor	-8702
▁regularly	-8703
▁exclusively	-8704
EY	-8705
cio	-8706
ssy	-8707
best	-8708
conn	-8709
emic	-8710
Media	-8711
graph	-8712
ravel	-8713
▁kick	-8714
▁send	-8715
Oxford	-8716
oronto	-8717
▁waves	-8718
▁Howard	-8719
▁losing	-8720
▁rulers	-8721
▁simult	-8722
▁economics	-8723
▁intelligent	-8724
ét	-8725
Bro	-8726
abol	-8727
phal	-8728
atever	-8729
ffffff	-8730
▁acids	-8731
▁facts	-8732
▁solar	-8733
Islamic	-8734
▁comics	-8735
▁couple	-8736
▁ritual	-8737
ollywood	-8738
▁Belgium	-8739
▁violent	-8740
▁physicist	-8741
▁consistent	-8742
▁transportation	-8743
aho	-8744
nch	-8745
Phys	-8746
arin	-8747
look	-8748
▁Que	-8749
▁sky	-8750
Jesus	-8751
▁Head	-8752
double	-8753
regory	-8754
dvanced	-8755
▁starts	-8756
▁undert	-8757
▁vowels	-8758
▁focused	-8759
▁planning	-8760
▁situations	-8761
▁restrictions	-8762
ión	-8763
ipel	-8764
▁Bruce	-8765
▁camps	-8766
intendo	-8767
▁Batman	-8768
▁recept	-8769
▁rowspan	-8770
▁selling	-8771
▁kilometers	-8772
▁distinctive	-8773
apes	-8774
▁buy	-8775
▁cle	-8776
▁egg	-8777
ngola	-8778
ransl	-8779
▁adap	-8780
▁brand	-8781
▁exped	-8782
▁tells	-8783
▁Luther	-8784
▁Palace	-8785
▁Indians	-8786
▁diagram	-8787
▁keyboard	-8788
▁vertical	-8789
▁demonstrated	-8790
Wil	-8791
iot	-8792
▁Mr	-8793
▁nut	-8794
hardt	-8795
plant	-8796
▁Scot	-8797
▁hits	-8798
Secret	-8799
▁grant	-8800
▁temple	-8801
▁bishops	-8802
▁minimum	-8803
▁proteins	-8804
griculture	-8805
▁≡	-8806
nes	-8807
orus	-8808
ibert	-8809
▁Rica	-8810
▁knew	-8811
▁soft	-8812
▁Works	-8813
▁Master	-8814
velation	-8815
▁coastal	-8816
▁getting	-8817
▁patient	-8818
▁entertain	-8819
▁naturally	-8820
▁comparison	-8821
communications	-8822
▁pronunciation	-8823
ия	-8824
eded	-8825
elts	-8826
Hawai	-8827
otype	-8828
▁Sign	-8829
inated	-8830
▁Women	-8831
Harvard	-8832
roadway	-8833
▁slowly	-8834
▁waters	-8835
▁champion	-8836
▁followers	-8837
Il	-8838
Joe	-8839
nail	-8840
garian	-8841
▁Point	-8842
▁blues	-8843
▁floor	-8844
▁armies	-8845
▁prophe	-8846
▁charges	-8847
▁precise	-8848
angelical	-8849
▁sentence	-8850
▁ownership	-8851
▁industries	-8852
▁agriculture	-8853
nut	-8854
quo	-8855
ycl	-8856
auss	-8857
eping	-8858
ograf	-8859
▁Dark	-8860
▁Fund	-8861
▁sure	-8862
▁turns	-8863
ocities	-8864
▁briefly	-8865
anterbury	-8866
▁founding	-8867
dimensional	-8868
▁Historical	-8869
IO	-8870
uj	-8871
Deb	-8872
ela	-8873
ipe	-8874
syn	-8875
rior	-8876
▁rig	-8877
cript	-8878
▁mood	-8879
▁node	-8880
▁chose	-8881
▁surre	-8882
▁virus	-8883
irlines	-8884
▁Before	-8885
▁flying	-8886
▁Website	-8887
Byzantine	-8888
▁Baseball	-8889
▁retained	-8890
jö	-8891
Hen	-8892
isa	-8893
blem	-8894
unes	-8895
Bible	-8896
agues	-8897
otten	-8898
▁Beck	-8899
cludes	-8900
onents	-8901
▁enorm	-8902
Despite	-8903
digital	-8904
▁Square	-8905
religion	-8906
▁protected	-8907
constitution	-8908
Que	-8909
aft	-8910
ses	-8911
▁cm	-8912
aden	-8913
bach	-8914
evin	-8915
hous	-8916
itts	-8917
▁Lic	-8918
▁Sax	-8919
▁fat	-8920
earth	-8921
erald	-8922
onfuc	-8923
robot	-8924
▁Hard	-8925
▁inhib	-8926
▁judge	-8927
▁ocean	-8928
▁assault	-8929
construct	-8930
▁humanity	-8931
▁singular	-8932
▁scientist	-8933
Ro	-8934
aq	-8935
▁Sin	-8936
oters	-8937
▁tube	-8938
▁comed	-8939
▁expos	-8940
matical	-8941
▁Unlike	-8942
▁drives	-8943
▁mixture	-8944
ος	-8945
chi	-8946
mel	-8947
egel	-8948
ffee	-8949
rove	-8950
scar	-8951
sign	-8952
▁nit	-8953
allas	-8954
eness	-8955
▁Wild	-8956
▁sell	-8957
formed	-8958
icycle	-8959
▁disag	-8960
▁hyper	-8961
itative	-8962
uminium	-8963
▁Bureau	-8964
▁lowest	-8965
▁routes	-8966
▁scheme	-8967
▁yellow	-8968
uatemala	-8969
▁Douglas	-8970
▁Politics	-8971
Parliament	-8972
▁specified	-8973
▁candidates	-8974
LO	-8975
Pet	-8976
\,&	-8977
abe	-8978
ando	-8979
asks	-8980
itime	-8981
pages	-8982
▁cens	-8983
▁skin	-8984
▁trust	-8985
▁allies	-8986
rational	-8987
▁interior	-8988
▁confusion	-8989
lice	-8990
oron	-8991
▁pet	-8992
Buddh	-8993
simov	-8994
ugene	-8995
▁lect	-8996
itudes	-8997
berdeen	-8998
ornwall	-8999
▁doctor	-9000
▁sudden	-9001
▁mathematician	-9002
uf	-9003
Ken	-9004
anz	-9005
emon	-9006
wick	-9007
track	-9008
uplic	-9009
Batman	-9010
rolled	-9011
▁blind	-9012
▁Region	-9013
▁Houston	-9014
▁biggest	-9015
▁exports	-9016
▁landing	-9017
▁obvious	-9018
▁weather	-9019
Hungarian	-9020
▁depicted	-9021
▁happened	-9022
▁insurance	-9023
▁championship	-9024
agu	-9025
Form	-9026
ugby	-9027
▁Ray	-9028
▁pra	-9029
avery	-9030
▁Barn	-9031
▁manip	-9032
▁secure	-9033
▁tracks	-9034
▁magnetic	-9035
▁districts	-9036
▁considerably	-9037
▁contributions	-9038
prim	-9039
▁Low	-9040
Space	-9041
ustion	-9042
▁assign	-9043
▁emperors	-9044
dministration	-9045
Ly	-9046
ben	-9047
dys	-9048
nap	-9049
▁Jo	-9050
plus	-9051
heres	-9052
osome	-9053
▁Back	-9054
▁Mand	-9055
exican	-9056
century	-9057
laudius	-9058
▁horses	-9059
restrial	-9060
▁properly	-9061
enaissance	-9062
▁conquered	-9063
▁jurisdiction	-9064
SU	-9065
Up	-9066
bia	-9067
adow	-9068
amas	-9069
orde	-9070
ethyl	-9071
▁Sand	-9072
▁enforce	-9073
▁logical	-9074
▁Services	-9075
▁starring	-9076
▁Retrieved	-9077
▁describing	-9078
gent	-9079
▁dub	-9080
▁fer	-9081
▁rif	-9082
▁squ	-9083
▁vul	-9084
heric	-9085
▁summ	-9086
▁flood	-9087
▁Dynasty	-9088
Operation	-9089
▁Building	-9090
▁disputed	-9091
▁monarchy	-9092
▁criticized	-9093
▁accompanied	-9094
▁historically	-9095
Mah	-9096
gun	-9097
▁Ol	-9098
auge	-9099
held	-9100
made	-9101
rell	-9102
▁bes	-9103
▁Mill	-9104
▁Prem	-9105
engine	-9106
atholics	-9107
▁engaged	-9108
▁offices	-9109
▁victims	-9110
▁compatible	-9111
▁explicitly	-9112
oku	-9113
auer	-9114
just	-9115
ndre	-9116
Mexico	-9117
ascism	-9118
rising	-9119
▁sight	-9120
quantum	-9121
omputing	-9122
▁Princip	-9123
▁restaur	-9124
▁annivers	-9125
▁covering	-9126
▁Hollywood	-9127
pm	-9128
Just	-9129
▁Ell	-9130
istol	-9131
▁Whit	-9132
arious	-9133
ivered	-9134
strong	-9135
▁races	-9136
▁driver	-9137
reenland	-9138
▁females	-9139
▁painter	-9140
▁reducing	-9141
▁diplomatic	-9142
▁specialized	-9143
▁manufacturers	-9144
dm	-9145
uh	-9146
ал	-9147
beg	-9148
augh	-9149
chers	-9150
▁volt	-9151
▁wire	-9152
▁conven	-9153
▁propag	-9154
▁Finnish	-9155
▁compact	-9156
▁Harrison	-9157
▁mainland	-9158
▁supports	-9159
▁biography	-9160
▁processor	-9161
▁receiving	-9162
▁synthesis	-9163
hav	-9164
▁ha	-9165
affe	-9166
alin	-9167
ulus	-9168
Delta	-9169
▁eval	-9170
Indiana	-9171
inceton	-9172
sterdam	-9173
▁strike	-9174
▁Stephen	-9175
▁retired	-9176
▁declined	-9177
romagnetic	-9178
▁inflation	-9179
én	-9180
Ele	-9181
asi	-9182
zek	-9183
▁Sl	-9184
ophy	-9185
Union	-9186
ongol	-9187
▁hall	-9188
ibilities	-9189
ontinental	-9190
▁substances	-9191
BO	-9192
PI	-9193
SF	-9194
Det	-9195
iga	-9196
optic	-9197
▁Much	-9198
▁sand	-9199
akespe	-9200
cribed	-9201
▁array	-9202
▁mobile	-9203
Les	-9204
Back	-9205
aide	-9206
▁Dor	-9207
▁Los	-9208
▁tot	-9209
Radio	-9210
blood	-9211
ovich	-9212
▁empt	-9213
▁safe	-9214
▁shif	-9215
region	-9216
building	-9217
▁benefits	-9218
▁reduction	-9219
▁continuing	-9220
▁indigenous	-9221
▁subdivision	-9222
communication	-9223
▁headquarters	-9224
▁observations	-9225
LL	-9226
oded	-9227
oren	-9228
ensed	-9229
▁lose	-9230
▁vice	-9231
lfonso	-9232
linear	-9233
▁compr	-9234
▁thick	-9235
caption	-9236
▁inspir	-9237
▁transp	-9238
atherine	-9239
anchester	-9240
▁Ministry	-9241
Bay	-9242
Jan	-9243
oqu	-9244
ugu	-9245
idad	-9246
imir	-9247
▁Ori	-9248
▁lie	-9249
Danish	-9250
▁Model	-9251
Iceland	-9252
islative	-9253
▁Railway	-9254
▁penalty	-9255
▁varying	-9256
▁passenger	-9257
▁arrangement	-9258
▁opportunity	-9259
▁replacement	-9260
▁Has	-9261
▁Vis	-9262
▁ren	-9263
dated	-9264
eland	-9265
Darwin	-9266
ntonio	-9267
▁termed	-9268
▁revision	-9269
▁immediate	-9270
▁permitted	-9271
Kh	-9272
Ell	-9273
▁Es	-9274
arks	-9275
borg	-9276
kind	-9277
ryan	-9278
▁sale	-9279
ulsion	-9280
ussels	-9281
▁rocks	-9282
▁gather	-9283
▁rising	-9284
economic	-9285
▁boundary	-9286
▁reaching	-9287
ologically	-9288
▁experiences	-9289
▁Independence	-9290
lu	-9291
acs	-9292
gas	-9293
both	-9294
food	-9295
ipse	-9296
otto	-9297
agger	-9298
▁mile	-9299
▁spin	-9300
gallery	-9301
lbanian	-9302
▁elabor	-9303
▁therapy	-9304
Switzerland	-9305
▁proportion	-9306
▁theoretical	-9307
harl	-9308
eneva	-9309
▁crow	-9310
▁keys	-9311
▁wish	-9312
▁curve	-9313
▁habit	-9314
▁loyal	-9315
▁Miller	-9316
akespeare	-9317
▁isolated	-9318
▁composers	-9319
▁interested	-9320
▁profession	-9321
▁connections	-9322
▁encyclopedia	-9323
Data	-9324
Sing	-9325
bird	-9326
enic	-9327
gold	-9328
loss	-9329
▁Last	-9330
▁coin	-9331
▁insc	-9332
amburg	-9333
errari	-9334
illage	-9335
veolar	-9336
▁overs	-9337
annibal	-9338
▁Wright	-9339
▁ranges	-9340
▁illness	-9341
▁seasons	-9342
▁brothers	-9343
expl	-9344
othy	-9345
town	-9346
▁Wat	-9347
▁din	-9348
fault	-9349
ultan	-9350
▁Pass	-9351
▁gets	-9352
▁pairs	-9353
▁Summer	-9354
▁banned	-9355
▁scenes	-9356
msterdam	-9357
▁infantry	-9358
▁infection	-9359
▁translations	-9360
Spe	-9361
mut	-9362
Leon	-9363
iest	-9364
▁Jon	-9365
arcel	-9366
▁guar	-9367
ushing	-9368
Ottoman	-9369
density	-9370
ovenant	-9371
riminal	-9372
▁borrow	-9373
▁fellow	-9374
▁filter	-9375
▁option	-9376
ifferent	-9377
▁claiming	-9378
▁missiles	-9379
▁afterwards	-9380
dy	-9381
elli	-9382
otsw	-9383
rele	-9384
odium	-9385
achers	-9386
ivated	-9387
anskrit	-9388
▁passes	-9389
computing	-9390
▁alliance	-9391
▁Macintosh	-9392
dé	-9393
ín	-9394
Sol	-9395
▁ca	-9396
core	-9397
early	-9398
rates	-9399
speed	-9400
▁sust	-9401
termin	-9402
untary	-9403
▁delay	-9404
▁imper	-9405
▁toler	-9406
▁expert	-9407
▁volumes	-9408
▁predecess	-9409
▁commentary	-9410
Ir	-9411
nu	-9412
aso	-9413
▁Ent	-9414
▁Lim	-9415
▁axis	-9416
Little	-9417
▁heads	-9418
▁stead	-9419
▁Indeed	-9420
▁duties	-9421
▁patent	-9422
▁ruling	-9423
▁publicly	-9424
▁beautiful	-9425
▁purchased	-9426
▁Literature	-9427
▁accessyear	-9428
▁designated	-9429
rms	-9430
sal	-9431
▁Ltd	-9432
▁Euro	-9433
▁cruc	-9434
▁item	-9435
ritrea	-9436
▁alien	-9437
ersonal	-9438
▁crimes	-9439
magazine	-9440
ypically	-9441
▁planets	-9442
▁developments	-9443
Bor	-9444
pin	-9445
rak	-9446
Jeff	-9447
esia	-9448
▁rum	-9449
ching	-9450
month	-9451
▁fulf	-9452
▁spons	-9453
▁revers	-9454
Imperial	-9455
collapse	-9456
oiceless	-9457
▁chamber	-9458
▁conquest	-9459
▁suitable	-9460
▁delivered	-9461
▁prisoners	-9462
Will	-9463
▁Der	-9464
aders	-9465
ambda	-9466
guard	-9467
▁Prop	-9468
▁diam	-9469
▁exile	-9470
bstract	-9471
fiction	-9472
▁equally	-9473
▁extract	-9474
▁stopped	-9475
▁punishment	-9476
publications	-9477
Ur	-9478
oom	-9479
uma	-9480
Bell	-9481
rift	-9482
▁Him	-9483
▁KEY	-9484
▁hip	-9485
apore	-9486
glass	-9487
heart	-9488
▁debt	-9489
▁tele	-9490
▁Beach	-9491
▁craft	-9492
popular	-9493
▁cinema	-9494
▁depict	-9495
▁labour	-9496
pressive	-9497
▁millions	-9498
▁intention	-9499
▁surviving	-9500
▁establishing	-9501
▁experimental	-9502
▁Representatives	-9503
kil	-9504
uct	-9505
Duke	-9506
ilib	-9507
yram	-9508
▁hex	-9509
andal	-9510
berry	-9511
rnold	-9512
urric	-9513
▁tape	-9514
ishers	-9515
making	-9516
school	-9517
▁Faith	-9518
▁decay	-9519
▁laure	-9520
Swedish	-9521
ensively	-9522
idential	-9523
zegovina	-9524
▁Freedom	-9525
▁restored	-9526
▁professor	-9527
▁complicated	-9528
Su	-9529
Dep	-9530
mil	-9531
eoff	-9532
etry	-9533
opic	-9534
▁Six	-9535
▁pul	-9536
olini	-9537
▁duty	-9538
orence	-9539
orinth	-9540
▁escap	-9541
▁falls	-9542
▁genus	-9543
▁Mormon	-9544
▁heaven	-9545
▁survey	-9546
isations	-9547
character	-9548
▁Document	-9549
linguistics	-9550
▁integrated	-9551
▁Broadcasting	-9552
Far	-9553
Hor	-9554
Mem	-9555
eil	-9556
lew	-9557
▁lb	-9558
arsh	-9559
irce	-9560
▁Yan	-9561
▁asc	-9562
ardin	-9563
autom	-9564
rator	-9565
▁flav	-9566
apters	-9567
illery	-9568
nation	-9569
teenth	-9570
▁Hitch	-9571
▁campus	-9572
▁prompt	-9573
▁versus	-9574
▁Detroit	-9575
▁Matthew	-9576
▁implies	-9577
▁seconds	-9578
ju	-9579
Jon	-9580
phy	-9581
ymn	-9582
Love	-9583
Magn	-9584
burn	-9585
isch	-9586
odge	-9587
▁Leb	-9588
eting	-9589
▁Bang	-9590
▁wine	-9591
entaur	-9592
finite	-9593
▁Minor	-9594
▁annex	-9595
▁banks	-9596
▁roads	-9597
▁tight	-9598
abulary	-9599
ippines	-9600
▁camera	-9601
▁harmon	-9602
▁lyrics	-9603
▁presum	-9604
Standard	-9605
tainment	-9606
▁devoted	-9607
▁turning	-9608
▁relevant	-9609
lc	-9610
vy	-9611
oal	-9612
aton	-9613
heod	-9614
umen	-9615
umph	-9616
▁Beg	-9617
▁Mid	-9618
ector	-9619
float	-9620
ydney	-9621
▁Berg	-9622
▁chess	-9623
Vietnam	-9624
rticles	-9625
unicode	-9626
▁Samuel	-9627
▁driven	-9628
Victoria	-9629
▁enjoyed	-9630
▁funding	-9631
▁reverse	-9632
▁theatre	-9633
▁downtown	-9634
▁strictly	-9635
▁Mountains	-9636
▁involvement	-9637
▁technologies	-9638
amo	-9639
nab	-9640
vet	-9641
▁OF	-9642
Fire	-9643
Lith	-9644
laus	-9645
▁cul	-9646
anese	-9647
media	-9648
omplex	-9649
opping	-9650
review	-9651
season	-9652
▁essay	-9653
▁oblig	-9654
▁tends	-9655
▁Method	-9656
▁adjust	-9657
▁capita	-9658
haracter	-9659
regorian	-9660
▁adapted	-9661
▁convers	-9662
▁teacher	-9663
▁Holocaust	-9664
▁corporate	-9665
▁artificial	-9666
▁comprehensive	-9667
ав	-9668
ded	-9669
apor	-9670
atty	-9671
audi	-9672
bank	-9673
fund	-9674
ivism	-9675
redit	-9676
▁Iron	-9677
rinity	-9678
roatian	-9679
▁entity	-9680
ountries	-9681
▁charter	-9682
▁imprison	-9683
▁recognize	-9684
▁uncertain	-9685
▁conclusion	-9686
▁performing	-9687
MO	-9688
Out	-9689
Kore	-9690
anna	-9691
apit	-9692
ermin	-9693
range	-9694
third	-9695
▁door	-9696
Walter	-9697
inical	-9698
inking	-9699
▁Exper	-9700
gateway	-9701
iscopal	-9702
▁Knight	-9703
▁export	-9704
echnical	-9705
▁approval	-9706
▁quantity	-9707
▁defensive	-9708
▁spacecraft	-9709
▁advertising	-9710
aks	-9711
iem	-9712
cula	-9713
▁Eli	-9714
frika	-9715
▁Bart	-9716
riction	-9717
▁Volume	-9718
▁senior	-9719
▁titled	-9720
▁accuracy	-9721
▁register	-9722
▁theology	-9723
▁indicated	-9724
▁magnitude	-9725
▁variables	-9726
▁quantities	-9727
▁settlements	-9728
▁concentrated	-9729
olds	-9730
ouri	-9731
stad	-9732
zerb	-9733
▁Due	-9734
ipper	-9735
▁gone	-9736
Samuel	-9737
annica	-9738
ingham	-9739
▁Brand	-9740
▁Intel	-9741
▁faced	-9742
onomous	-9743
▁assume	-9744
▁valley	-9745
oriented	-9746
wikiquote	-9747
▁adjacent	-9748
▁everyone	-9749
▁messages	-9750
▁Similarly	-9751
▁excellent	-9752
▁maintains	-9753
▁consequence	-9754
BE	-9755
fy	-9756
hyp	-9757
may	-9758
ruly	-9759
aphys	-9760
often	-9761
quake	-9762
▁fric	-9763
▁meat	-9764
sexual	-9765
▁appre	-9766
▁enzym	-9767
Babylon	-9768
Detroit	-9769
icholas	-9770
▁relief	-9771
▁resist	-9772
▁varied	-9773
▁Medical	-9774
▁efficiency	-9775
Rad	-9776
aer	-9777
jib	-9778
▁Lo	-9779
conf	-9780
emed	-9781
enal	-9782
Roger	-9783
forest	-9784
listen	-9785
master	-9786
▁verse	-9787
mediate	-9788
▁overth	-9789
▁applies	-9790
▁cricket	-9791
▁herself	-9792
▁consequences	-9793
IX	-9794
zt	-9795
Bank	-9796
cium	-9797
punk	-9798
harma	-9799
▁Band	-9800
reater	-9801
▁Dance	-9802
▁Diego	-9803
▁chlor	-9804
▁Scotia	-9805
▁slaves	-9806
▁volcan	-9807
▁cavalry	-9808
▁justice	-9809
employment	-9810
▁dimension	-9811
▁varieties	-9812
▁regardless	-9813
bio	-9814
lag	-9815
alus	-9816
ippi	-9817
▁Jos	-9818
▁Lib	-9819
Brown	-9820
llied	-9821
▁ethics	-9822
▁multip	-9823
urrently	-9824
▁Belarus	-9825
▁exposed	-9826
thumbnail	-9827
▁Mountain	-9828
▁missions	-9829
▁concluded	-9830
uw	-9831
ов	-9832
ти	-9833
hew	-9834
hex	-9835
ario	-9836
iley	-9837
lore	-9838
▁Lost	-9839
▁Walk	-9840
lgeria	-9841
▁Forum	-9842
▁Medal	-9843
▁Hughes	-9844
▁shorter	-9845
▁disaster	-9846
▁observation	-9847
HL	-9848
cz	-9849
Ent	-9850
uam	-9851
▁Er	-9852
adic	-9853
▁Yah	-9854
arist	-9855
built	-9856
dding	-9857
narch	-9858
plane	-9859
▁Jeff	-9860
▁abund	-9861
▁accum	-9862
▁aimed	-9863
ynomial	-9864
▁august	-9865
▁credit	-9866
▁organic	-9867
▁neighbour	-9868
\,	-9869
likely	-9870
ournals	-9871
▁Peters	-9872
▁headed	-9873
Following	-9874
▁situated	-9875
▁independently	-9876
'&	-9877
Bot	-9878
Mid	-9879
Dave	-9880
Mult	-9881
pent	-9882
ults	-9883
▁Lev	-9884
▁adm	-9885
ooper	-9886
▁Real	-9887
▁amin	-9888
▁hear	-9889
▁info	-9890
inrich	-9891
▁vocal	-9892
omplete	-9893
▁voters	-9894
▁chronic	-9895
▁Ethiopia	-9896
▁directors	-9897
▁photograph	-9898
▁automatically	-9899
▁participation	-9900
EO	-9901
LU	-9902
Hall	-9903
gers	-9904
hatt	-9905
wave	-9906
▁Inf	-9907
final	-9908
istem	-9909
links	-9910
▁tail	-9911
avaria	-9912
incial	-9913
▁Stand	-9914
delaide	-9915
▁atomic	-9916
▁airport	-9917
▁arrival	-9918
▁morning	-9919
chemistry	-9920
▁controls	-9921
▁Friedrich	-9922
▁algorithms	-9923
usa	-9924
dest	-9925
ribe	-9926
stud	-9927
▁Wis	-9928
Simon	-9929
ensis	-9930
local	-9931
porter	-9932
▁Maced	-9933
▁Maria	-9934
▁catch	-9935
▁opera	-9936
▁theor	-9937
▁tourn	-9938
▁voted	-9939
written	-9940
▁Members	-9941
▁falling	-9942
▁protest	-9943
▁suicide	-9944
▁abstract	-9945
▁civilian	-9946
restrictions	-9947
▁parliamentary	-9948
▁representatives	-9949
cies	-9950
mont	-9951
phon	-9952
▁Fri	-9953
orton	-9954
▁vent	-9955
System	-9956
▁extend	-9957
artmouth	-9958
▁citizen	-9959
▁entropy	-9960
▁agencies	-9961
▁engineer	-9962
Jew	-9963
ROM	-9964
hai	-9965
athe	-9966
cdot	-9967
pled	-9968
ppro	-9969
rosc	-9970
ulum	-9971
▁Hop	-9972
▁ISO	-9973
avian	-9974
icity	-9975
nders	-9976
ocked	-9977
▁cous	-9978
▁euro	-9979
▁wins	-9980
global	-9981
popups	-9982
▁looks	-9983
▁mouse	-9984
▁sleep	-9985
absburg	-9986
cession	-9987
coholic	-9988
▁earned	-9989
ampshire	-9990
business	-9991
▁Herbert	-9992
▁Highway	-9993
▁trained	-9994
▁bringing	-9995
▁lifetime	-9996
▁surrounded	-9997
▁representative	-9998
ем	-9999
Rev	-10000
sun	-10001
enet	-10002
ktop	-10003
oyle	-10004
▁Hal	-10005
▁Pot	-10006
asant	-10007
atism	-10008
ctica	-10009
ompan	-10010
▁Phot	-10011
▁glac	-10012
▁Wayne	-10013
▁fewer	-10014
▁lesser	-10015
▁Station	-10016
▁desired	-10017
▁coverage	-10018
▁requiring	-10019
▁teachings	-10020
▁Management	-10021
▁agreements	-10022
▁difficulties	-10023
HO	-10024
mos	-10025
ppe	-10026
pur	-10027
lett	-10028
synt	-10029
user	-10030
▁ped	-10031
idges	-10032
▁flex	-10033
census	-10034
margin	-10035
Several	-10036
lphabet	-10037
ryption	-10038
▁convert	-10039
▁dealing	-10040
▁privile	-10041
▁releases	-10042
especially	-10043
▁unsuccess	-10044
▁participate	-10045
Hug	-10046
oya	-10047
▁Mah	-10048
▁bed	-10049
games	-10050
ompar	-10051
uably	-10052
uddha	-10053
▁lake	-10054
forced	-10055
ractions	-10056
▁Support	-10057
▁removal	-10058
itational	-10059
▁Bulgaria	-10060
▁aviation	-10061
▁dramatic	-10062
▁membrane	-10063
▁partners	-10064
▁portrayed	-10065
fortunately	-10066
fty	-10067
hin	-10068
anny	-10069
fair	-10070
isen	-10071
ntil	-10072
▁bra	-10073
duces	-10074
▁handle	-10075
ennessee	-10076
▁Leibniz	-10077
▁forests	-10078
▁nucleus	-10079
▁ongoing	-10080
▁soldier	-10081
▁winners	-10082
▁rotation	-10083
▁dictionary	-10084
EX	-10085
SL	-10086
ui	-10087
abon	-10088
dolf	-10089
▁rob	-10090
oscow	-10091
▁Drag	-10092
▁initi	-10093
▁tribe	-10094
anthrop	-10095
ocolate	-10096
▁proven	-10097
greement	-10098
▁Physics	-10099
▁seeking	-10100
▁arranged	-10101
▁enormous	-10102
▁offering	-10103
▁appearances	-10104
Ho	-10105
imo	-10106
sis	-10107
enez	-10108
undi	-10109
ylum	-10110
▁mac	-10111
ocent	-10112
oyage	-10113
Script	-10114
apolis	-10115
hamber	-10116
ingway	-10117
matrix	-10118
▁Often	-10119
▁finds	-10120
▁Iceland	-10121
▁extinct	-10122
▁designer	-10123
▁attempting	-10124
▁counterpart	-10125
Dom	-10126
▁Fr	-10127
Hard	-10128
oths	-10129
oyce	-10130
▁www	-10131
regon	-10132
▁bask	-10133
iquity	-10134
▁lunar	-10135
achment	-10136
compass	-10137
▁cancer	-10138
▁coined	-10139
iability	-10140
▁willing	-10141
Indonesia	-10142
▁animation	-10143
▁employees	-10144
▁Introduction	-10145
▁revolutionary	-10146
DB	-10147
Page	-10148
anch	-10149
esse	-10150
iami	-10151
outi	-10152
rost	-10153
ubes	-10154
Franz	-10155
cover	-10156
negie	-10157
▁Harb	-10158
Virgin	-10159
estion	-10160
ffairs	-10161
ologie	-10162
▁Study	-10163
ancient	-10164
▁caught	-10165
▁poison	-10166
▁subsid	-10167
formance	-10168
ussolini	-10169
▁defence	-10170
▁	-10171
e	-10172
t	-10173
a	-10174
i	-10175
o	-10176
n	-10177
r	-10178
s	-10179
l	-10180
h	-10181
d	-10182
c	-10183
u	-10184
m	-10185
p	-10186
g	-10187
f	-10188
y	-10189
b	-10190
'	-10191
w	-10192
,	-10193
v	-10194
&	-10195
k	-10196
|	-10197
:	-10198
S	-10199
q	-10200
I	-10201
x	-10202
B	-10203
M	-10204
P	-10205
E	-10206
D	-10207
H	-10208
F	-10209
R	-10210
L	-10211
W	-10212
z	-10213
O	-10214
j	-10215
U	-10216
J	-10217
K	-10218
_	-10219
V	-10220
#	-10221
"	-10222
Z	-10223
Y	-10224
\	-10225
!	-10226
?	-10227
X	-10228
Q	-10229
é	-10230
а	-10231
и	-10232
á	-10233
е	-10234
р	-10235
о	-10236
н	-10237
í	-10238
$	-10239
^	-10240
י	-10241
т	-10242
ó	-10243
л	-10244
ö	-10245
с	-10246
ו	-10247
к	-10248
—	-10249
’	-10250
–	-10251
~	-10252
ü	-10253
ä	-10254
ا	-10255
в	-10256
ר	-10257
д	-10258
м	-10259
`	-10260
א	-10261
°	-10262
ה	-10263
ל	-10264
у	-10265
ο	-10266
è	-10267
α	-10268
я	-10269
А	-10270
г	-10271
נ	-10272
ر	-10273
ā	-10274
ב	-10275
ー	-10276
ل	-10277
”	-10278
“	-10279
п	-10280
מ	-10281
ν	-10282
ي	-10283
ン	-10284
ת	-10285
ú	-10286
ι	-10287
з	-10288
ç	-10289
ρ	-10290
ק	-10291
б	-10292
ד	-10293
й	-10294
ن	-10295
ð	-10296
É	-10297
ס	-10298
و	-10299
ō	-10300
ט	-10301
פ	-10302
à	-10303
ø	-10304
ς	-10305
К	-10306
æ	-10307
ь	-10308
ג	-10309
τ	-10310
ł	-10311
і	-10312
ê	-10313
λ	-10314
ب	-10315
ë	-10316
า	-10317
م	-10318
ル	-10319
ε	-10320
Б	-10321
Г	-10322
ə	-10323
ร	-10324
·	-10325
ア	-10326
・	-10327
ã	-10328
μ	-10329
س	-10330
ô	-10331
ф	-10332
×	-10333
ス	-10334
ː	-10335
ש	-10336
š	-10337
κ	-10338
ی	-10339
č	-10340
د	-10341
σ	-10342
ц	-10343
ი	-10344
υ	-10345
ˈ	-10346
ы	-10347
ñ	-10348
Д	-10349
リ	-10350
เ	-10351
ч	-10352
อ	-10353
ت	-10354
å	-10355
น	-10356
ɛ	-10357
ラ	-10358
γ	-10359
ა	-10360
ม	-10361
ם	-10362
π	-10363
ί	-10364
ן	-10365
ἀ	-10366
â	-10367
ī	-10368
イ	-10369
ń	-10370
Á	-10371
ド	-10372
х	-10373
ト	-10374
ก	-10375
ж	-10376
ח	-10377
η	-10378
≡	-10379
ク	-10380
ิ	-10381
ć	-10382
ū	-10383
Ф	-10384
Х	-10385
ž	-10386
ة	-10387
ј	-10388
ე	-10389
ע	-10390
ه	-10391
்	-10392
ล	-10393
£	-10394
フ	-10395
ッ	-10396
כ	-10397
ï	-10398
С	-10399
И	-10400
ɪ	-10401
î	-10402
ý	-10403
Е	-10404
์	-10405
צ	-10406
ę	-10407
ı	-10408
ف	-10409
ό	-10410
‘	-10411
რ	-10412
ъ	-10413
्	-10414
@	-10415
ά	-10416
ك	-10417
ั	-10418
П	-10419
日	-10420
ю	-10421
β	-10422
ß	-10423
ē	-10424
ŋ	-10425
δ	-10426
ส	-10427
Α	-10428
ा	-10429
ּ	-10430
ז	-10431
ี	-10432
θ	-10433
月	-10434
ò	-10435
ω	-10436
М	-10437
أ	-10438
ว	-10439
ค	-10440
В	-10441
⁄	-10442
ш	-10443
学	-10444
ɔ	-10445
ロ	-10446
ィ	-10447
ج	-10448
ต	-10449
カ	-10450
þ	-10451
ś	-10452
ย	-10453
ă	-10454
ʃ	-10455
シ	-10456
ジ	-10457
ą	-10458
ְ	-10459
エ	-10460
스	-10461
ع	-10462
õ	-10463
レ	-10464
리	-10465
コ	-10466
デ	-10467
ด	-10468
ě	-10469
र	-10470
Э	-10471
ო	-10472
φ	-10473
아	-10474
ح	-10475
天	-10476
ز	-10477
া	-10478
バ	-10479
ɑ	-10480
ق	-10481
न	-10482
ท	-10483
ş	-10484
Р	-10485
→	-10486
ி	-10487
̄	-10488
ლ	-10489
グ	-10490
ì	-10491
タ	-10492
大	-10493
ش	-10494
ง	-10495
ウ	-10496
Å	-10497
Ö	-10498
ė	-10499
บ	-10500
ż	-10501
Č	-10502
皇	-10503
ή	-10504
χ	-10505
ַ	-10506
ნ	-10507
э	-10508
́	-10509
ム	-10510
ύ	-10511
্	-10512
Æ	-10513
్	-10514
Н	-10515
Ч	-10516
国	-10517
û	-10518
غ	-10519
ک	-10520
ะ	-10521
ブ	-10522
έ	-10523
이	-10524
일	-10525
ط	-10526
斯	-10527
ს	-10528
ハ	-10529
ִ	-10530
โ	-10531
แ	-10532
マ	-10533
ʊ	-10534
ป	-10535
ニ	-10536
Ç	-10537
க	-10538
テ	-10539
ュ	-10540
Ø	-10541
ბ	-10542
Î	-10543
Ä	-10544
ʔ	-10545
ˌ	-10546
ุ	-10547
尔	-10548
Л	-10549
Т	-10550
ù	-10551
Κ	-10552
ダ	-10553
§	-10554
−	-10555
人	-10556
±	-10557
ि	-10558
の	-10559
子	-10560
월	-10561
О	-10562
ర	-10563
阿	-10564
İ	-10565
ŭ	-10566
ি	-10567
ვ	-10568
ტ	-10569
オ	-10570
ɹ	-10571
Ε	-10572
Ц	-10573
世	-10574
đ	-10575
ř	-10576
Δ	-10577
র	-10578
ப	-10579
ェ	-10580
स	-10581
克	-10582
إ	-10583
ศ	-10584
≈	-10585
ి	-10586
ห	-10587
ţ	-10588
گ	-10589
พ	-10590
ガ	-10591
Ó	-10592
ธ	-10593
チ	-10594
ʻ	-10595
ी	-10596
ம	-10597
ğ	-10598
დ	-10599
მ	-10600
ő	-10601
Š	-10602
德	-10603
ர	-10604
ナ	-10605
ビ	-10606
क	-10607
่	-10608
′	-10609
ベ	-10610
Γ	-10611
語	-10612
Ü	-10613
中	-10614
آ	-10615
ώ	-10616
®	-10617
ɾ	-10618
ல	-10619
ซ	-10620
ษ	-10621
კ	-10622
Í	-10623
キ	-10624
ミ	-10625
文	-10626
ָ	-10627
数	-10628
法	-10629
드	-10630
پ	-10631
म	-10632
프	-10633
Ž	-10634
І	-10635
З	-10636
У	-10637
サ	-10638
利	-10639
州	-10640
ʼ	-10641
ব	-10642
გ	-10643
य	-10644
ு	-10645
ズ	-10646
メ	-10647
拉	-10648
Ś	-10649
خ	-10650
ฟ	-10651
€	-10652
ボ	-10653
ャ	-10654
ヴ	-10655
王	-10656
里	-10657
ξ	-10658
亚	-10659
Ш	-10660
ल	-10661
ட	-10662
ネ	-10663
特	-10664
르	-10665
기	-10666
̞	-10667
щ	-10668
Μ	-10669
ไ	-10670
ḥ	-10671
ἄ	-10672
라	-10673
어	-10674
Þ	-10675
त	-10676
े	-10677
ṣ	-10678
プ	-10679
ন	-10680
ภ	-10681
理	-10682
ब	-10683
ช	-10684
자	-10685
ʁ	-10686
ʒ	-10687
த	-10688
ṇ	-10689
ョ	-10690
œ	-10691
Β	-10692
Φ	-10693
ص	-10694
ह	-10695
로	-10696
ɐ	-10697
ா	-10698
จ	-10699
͡	-10700
უ	-10701
化	-10702
物	-10703
Π	-10704
व	-10705
ู	-10706
ノ	-10707
ա	-10708
ो	-10709
ग	-10710
西	-10711
ゴ	-10712
ų	-10713
ʧ	-10714
̪	-10715
თ	-10716
モ	-10717
ɲ	-10718
科	-10719
Ι	-10720
ক	-10721
স	-10722
트	-10723
ё	-10724
ய	-10725
ئ	-10726
้	-10727
主	-10728
ɦ	-10729
ன	-10730
ァ	-10731
ヘ	-10732
島	-10733
海	-10734
Σ	-10735
一	-10736
格	-10737
機	-10738
语	-10739
Đ	-10740
ך	-10741
ं	-10742
ツ	-10743
史	-10744
安	-10745
英	-10746
인	-10747
ĝ	-10748
ث	-10749
द	-10750
प	-10751
ゲ	-10752
パ	-10753
ヒ	-10754
会	-10755
도	-10756
지	-10757
Ō	-10758
̃	-10759
ज	-10760
ল	-10761
బ	-10762
二	-10763
地	-10764
시	-10765
학	-10766
Ж	-10767
†	-10768
პ	-10769
公	-10770
電	-10771
»	-10772
̥	-10773
য	-10774
ế	-10775
ホ	-10776
字	-10777
帝	-10778
書	-10779
道	-10780
사	-10781
에	-10782
제	-10783
«	-10784
ʌ	-10785
ত	-10786
ạ	-10787
合	-10788
和	-10789
Ν	-10790
ў	-10791
ข	-10792
セ	-10793
ʤ	-10794
ु	-10795
ォ	-10796
音	-10797
카	-10798
ր	-10799
ギ	-10800
ソ	-10801
ピ	-10802
京	-10803
加	-10804
基	-10805
山	-10806
巴	-10807
生	-10808
레	-10809
ǎ	-10810
ʕ	-10811
̩	-10812
Χ	-10813
ে	-10814
வ	-10815
ケ	-10816
ワ	-10817
名	-10818
尼	-10819
ĉ	-10820
ɒ	-10821
ׁ	-10822
ச	-10823
ฮ	-10824
ố	-10825
國	-10826
本	-10827
民	-10828
국	-10829
Ş	-10830
ɟ	-10831
ɣ	-10832
ম	-10833
가	-10834
소	-10835
하	-10836
ζ	-10837
北	-10838
座	-10839
ư	-10840
ɡ	-10841
ệ	-10842
球	-10843
空	-10844
素	-10845
니	-10846
바	-10847
अ	-10848
多	-10849
수	-10850
주	-10851
Ú	-10852
ǀ	-10853
ץ	-10854
್	-10855
元	-10856
十	-10857
罗	-10858
전	-10859
Я	-10860
兰	-10861
分	-10862
教	-10863
크	-10864
¬	-10865
ї	-10866
ṯ	-10867
ọ	-10868
体	-10869
戦	-10870
비	-10871
의	-10872
ǂ	-10873
ǔ	-10874
ֹ	-10875
ض	-10876
•	-10877
五	-10878
伯	-10879
卡	-10880
明	-10881
波	-10882
电	-10883
行	-10884
다	-10885
서	-10886
화	-10887
ŝ	-10888
ź	-10889
ף	-10890
ἰ	-10891
度	-10892
表	-10893
브	-10894
Ł	-10895
ů	-10896
ˁ	-10897
ை	-10898
็	-10899
共	-10900
古	-10901
구	-10902
동	-10903
미	-10904
베	-10905
우	-10906
Ż	-10907
ֶ	-10908
ჰ	-10909
ṭ	-10910
ポ	-10911
南	-10912
原	-10913
治	-10914
神	-10915
성	-10916
À	-10917
̊	-10918
ֵ	-10919
়	-10920
历	-10921
系	-10922
親	-10923
마	-10924
ľ	-10925
ơ	-10926
ট	-10927
三	-10928
布	-10929
方	-10930
自	-10931
記	-10932
공	-10933
오	-10934
Ā	-10935
Θ	-10936
Τ	-10937
ం	-10938
గ	-10939
ు	-10940
ณ	-10941
ფ	-10942
▄	-10943
列	-10944
家	-10945
机	-10946
美	-10947
言	-10948
際	-10949
그	-10950
ǐ	-10951
ɕ	-10952
̍	-10953
Λ	-10954
ե	-10955
ն	-10956
ء	-10957
ड	-10958
श	-10959
জ	-10960
ฐ	-10961
█	-10962
い	-10963
力	-10964
夫	-10965
小	-10966
政	-10967
林	-10968
고	-10969
디	-10970
타	-10971
ʦ	-10972
స	-10973
ả	-10974
ị	-10975
○	-10976
ザ	-10977
伊	-10978
動	-10979
区	-10980
号	-10981
工	-10982
族	-10983
聖	-10984
나	-10985
대	-10986
알	-10987
유	-10988
Ω	-10989
љ	-10990
ի	-10991
ट	-10992
ற	-10993
ん	-10994
希	-10995
性	-10996
福	-10997
金	-10998
ħ	-10999
ň	-11000
ɨ	-11001
Ю	-11002
ֻ	-11003
ظ	-11004
ந	-11005
ఆ	-11006
ప	-11007
ె	-11008
്	-11009
亞	-11010
코	-11011
터	-11012
Ð	-11013
দ	-11014
ట	-11015
డ	-11016
ల	-11017
ష	-11018
ರ	-11019
代	-11020
哈	-11021
手	-11022
星	-11023
義	-11024
보	-11025
키	-11026
Ĉ	-11027
ʋ	-11028
Ά	-11029
Η	-11030
ո	-11031
ध	-11032
़	-11033
ண	-11034
Ḥ	-11035
ậ	-11036
ὐ	-11037
か	-11038
正	-11039
算	-11040
米	-11041
論	-11042
関	-11043
马	-11044
세	-11045
음	-11046
체	-11047
भ	-11048
ো	-11049
შ	-11050
ấ	-11051
▀	-11052
典	-11053
制	-11054
比	-11055
水	-11056
爾	-11057
石	-11058
連	-11059
클	-11060
©	-11061
Â	-11062
÷	-11063
Ī	-11064
Ο	-11065
ড	-11066
শ	-11067
ఏ	-11068
ื	-11069
ộ	-11070
ứ	-11071
↑	-11072
ペ	-11073
ヤ	-11074
同	-11075
四	-11076
欧	-11077
索	-11078
通	-11079
高	-11080
히	-11081
फ	-11082
వ	-11083
Ἀ	-11084
仁	-11085
士	-11086
航	-11087
计	-11088
香	-11089
데	-11090
루	-11091
ť	-11092
ذ	-11093
ى	-11094
ै	-11095
ఫ	-11096
ხ	-11097
ゼ	-11098
ユ	-11099
信	-11100
哥	-11101
太	-11102
技	-11103
立	-11104
酸	-11105
게	-11106
토	-11107
È	-11108
Ρ	-11109
ψ	-11110
Ј	-11111
Џ	-11112
Й	-11113
Щ	-11114
چ	-11115
প	-11116
அ	-11117
ெ	-11118
う	-11119
り	-11120
勒	-11121
學	-11122
平	-11123
式	-11124
弗	-11125
朝	-11126
東	-11127
派	-11128
色	-11129
解	-11130
조	-11131
티	-11132
ɯ	-11133
̯	-11134
њ	-11135
ই	-11136
হ	-11137
ํ	-11138
ქ	-11139
ᄋ	-11140
ṛ	-11141
ゥ	-11142
光	-11143
内	-11144
市	-11145
武	-11146
第	-11147
赫	-11148
문	-11149
산	-11150
호	-11151
џ	-11152
ә	-11153
आ	-11154
গ	-11155
ள	-11156
↓	-11157
ヌ	-11158
义	-11159
的	-11160
艾	-11161
院	-11162
모	-11163
중	-11164
포	-11165
¡	-11166
ÿ	-11167
ʾ	-11168
ʿ	-11169
ু	-11170
ญ	-11171
反	-11172
可	-11173
埃	-11174
新	-11175
画	-11176
程	-11177
群	-11178
諸	-11179
那	-11180
과	-11181
정	-11182
파	-11183
ű	-11184
Ъ	-11185
ւ	-11186
इ	-11187
ા	-11188
્	-11189
ḍ	-11190
●	-11191
事	-11192
位	-11193
司	-11194
器	-11195
定	-11196
歴	-11197
河	-11198
目	-11199
贝	-11200
네	-11201
안	-11202
역	-11203
한	-11204
­	-11205
¿	-11206
ʎ	-11207
Υ	-11208
ْ	-11209
ू	-11210
ზ	-11211
្	-11212
不	-11213
华	-11214
岛	-11215
普	-11216
気	-11217
莱	-11218
話	-11219
足	-11220
물	-11221
버	-11222
치	-11223
피	-11224
ġ	-11225
ǃ	-11226
ʍ	-11227
Є	-11228
ಿ	-11229
ᅵ	-11230
み	-11231
ヨ	-11232
件	-11233
动	-11234
成	-11235
白	-11236
达	-11237
邦	-11238
間	-11239
馬	-11240
부	-11241
원	-11242
헤	-11243
ņ	-11244
ɤ	-11245
ʂ	-11246
̈	-11247
Ь	-11248
ী	-11249
ே	-11250
ொ	-11251
ḇ	-11252
ề	-11253
さ	-11254
ょ	-11255
上	-11256
乐	-11257
印	-11258
回	-11259
外	-11260
數	-11261
曼	-11262
港	-11263
漢	-11264
用	-11265
田	-11266
病	-11267
百	-11268
約	-11269
經	-11270
羅	-11271
联	-11272
華	-11273
萨	-11274
重	-11275
食	-11276
글	-11277
러	-11278
린	-11279
메	-11280
상	-11281
페	-11282
해	-11283
¢	-11284
Ã	-11285
Ĝ	-11286
Ё	-11287
ђ	-11288
մ	-11289
յ	-11290
च	-11291
এ	-11292
ஆ	-11293
ோ	-11294
ಾ	-11295
ḏ	-11296
ầ	-11297
ồ	-11298
ổ	-11299
ụ	-11300
ἁ	-11301
し	-11302
口	-11303
吉	-11304
因	-11305
孝	-11306
形	-11307
战	-11308
托	-11309
曲	-11310
条	-11311
查	-11312
由	-11313
界	-11314
秋	-11315
胞	-11316
论	-11317
路	-11318
계	-11319
란	-11320
래	-11321
법	-11322
약	-11323
언	-11324
요	-11325
ļ	-11326
ɬ	-11327
ʈ	-11328
ϊ	-11329
Ы	-11330
ґ	-11331
ս	-11332
َ	-11333
ए	-11334
ফ	-11335
ર	-11336
ஸ	-11337
ᅥ	-11338
ự	-11339
じ	-11340
な	-11341
に	-11342
ゃ	-11343
亨	-11344
六	-11345
央	-11346
奥	-11347
女	-11348
心	-11349
時	-11350
森	-11351
江	-11352
洲	-11353
爱	-11354
相	-11355
类	-11356
统	-11357
维	-11358
蘭	-11359
覧	-11360
議	-11361
集	-11362
교	-11363
노	-11364
론	-11365
영	-11366
위	-11367
진	-11368
테	-11369
Ì	-11370
ĥ	-11371
ĵ	-11372
ǁ	-11373
ɚ	-11374
տ	-11375
ण	-11376
ং	-11377
ᅡ	-11378
ᅮ	-11379
ớ	-11380
ử	-11381
ἐ	-11382
‡	-11383
す	-11384
と	-11385
ゅ	-11386
る	-11387
东	-11388
争	-11389
以	-11390
佛	-11391
保	-11392
宇	-11393
广	-11394
意	-11395
易	-11396
是	-11397
朗	-11398
極	-11399
汉	-11400
細	-11401
部	-11402
앙	-11403
회	-11404
ʝ	-11405
ʨ	-11406
Έ	-11407
ћ	-11408
ृ	-11409
ჩ	-11410
ც	-11411
ᄀ	-11412
ᅩ	-11413
ữ	-11414
き	-11415
は	-11416
ま	-11417
も	-11418
业	-11419
交	-11420
伦	-11421
全	-11422
博	-11423
命	-11424
城	-11425
威	-11426
摩	-11427
歌	-11428
母	-11429
牙	-11430
症	-11431
盟	-11432
知	-11433
纳	-11434
角	-11435
計	-11436
迪	-11437
進	-11438
门	-11439
际	-11440
面	-11441
類	-11442
랜	-11443
신	-11444
연	-11445
Ê	-11446
ɖ	-11447
ɫ	-11448
ʉ	-11449
̝	-11450
Ζ	-11451
ө	-11452
আ	-11453
இ	-11454
ங	-11455
ฤ	-11456
ᄃ	-11457
ា	-11458
Ḳ	-11459
ẓ	-11460
ῖ	-11461
ち	-11462
乔	-11463
何	-11464
塔	-11465
対	-11466
愛	-11467
戰	-11468
打	-11469
料	-11470
术	-11471
死	-11472
沙	-11473
清	-11474
火	-11475
略	-11476
社	-11477
诺	-11478
黑	-11479
관	-11480
누	-11481
독	-11482
랑	-11483
섬	-11484
케	-11485
플	-11486
ģ	-11487
Œ	-11488
ɓ	-11489
ɴ	-11490
ɽ	-11491
Ү	-11492
ү	-11493
զ	-11494
ژ	-11495
િ	-11496
ನ	-11497
ಸ	-11498
ฎ	-11499
ᄇ	-11500
ᅳ	-11501
ḳ	-11502
‍	-11503
び	-11504
函	-11505
半	-11506
卫	-11507
姆	-11508
川	-11509
年	-11510
建	-11511
所	-11512
有	-11513
核	-11514
洋	-11515
流	-11516
温	-11517
经	-11518
能	-11519
血	-11520
質	-11521
車	-11522
都	-11523
闘	-11524
限	-11525
雅	-11526
雷	-11527
青	-11528
더	-11529
무	-11530
민	-11531
반	-11532
발	-11533
방	-11534
식	-11535
애	-11536
족	-11537
편	-11538
황	-11539
Ë	-11540
ď	-11541
Ē	-11542
į	-11543
ũ	-11544
ɳ	-11545
ˑ	-11546
Ө	-11547
Հ	-11548
ِ	-11549
ّ	-11550
ई	-11551
ष	-11552
চ	-11553
ન	-11554
ழ	-11555
ా	-11556
ᄌ	-11557
ን	-11558
ḫ	-11559
ợ	-11560
━	-11561
え	-11562
て	-11563
よ	-11564
ら	-11565
ゾ	-11566
作	-11567
党	-11568
勃	-11569
及	-11570
周	-11571
型	-11572
堡	-11573
塞	-11574
密	-11575
廣	-11576
得	-11577
微	-11578
散	-11579
次	-11580
氏	-11581
無	-11582
督	-11583
統	-11584
线	-11585
网	-11586
育	-11587
花	-11588
蔣	-11589
術	-11590
话	-11591
避	-11592
野	-11593
體	-11594
간	-11595
강	-11596
류	-11597
암	-11598
야	-11599
엘	-11600
임	-11601
츠	-11602
컴	-11603
탄	-11604
¥	-11605
¶	-11606
Ñ	-11607
ĕ	-11608
Ř	-11609
ǧ	-11610
ɝ	-11611
ʑ	-11612
ʣ	-11613
̺	-11614
̻	-11615
Ґ	-11616
।	-11617
উ	-11618
ક	-11619
எ	-11620
ತ	-11621
ถ	-11622
ผ	-11623
ᄆ	-11624
ស	-11625
ὀ	-11626
ὁ	-11627
こ	-11628
た	-11629
へ	-11630
め	-11631
丁	-11632
互	-11633
几	-11634
医	-11635
台	-11636
图	-11637
在	-11638
存	-11639
对	-11640
局	-11641
常	-11642
康	-11643
我	-11644
抗	-11645
拾	-11646
映	-11647
智	-11648
暗	-11649
果	-11650
柔	-11651
業	-11652
济	-11653
瓦	-11654
疫	-11655
管	-11656
荷	-11657
菜	-11658
葉	-11659
蒙	-11660
説	-11661
象	-11662
赤	-11663
軍	-11664
辛	-11665
速	-11666
非	-11667
革	-11668
경	-11669
벨	-11670
생	-11671
슈	-11672
쌍	-11673
즈	-11674
칼	-11675
콘	-11676
함	-11677
합	-11678
Ò	-11679
Õ	-11680
ċ	-11681
Ķ	-11682
ķ	-11683
ɗ	-11684
ɸ	-11685
ʏ	-11686
̬	-11687
Ђ	-11688
ً	-11689
ہ	-11690
ख	-11691
খ	-11692
ভ	-11693
ત	-11694
ฏ	-11695
ใ	-11696
་	-11697
ᄎ	-11698
ᄐ	-11699
ᄑ	-11700
ᑎ	-11701
ᑦ	-11702
←	-11703
∞	-11704
〇	-11705
下	-11706
书	-11707
使	-11708
俱	-11709
八	-11710
关	-11711
兵	-11712
嘉	-11713
変	-11714
奇	-11715
宣	-11716
底	-11717
恩	-11718
情	-11719
撃	-11720
无	-11721
春	-11722
昧	-11723
昭	-11724
曖	-11725
杜	-11726
毛	-11727
洛	-11728
炭	-11729
瑞	-11730
産	-11731
甲	-11732
皮	-11733
省	-11734
等	-11735
節	-11736
精	-11737
紀	-11738
組	-11739
線	-11740
组	-11741
耶	-11742
节	-11743
菲	-11744
衛	-11745
貝	-11746
起	-11747
運	-11748
量	-11749
銀	-11750
門	-11751
间	-11752
陽	-11753
龍	-11754
갈	-11755
람	-11756
만	-11757
말	-11758
블	-11759
선	-11760
양	-11761
집	-11762
커	-11763
행	-11764
Ý	-11765
Ĥ	-11766
ĩ	-11767
Ū	-11768
ǒ	-11769
ǣ	-11770
ɺ	-11771
ɻ	-11772
ʀ	-11773
ʘ	-11774
ʢ	-11775
ˀ	-11776
̆	-11777
բ	-11778
գ	-11779
ः	-11780
झ	-11781
ণ	-11782
ஹ	-11783
ಲ	-11784
ര	-11785
ി	-11786
္	-11787
ᄂ	-11788
ᄏ	-11789
ᄒ	-11790
ᅢ	-11791
ᅦ	-11792
ር	-11793
ᖅ	-11794
ទ	-11795
ន	-11796
ờ	-11797
ủ	-11798
ỳ	-11799
ὑ	-11800
ῦ	-11801
∈	-11802
あ	-11803
お	-11804
つ	-11805
れ	-11806
丹	-11807
介	-11808
伝	-11809
伽	-11810
儒	-11811
农	-11812
出	-11813
千	-11814
単	-11815
发	-11816
君	-11817
品	-11818
問	-11819
夏	-11820
委	-11821
孔	-11822
宗	-11823
官	-11824
宙	-11825
库	-11826
影	-11827
律	-11828
志	-11829
息	-11830
拿	-11831
換	-11832
时	-11833
會	-11834
期	-11835
木	-11836
来	-11837
析	-11838
标	-11839
楽	-11840
権	-11841
活	-11842
激	-11843
燃	-11844
琴	-11845
環	-11846
発	-11847
真	-11848
磁	-11849
祖	-11850
紙	-11851
結	-11852
者	-11853
脈	-11854
菌	-11855
萄	-11856
葡	-11857
薬	-11858
辞	-11859
達	-11860
長	-11861
陰	-11862
霍	-11863
顿	-11864
黒	-11865
골	-11866
늄	-11867
단	-11868
돌	-11869
된	-11870
릴	-11871
명	-11872
밍	-11873
설	-11874
와	-11875
용	-11876
웨	-11877
장	-11878
적	-11879
차	-11880
텔	-11881
퓨	-11882
항	-11883
𐌰	-11884
Ù	-11885
Ğ	-11886
Ľ	-11887
Ŝ	-11888
̋	-11889
̠	-11890
̤	-11891
̰	-11892
Ή	-11893
Ξ	-11894
Ћ	-11895
є	-11896
Ң	-11897
ң	-11898
Һ	-11899
һ	-11900
Ա	-11901
լ	-11902
ք	-11903
ँ	-11904
ञ	-11905
ॉ	-11906
ી	-11907
ஜ	-11908
శ	-11909
ಂ	-11910
ಆ	-11911
ಟ	-11912
ಡ	-11913
ಬ	-11914
ವ	-11915
ು	-11916
ന	-11917
ึ	-11918
ჯ	-11919
ᄅ	-11920
ᄉ	-11921
ᄊ	-11922
አ	-11923
ម	-11924
ắ	-11925
ể	-11926
ἂ	-11927
ἱ	-11928
ῥ	-11929
ῶ	-11930
≥	-11931
く	-11932
ず	-11933
゚	-11934
乳	-11935
产	-11936
传	-11937
入	-11938
兩	-11939
兹	-11940
円	-11941
切	-11942
占	-11943
双	-11944
变	-11945
哲	-11946
唔	-11947
喜	-11948
団	-11949
域	-11950
寧	-11951
射	-11952
對	-11953
岩	-11954
師	-11955
幾	-11956
徒	-11957
徳	-11958
拜	-11959
指	-11960
接	-11961
旗	-11962
梅	-11963
標	-11964
演	-11965
熊	-11966
狄	-11967
直	-11968
研	-11969
碼	-11970
積	-11971
筷	-11972
箸	-11973
糖	-11974
維	-11975
纪	-11976
细	-11977
老	-11978
苏	-11979
药	-11980
莫	-11981
藏	-11982
藤	-11983
豪	-11984
貞	-11985
賽	-11986
超	-11987
身	-11988
车	-11989
陸	-11990
頭	-11991
館	-11992
魚	-11993
鳥	-11994
낸	-11995
들	-11996
럽	-11997
렉	-11998
륨	-11999
본	-12000
슬	-12001
온	-12002
운	-12003
작	-12004
질	-12005
천	-12006
축	-12007
칸	-12008
콜	-12009
쿠	-12010
투	-12011
판	-12012
허	-12013
Ï	-12014
Ć	-12015
Ġ	-12016
ŗ	-12017
Ÿ	-12018
ǫ	-12019
ɰ	-12020
ʥ	-12021
̟	-12022
Ψ	-12023
Њ	-12024
ғ	-12025
Қ	-12026
қ	-12027
Ә	-12028
կ	-12029
ֲ	-12030
ठ	-12031
ં	-12032
ீ	-12033
ூ	-12034
త	-12035
ద	-12036
ే	-12037
ಕ	-12038
ಪ	-12039
ಯ	-12040
ാ	-12041
๊	-12042
ღ	-12043
ძ	-12044
ᄍ	-12045
ᅣ	-12046
ᅧ	-12047
ᅬ	-12048
ᅭ	-12049
ᅲ	-12050
ᆞ	-12051
ᐃ	-12052
ἡ	-12053
ἴ	-12054
ῆ	-12055
‐	-12056
∑	-12057
∙	-12058
〤	-12059
け	-12060
ぢ	-12061
っ	-12062
を	-12063
之	-12064
什	-12065
仮	-12066
侬	-12067
係	-12068
俄	-12069
個	-12070
倫	-12071
免	-12072
刑	-12073
前	-12074
効	-12075
协	-12076
卜	-12077
友	-12078
叶	-12079
向	-12080
员	-12081
哪	-12082
唐	-12083
圣	-12084
坦	-12085
場	-12086
契	-12087
宁	-12088
客	-12089
富	-12090
干	-12091
序	-12092
应	-12093
役	-12094
応	-12095
振	-12096
攻	-12097
放	-12098
村	-12099
柏	-12100
根	-12101
植	-12102
樂	-12103
歷	-12104
气	-12105
氧	-12106
泰	-12107
消	-12108
準	-12109
炸	-12110
点	-12111
烈	-12112
爆	-12113
状	-12114
环	-12115
玻	-12116
瑟	-12117
番	-12118
異	-12119
療	-12120
积	-12121
粒	-12122
紅	-12123
経	-12124
絶	-12125
続	-12126
耷	-12127
胡	-12128
脊	-12129
艦	-12130
范	-12131
茶	-12132
虫	-12133
蛋	-12134
视	-12135
認	-12136
记	-12137
说	-12138
费	-12139
造	-12140
選	-12141
配	-12142
酒	-12143
開	-12144
領	-12145
飛	-12146
骨	-12147
鲁	-12148
黄	-12149
黨	-12150
개	-12151
거	-12152
극	-12153
델	-12154
력	-12155
면	-12156
목	-12157
색	-12158
속	-12159
순	-12160
앨	-12161
엔	-12162
염	-12163
왕	-12164
워	-12165
응	-12166
턴	-12167
폴	-12168
¤	-12169
Ô	-12170
Û	-12171
ƕ	-12172
ɢ	-12173
ɮ	-12174
ʐ	-12175
̂	-12176
̼	-12177
Ѕ	-12178
Љ	-12179
ҳ	-12180
թ	-12181
շ	-12182
؟	-12183
ؤ	-12184
ـ	-12185
ऐ	-12186
ऑ	-12187
औ	-12188
ढ	-12189
थ	-12190
ॅ	-12191
ঙ	-12192
પ	-12193
ભ	-12194
મ	-12195
ય	-12196
હ	-12197
ે	-12198
உ	-12199
ಗ	-12200
ೆ	-12201
ട	-12202
പ	-12203
ബ	-12204
ു	-12205
ყ	-12206
წ	-12207
ᅙ	-12208
ᅯ	-12209
ᅱ	-12210
ᅴ	-12211
ራ	-12212
ᐅ	-12213
ᑐ	-12214
ᖃ	-12215
ṃ	-12216
ẩ	-12217
ἑ	-12218
↗	-12219
√	-12220
≠	-12221
〢	-12222
ご	-12223
そ	-12224
で	-12225
ど	-12226
ひ	-12227
ろ	-12228
九	-12229
他	-12230
仲	-12231
但	-12232
兆	-12233
內	-12234
再	-12235
冰	-12236
击	-12237
划	-12238
别	-12239
务	-12240
努	-12241
劳	-12242
匈	-12243
危	-12244
句	-12245
員	-12246
商	-12247
園	-12248
土	-12249
奶	-12250
娜	-12251
実	-12252
宮	-12253
少	-12254
屬	-12255
峡	-12256
広	-12257
当	-12258
彗	-12259
後	-12260
思	-12261
恋	-12262
恐	-12263
恒	-12264
態	-12265
戈	-12266
提	-12267
支	-12268
整	-12269
景	-12270
暦	-12271
权	-12272
树	-12273
榴	-12274
橋	-12275
步	-12276
氣	-12277
汗	-12278
池	-12279
游	-12280
湾	-12281
源	-12282
漠	-12283
澤	-12284
澳	-12285
濟	-12286
熱	-12287
牛	-12288
猫	-12289
珠	-12290
码	-12291
礼	-12292
禮	-12293
筆	-12294
緑	-12295
红	-12296
编	-12297
舰	-12298
船	-12299
芬	-12300
茨	-12301
菩	-12302
萬	-12303
裁	-12304
装	-12305
見	-12306
調	-12307
賞	-12308
贸	-12309
连	-12310
遺	-12311
长	-12312
隆	-12313
階	-12314
雪	-12315
靈	-12316
頓	-12317
首	-12318
鬥	-12319
魯	-12320
麦	-12321
黃	-12322
龙	-12323
군	-12324
금	-12325
넷	-12326
달	-12327
당	-12328
덴	-12329
런	-12330
링	-12331
먼	-12332
배	-12333
복	-12334
볼	-12335
분	-12336
빌	-12337
술	-12338
슘	-12339
십	-12340
여	-12341
열	-12342
예	-12343
은	-12344
쟁	-12345
저	-12346
찰	-12347
태	-12348
통	-12349
헨	-12350
𐌹	-12351
𐌽	-12352
Ą	-12353
Ę	-12354
Ģ	-12355
Ħ	-12356
Ő	-12357
Ű	-12358
ŵ	-12359
ŷ	-12360
ɱ	-12361
ɶ	-12362
ɿ	-12363
ʟ	-12364
˞	-12365
̔	-12366
̚	-12367
̴	-12368
̽	-12369
Ѓ	-12370
Ў	-12371
ѓ	-12372
ѕ	-12373
ѣ	-12374
ѵ	-12375
Ғ	-12376
ҧ	-12377
Ҳ	-12378
դ	-12379
խ	-12380
ֿ	-12381
ُ	-12382
ٹ	-12383
ڈ	-12384
घ	-12385
ङ	-12386
छ	-12387
অ	-12388
ও	-12389
থ	-12390
અ	-12391
ગ	-12392
ચ	-12393
દ	-12394
બ	-12395
ષ	-12396
ુ	-12397
ો	-12398
ஐ	-12399
భ	-12400
ಅ	-12401
೧	-12402
ഫ	-12403
റ	-12404
സ	-12405
ฝ	-12406
ฺ	-12407
ᄁ	-12408
ᄄ	-12409
ᄈ	-12410
ᅤ	-12411
ᅨ	-12412
ᅪ	-12413
ᅫ	-12414
ᅰ	-12415
ብ	-12416
ት	-12417
ኤ	-12418
ᐊ	-12419
ᓂ	-12420
ᓕ	-12421
ខ	-12422
ប	-12423
យ	-12424
រ	-12425
ល	-12426
ី	-12427
េ	-12428
ḵ	-12429
ṅ	-12430
Ṛ	-12431
ỏ	-12432
ἶ	-12433
ὶ	-12434
ὸ	-12435
≤	-12436
♭	-12437
、	-12438
が	-12439
ぎ	-12440
せ	-12441
ぬ	-12442
ふ	-12443
む	-12444
や	-12445
七	-12446
伐	-12447
休	-12448
來	-12449
俳	-12450
候	-12451
假	-12452
傳	-12453
兄	-12454
凯	-12455
判	-12456
刺	-12457
剂	-12458
剖	-12459
割	-12460
創	-12461
各	-12462
告	-12463
啥	-12464
圆	-12465
報	-12466
境	-12467
墨	-12468
壁	-12469
壊	-12470
复	-12471
失	-12472
奧	-12473
孟	-12474
季	-12475
室	-12476
尾	-12477
屋	-12478
属	-12479
崇	-12480
巡	-12481
师	-12482
府	-12483
庭	-12484
引	-12485
強	-12486
快	-12487
态	-12488
感	-12489
憲	-12490
戏	-12491
戴	-12492
房	-12493
据	-12494
推	-12495
撒	-12496
效	-12497
敦	-12498
暴	-12499
朱	-12500
李	-12501
杯	-12502
枪	-12503
染	-12504
構	-12505
模	-12506
毒	-12507
沃	-12508
洗	-12509
淳	-12510
瓜	-12511
男	-12512
登	-12513
盖	-12514
着	-12515
砂	-12516
砲	-12517
示	-12518
离	-12519
穰	-12520
究	-12521
突	-12522
端	-12523
符	-12524
篆	-12525
継	-12526
綱	-12527
総	-12528
織	-12529
级	-12530
绝	-12531
绿	-12532
罪	-12533
而	-12534
肯	-12535
背	-12536
腊	-12537
良	-12538
艺	-12539
芝	-12540
莎	-12541
蒂	-12542
蓋	-12543
薩	-12544
藍	-12545
號	-12546
衣	-12547
複	-12548
該	-12549
識	-12550
议	-12551
设	-12552
谷	-12553
貨	-12554
质	-12555
进	-12556
迦	-12557
送	-12558
鉄	-12559
铁	-12560
银	-12561
键	-12562
雄	-12563
離	-12564
雨	-12565
零	-12566
題	-12567
風	-12568
飲	-12569
鱼	-12570
鲍	-12571
각	-12572
건	-12573
균	-12574
남	-12575
널	-12576
녕	-12577
락	-12578
럼	-12579
렌	-12580
릭	-12581
벤	-12582
병	-12583
석	-12584
셀	-12585
슨	-12586
악	-12587
앤	-12588
읍	-12589
잉	-12590
절	-12591
탈	-12592
표	-12593
필	-12594
헬	-12595
후	-12596
흐	-12597
𐍃	-12598
Ė	-12599
ĭ	-12600
Į	-12601
Ņ	-12602
Ŋ	-12603
ŏ	-12604
Ź	-12605
ƒ	-12606
ƭ	-12607
ɜ	-12608
ɥ	-12609
ɧ	-12610
ʄ	-12611
ʜ	-12612
ˇ	-12613
̢	-12614
̧	-12615
͈	-12616
Ί	-12617
Ό	-12618
Ώ	-12619
Ї	-12620
Ќ	-12621
ќ	-12622
Ѣ	-12623
Ѫ	-12624
Ѳ	-12625
Ѵ	-12626
ӳ	-12627
պ	-12628
ֱ	-12629
ׂ	-12630
װ	-12631
ײ	-12632
۰	-12633
۱	-12634
ܪ	-12635
ް	-12636
उ	-12637
ऍ	-12638
ॐ	-12639
ঢ	-12640
ৃ	-12641
ਰ	-12642
ફ	-12643
మ	-12644
య	-12645
ಜ	-12646
ಶ	-12647
ೋ	-12648
മ	-12649
ോ	-12650
ມ	-12651
ເ	-12652
ི	-12653
ᅌ	-12654
ᇢ	-12655
ሪ	-12656
ግ	-12657
ᓗ	-12658
ᕆ	-12659
ញ	-12660
ិ	-12661
ុ	-12662
់	-12663
ḡ	-12664
Ấ	-12665
ễ	-12666
ừ	-12667
ỹ	-12668
ἔ	-12669
Ἡ	-12670
ἵ	-12671
Ἰ	-12672
ὠ	-12673
Ὤ	-12674
―	-12675
›	-12676
↘	-12677
∀	-12678
∆	-12679
∴	-12680
─	-12681
《	-12682
》	-12683
ぐ	-12684
げ	-12685
だ	-12686
づ	-12687
ね	-12688
ぴ	-12689
べ	-12690
ゆ	-12691
わ	-12692
与	-12693
个	-12694
乙	-12695
乱	-12696
乾	-12697
亜	-12698
亡	-12699
令	-12700
佐	-12701
你	-12702
依	-12703
侯	-12704
便	-12705
修	-12706
値	-12707
偶	-12708
傅	-12709
催	-12710
億	-12711
優	-12712
兴	-12713
冬	-12714
准	-12715
凝	-12716
別	-12717
則	-12718
助	-12719
務	-12720
勞	-12721
勿	-12722
包	-12723
區	-12724
協	-12725
厄	-12726
取	-12727
后	-12728
呀	-12729
味	-12730
哀	-12731
哎	-12732
唯	-12733
喬	-12734
堂	-12735
堆	-12736
壘	-12737
奖	-12738
奴	-12739
如	-12740
始	-12741
守	-12742
寒	-12743
寶	-12744
尊	-12745
層	-12746
崗	-12747
差	-12748
廿	-12749
弘	-12750
弟	-12751
御	-12752
復	-12753
惟	-12754
想	-12755
慕	-12756
應	-12757
捷	-12758
排	-12759
探	-12760
控	-12761
揚	-12762
擊	-12763
擦	-12764
斐	-12765
晉	-12766
晶	-12767
望	-12768
杰	-12769
极	-12770
构	-12771
柯	-12772
柱	-12773
條	-12774
梯	-12775
棋	-12776
止	-12777
歩	-12778
汽	-12779
油	-12780
洞	-12781
津	-12782
湖	-12783
滅	-12784
灵	-12785
灸	-12786
炒	-12787
烃	-12788
热	-12789
燕	-12790
爵	-12791
犯	-12792
独	-12793
猩	-12794
率	-12795
玖	-12796
现	-12797
珍	-12798
疾	-12799
盘	-12800
盛	-12801
破	-12802
硬	-12803
碳	-12804
祭	-12805
称	-12806
種	-12807
笔	-12808
笛	-12809
粉	-12810
納	-12811
綠	-12812
緒	-12813
編	-12814
縣	-12815
约	-12816
织	-12817
结	-12818
耳	-12819
聲	-12820
肉	-12821
肪	-12822
脂	-12823
脑	-12824
脱	-12825
腓	-12826
膜	-12827
膠	-12828
興	-12829
舞	-12830
莉	-12831
著	-12832
蘇	-12833
虎	-12834
蜂	-12835
融	-12836
覚	-12837
說	-12838
謀	-12839
講	-12840
譜	-12841
许	-12842
证	-12843
谟	-12844
谢	-12845
豆	-12846
財	-12847
資	-12848
賢	-12849
赛	-12850
輸	-12851
软	-12852
辰	-12853
農	-12854
込	-12855
迈	-12856
运	-12857
近	-12858
述	-12859
遗	-12860
郎	-12861
鄭	-12862
酵	-12863
防	-12864
阳	-12865
除	-12866
陳	-12867
陵	-12868
障	-12869
雲	-12870
霊	-12871
項	-12872
顺	-12873
频	-12874
魔	-12875
鸡	-12876
鼠	-12877
감	-12878
격	-12879
곡	-12880
괴	-12881
권	-12882
는	-12883
랭	-12884
령	-12885
를	-12886
립	-12887
매	-12888
맥	-12889
몬	-12890
뮴	-12891
변	-12892
살	-12893
실	-12894
심	-12895
압	-12896
올	-12897
외	-12898
점	-12899
존	-12900
종	-12901
즘	-12902
증	-12903
총	-12904
캘	-12905
핀	-12906
핵	-12907
헝	-12908
협	-12909
형	-12910
홀	-12911
효	-12912
𐌲	-12913
𐌿	-12914
𐍄	-12915
¦	-12916
Ă	-12917
Ċ	-12918
Ĵ	-12919
ĸ	-12920
Ļ	-12921
Ń	-12922
ŕ	-12923
Ţ	-12924
Ų	-12925
ƈ	-12926
ƙ	-12927
ƥ	-12928
ǜ	-12929
ǥ	-12930
ɘ	-12931
ɠ	-12932
ɭ	-12933
ɵ	-12934
ɷ	-12935
ʗ	-12936
ʛ	-12937
ʠ	-12938
ʹ	-12939
ʽ	-12940
˥	-12941
˦	-12942
˩	-12943
̅	-12944
̌	-12945
̘	-12946
̙	-12947
̜	-12948
̨	-12949
̹	-12950
͆	-12951
ϋ	-12952
Ϝ	-12953
Ѥ	-12954
Ѧ	-12955
Ѩ	-12956
ѫ	-12957
Ѭ	-12958
ѳ	-12959
Ѿ	-12960
Ҕ	-12961
ҕ	-12962
Җ	-12963
җ	-12964
Ҟ	-12965
ҟ	-12966
Ҫ	-12967
ҫ	-12968
Ҭ	-12969
ҭ	-12970
Ұ	-12971
ұ	-12972
Ҵ	-12973
ҵ	-12974
ҷ	-12975
Ӡ	-12976
ӡ	-12977
Բ	-12978
Գ	-12979
Լ	-12980
Կ	-12981
Չ	-12982
հ	-12983
ղ	-12984
չ	-12985
ռ	-12986
վ	-12987
ց	-12988
ױ	-12989
،	-12990
ے	-12991
۲	-12992
۴	-12993
ܐ	-12994
ܬ	-12995
ނ	-12996
१	-12997
२	-12998
३	-12999
८	-13000
ছ	-13001
ঝ	-13002
ধ	-13003
ষ	-13004
ূ	-13005
ਗ	-13006
ਾ	-13007
ੁ	-13008
આ	-13009
જ	-13010
ધ	-13011
લ	-13012
ળ	-13013
શ	-13014
સ	-13015
ૂ	-13016
ஏ	-13017
ஞ	-13018
ௌ	-13019
న	-13020
ಎ	-13021
ಚ	-13022
ದ	-13023
ಫ	-13024
ಭ	-13025
ಳ	-13026
ಷ	-13027
ೀ	-13028
೨	-13029
೪	-13030
ക	-13031
ഗ	-13032
ത	-13033
യ	-13034
ല	-13035
ള	-13036
െ	-13037
ฒ	-13038
ພ	-13039
ສ	-13040
າ	-13041
ີ	-13042
ག	-13043
က	-13044
န	-13045
ရ	-13046
ჟ	-13047
ᄣ	-13048
ᆒ	-13049
ᇰ	-13050
ሊ	-13051
ል	-13052
መ	-13053
ቡ	-13054
ካ	-13055
ዋ	-13056
ዳ	-13057
Ꭴ	-13058
Ꮃ	-13059
Ꮒ	-13060
Ꮕ	-13061
Ꮖ	-13062
Ꮵ	-13063
ᑕ	-13064
ᑯ	-13065
ᓯ	-13066
ᓴ	-13067
ᔭ	-13068
ᕋ	-13069
ᕐ	-13070
ក	-13071
គ	-13072
ច	-13073
ដ	-13074
ណ	-13075
អ	-13076
ើ	-13077
ែ	-13078
ំ	-13079
ṁ	-13080
Ṣ	-13081
ẫ	-13082
ặ	-13083
ἅ	-13084
Ἁ	-13085
ἠ	-13086
ὅ	-13087
ὴ	-13088
ὺ	-13089
Ῥ	-13090
‹	-13091
⇒	-13092
∅	-13093
♫	-13094
ば	-13095
ほ	-13096
ゐ	-13097
ゑ	-13098
丘	-13099
両	-13100
两	-13101
乃	-13102
久	-13103
乡	-13104
云	-13105
今	-13106
仙	-13107
仰	-13108
价	-13109
企	-13110
伍	-13111
低	-13112
余	-13113
佩	-13114
倉	-13115
倭	-13116
值	-13117
先	-13118
具	-13119
兼	-13120
军	-13121
况	-13122
凱	-13123
剛	-13124
剤	-13125
劇	-13126
劉	-13127
勢	-13128
卅	-13129
午	-13130
卌	-13131
卢	-13132
厥	-13133
厳	-13134
去	-13135
叄	-13136
启	-13137
吳	-13138
咖	-13139
啓	-13140
單	-13141
図	-13142
固	-13143
圓	-13144
圭	-13145
均	-13146
坎	-13147
垓	-13148
培	-13149
壹	-13150
备	-13151
夜	-13152
头	-13153
夷	-13154
奈	-13155
好	-13156
妮	-13157
姓	-13158
宴	-13159
容	-13160
宾	-13161
宿	-13162
导	-13163
封	-13164
居	-13165
履	-13166
崩	-13167
帕	-13168
帖	-13169
带	-13170
幅	-13171
幻	-13172
幽	-13173
庄	-13174
庆	-13175
廈	-13176
廉	-13177
弾	-13178
循	-13179
念	-13180
怀	-13181
总	-13182
惑	-13183
户	-13184
戸	-13185
扮	-13186
投	-13187
报	-13188
拔	-13189
持	-13190
换	-13191
捨	-13192
描	-13193
故	-13194
断	-13195
施	-13196
旋	-13197
昌	-13198
最	-13199
未	-13200
末	-13201
杂	-13202
松	-13203
査	-13204
校	-13205
桑	-13206
桓	-13207
椭	-13208
楕	-13209
概	-13210
樹	-13211
歧	-13212
殖	-13213
段	-13214
殺	-13215
殿	-13216
毫	-13217
氢	-13218
氨	-13219
沖	-13220
泳	-13221
液	-13222
混	-13223
済	-13224
滑	-13225
漫	-13226
瀬	-13227
灭	-13228
烯	-13229
然	-13230
燒	-13231
片	-13232
犬	-13233
獄	-13234
獎	-13235
玉	-13236
珊	-13237
班	-13238
琉	-13239
瑪	-13240
甘	-13241
申	-13242
畫	-13243
疆	-13244
監	-13245
県	-13246
眠	-13247
禁	-13248
秭	-13249
章	-13250
純	-13251
級	-13252
累	-13253
絕	-13254
綏	-13255
縮	-13256
续	-13257
置	-13258
翰	-13259
翼	-13260
考	-13261
聯	-13262
肆	-13263
肖	-13264
肛	-13265
脳	-13266
腺	-13267
臘	-13268
若	-13269
苯	-13270
茲	-13271
草	-13272
菊	-13273
萊	-13274
落	-13275
蓝	-13276
蔥	-13277
藻	-13278
蜜	-13279
衰	-13280
被	-13281
製	-13282
要	-13283
視	-13284
観	-13285
詞	-13286
詩	-13287
諾	-13288
謙	-13289
謝	-13290
證	-13291
變	-13292
认	-13293
词	-13294
貓	-13295
貳	-13296
貿	-13297
资	-13298
越	-13299
轰	-13300
辣	-13301
辩	-13302
过	-13303
逆	-13304
逊	-13305
逐	-13306
過	-13307
醇	-13308
針	-13309
銅	-13310
陀	-13311
陛	-13312
隊	-13313
雞	-13314
霜	-13315
靖	-13316
静	-13317
韦	-13318
響	-13319
风	-13320
飞	-13321
養	-13322
馆	-13323
験	-13324
黎	-13325
굴	-13326
귀	-13327
급	-13328
논	-13329
농	-13330
뉴	-13331
닉	-13332
덤	-13333
돈	-13334
두	-13335
등	-13336
딩	-13337
랍	-13338
랙	-13339
럴	-13340
록	-13341
롤	-13342
료	-13343
른	-13344
맨	-13345
맹	-13346
밀	-13347
박	-13348
백	-13349
번	-13350
북	-13351
불	-13352
붕	-13353
새	-13354
샤	-13355
센	-13356
션	-13357
쇼	-13358
엽	-13359
옷	-13360
울	-13361
움	-13362
육	-13363
읒	-13364
읗	-13365
잔	-13366
재	-13367
젓	-13368
젠	-13369
젤	-13370
징	-13371
창	-13372
처	-13373
철	-13374
초	-13375
침	-13376
틀	-13377
퍼	-13378
펜	-13379
폭	-13380
푸	-13381
향	-13382
헌	-13383
혁	-13384
환	-13385
흑	-13386
𐌳	-13387
	-13388
Ĩ	-13389
ĺ	-13390
Ŗ	-13391
Ŧ	-13392
ŧ	-13393
Ũ	-13394
Ɓ	-13395
Ɔ	-13396
ƍ	-13397
Ǝ	-13398
Ə	-13399
Ɛ	-13400
Ɣ	-13401
ƛ	-13402
Ʃ	-13403
Ʋ	-13404
Ʒ	-13405
ǰ	-13406
ȗ	-13407
Ș	-13408
ș	-13409
Ț	-13410
ț	-13411
ɞ	-13412
ʇ	-13413
ʖ	-13414
ʙ	-13415
ʡ	-13416
˔	-13417
˧	-13418
̇	-13419
̖	-13420
̱	-13421
͇	-13422
͋	-13423
Ѡ	-13424
ѥ	-13425
ѧ	-13426
ѩ	-13427
ѭ	-13428
Ѯ	-13429
Ѱ	-13430
Ѹ	-13431
ѹ	-13432
Ѻ	-13433
ѿ	-13434
Ҁ	-13435
Ҍ	-13436
Ҙ	-13437
ҙ	-13438
Ҡ	-13439
ҡ	-13440
Ҧ	-13441
Ҩ	-13442
ҩ	-13443
Ҷ	-13444
Ҽ	-13445
ҽ	-13446
Ҿ	-13447
ҿ	-13448
Ӂ	-13449
Ӑ	-13450
ӑ	-13451
Ӗ	-13452
ӗ	-13453
Ӳ	-13454
Ե	-13455
Ի	-13456
Ձ	-13457
Շ	-13458
Պ	-13459
Ս	-13460
Վ	-13461
Տ	-13462
Ֆ	-13463
ծ	-13464
օ	-13465
־	-13466
ٌ	-13467
ٍ	-13468
ډ	-13469
ې	-13470
۳	-13471
ܘ	-13472
ܦ	-13473
ހ	-13474
ދ	-13475
ި	-13476
ऊ	-13477
ऋ	-13478
ऌ	-13479
ओ	-13480
ळ	-13481
ऽ	-13482
ौ	-13483
ॡ	-13484
ॢ	-13485
ॣ	-13486
०	-13487
४	-13488
५	-13489
६	-13490
७	-13491
९	-13492
ৌ	-13493
ਭ	-13494
ਮ	-13495
ਿ	-13496
ੀ	-13497
ટ	-13498
ડ	-13499
વ	-13500
ஈ	-13501
ஒ	-13502
చ	-13503
ధ	-13504
ళ	-13505
హ	-13506
ీ	-13507
ూ	-13508
ో	-13509
ಇ	-13510
ಧ	-13511
ಮ	-13512
ೇ	-13513
೦	-13514
೫	-13515
ം	-13516
ആ	-13517
ഇ	-13518
ദ	-13519
വ	-13520
ഷ	-13521
ഹ	-13522
േ	-13523
ฉ	-13524
ฑ	-13525
ฬ	-13526
๋	-13527
ຄ	-13528
ຍ	-13529
ດ	-13530
ຕ	-13531
ນ	-13532
ປ	-13533
ວ	-13534
ອ	-13535
ະ	-13536
ິ	-13537
່	-13538
ང	-13539
བ	-13540
ུ	-13541
ླ	-13542
တ	-13543
ဝ	-13544
အ	-13545
ာ	-13546
ჭ	-13547
ᄡ	-13548
ᄢ	-13549
ᄫ	-13550
ᄬ	-13551
ᅀ	-13552
ᅇ	-13553
ᅘ	-13554
ᆄ	-13555
ᆅ	-13556
ᆑ	-13557
ᆡ	-13558
ᇴ	-13559
ሃ	-13560
ላ	-13561
ም	-13562
ረ	-13563
ስ	-13564
ቦ	-13565
ተ	-13566
ና	-13567
ኛ	-13568
ክ	-13569
ድ	-13570
ጊ	-13571
ፍ	-13572
Ꭰ	-13573
Ꭶ	-13574
Ꮗ	-13575
Ꮝ	-13576
Ꮧ	-13577
Ꮳ	-13578
Ꮺ	-13579
Ꮿ	-13580
ᐱ	-13581
ᑲ	-13582
ᒃ	-13583
ᒪ	-13584
ᓇ	-13585
ᓐ	-13586
ᓪ	-13587
ᕈ	-13588
ត	-13589
ថ	-13590
វ	-13591
ហ	-13592
ួ	-13593
Ḩ	-13594
ḷ	-13595
ḹ	-13596
Ṉ	-13597
Ṭ	-13598
ẅ	-13599
ẽ	-13600
ỉ	-13601
ỗ	-13602
ở	-13603
ỡ	-13604
ἃ	-13605
Ἂ	-13606
Ἅ	-13607
ἕ	-13608
Ἑ	-13609
ἣ	-13610
ἳ	-13611
ὄ	-13612
ὔ	-13613
ὕ	-13614
ὡ	-13615
ὰ	-13616
ὲ	-13617
ᾰ	-13618
ᾶ	-13619
ᾷ	-13620
ῐ	-13621
ῳ	-13622
‛	-13623
„	-13624
‬	-13625
‮	-13626
₠	-13627
℮	-13628
∂	-13629
∧	-13630
∨	-13631
⊆	-13632
⊇	-13633
┌	-13634
┐	-13635
╥	-13636
☧	-13637
♥	-13638
♯	-13639
。	-13640
〡	-13641
〣	-13642
〥	-13643
〦	-13644
〧	-13645
〨	-13646
〩	-13647
ざ	-13648
ぞ	-13649
ぶ	-13650
゙	-13651
丑	-13652
专	-13653
丙	-13654
並	-13655
丸	-13656
丽	-13657
乌	-13658
乍	-13659
乗	-13660
乘	-13661
也	-13662
亂	-13663
了	-13664
仓	-13665
仔	-13666
伏	-13667
伞	-13668
伪	-13669
住	-13670
佑	-13671
健	-13672
傑	-13673
備	-13674
働	-13675
像	-13676
允	-13677
兔	-13678
冕	-13679
写	-13680
冲	-13681
冶	-13682
凍	-13683
処	-13684
刘	-13685
初	-13686
剣	-13687
労	-13688
匹	-13689
卄	-13690
卓	-13691
单	-13692
县	-13693
只	-13694
吴	-13695
吹	-13696
吾	-13697
呒	-13698
呢	-13699
咸	-13700
唱	-13701
啡	-13702
啦	-13703
啱	-13704
善	-13705
团	-13706
园	-13707
圍	-13708
圏	-13709
圖	-13710
址	-13711
坂	-13712
坡	-13713
垂	-13714
垩	-13715
執	-13716
堅	-13717
塩	-13718
塵	-13719
墓	-13720
増	-13721
墳	-13722
声	-13723
处	-13724
奏	-13725
妊	-13726
妻	-13727
姚	-13728
媒	-13729
媽	-13730
宋	-13731
完	-13732
宜	-13733
宪	-13734
害	-13735
宽	-13736
寅	-13737
寓	-13738
寛	-13739
寝	-13740
察	-13741
尉	-13742
层	-13743
展	-13744
岸	-13745
巧	-13746
己	-13747
巳	-13748
席	-13749
幣	-13750
幹	-13751
庚	-13752
延	-13753
廷	-13754
开	-13755
异	-13756
弥	-13757
弹	-13758
强	-13759
彌	-13760
录	-13761
彦	-13762
彼	-13763
征	-13764
径	-13765
徽	-13766
忽	-13767
恆	-13768
恭	-13769
悪	-13770
惠	-13771
惡	-13772
惧	-13773
慈	-13774
戊	-13775
戲	-13776
才	-13777
扎	-13778
扬	-13779
承	-13780
抑	-13781
折	-13782
抽	-13783
拟	-13784
拳	-13785
挙	-13786
捌	-13787
授	-13788
搞	-13789
播	-13790
操	-13791
擬	-13792
敏	-13793
斗	-13794
昆	-13795
暖	-13796
曆	-13797
更	-13798
朋	-13799
服	-13800
札	-13801
杨	-13802
杭	-13803
柒	-13804
株	-13805
档	-13806
棉	-13807
棍	-13808
棒	-13809
椎	-13810
検	-13811
槍	-13812
様	-13813
槤	-13814
橘	-13815
橫	-13816
權	-13817
欢	-13818
欽	-13819
歐	-13820
殻	-13821
氷	-13822
永	-13823
汇	-13824
沌	-13825
沱	-13826
沸	-13827
泉	-13828
泊	-13829
泌	-13830
泛	-13831
泡	-13832
洪	-13833
浙	-13834
浩	-13835
浮	-13836
浸	-13837
涅	-13838
涎	-13839
添	-13840
測	-13841
湘	-13842
滿	-13843
漁	-13844
潔	-13845
瀕	-13846
灣	-13847
炉	-13848
炎	-13849
炔	-13850
炮	-13851
烏	-13852
烤	-13853
烧	-13854
烹	-13855
煤	-13856
熙	-13857
熵	-13858
爭	-13859
父	-13860
牌	-13861
牲	-13862
犹	-13863
獏	-13864
獣	-13865
獨	-13866
玛	-13867
現	-13868
瑚	-13869
璃	-13870
產	-13871
畢	-13872
畴	-13873
疗	-13874
痘	-13875
癸	-13876
發	-13877
盃	-13878
盲	-13879
碱	-13880
磯	-13881
磷	-13882
秀	-13883
秦	-13884
移	-13885
稲	-13886
穀	-13887
穴	-13888
穷	-13889
窟	-13890
筑	-13891
简	-13892
箱	-13893
箴	-13894
簡	-13895
籍	-13896
粮	-13897
糞	-13898
紋	-13899
終	-13900
絲	-13901
總	-13902
繚	-13903
络	-13904
综	-13905
缩	-13906
罕	-13907
羊	-13908
羧	-13909
羽	-13910
翁	-13911
翅	-13912
耐	-13913
聰	-13914
聿	-13915
肃	-13916
肥	-13917
胎	-13918
胺	-13919
腦	-13920
腸	-13921
膏	-13922
臣	-13923
臥	-13924
臨	-13925
致	-13926
臺	-13927
與	-13928
舌	-13929
般	-13930
芳	-13931
芸	-13932
苑	-13933
苴	-13934
苷	-13935
苹	-13936
萎	-13937
萧	-13938
葬	-13939
蒋	-13940
蒸	-13941
蓮	-13942
藥	-13943
處	-13944
蛇	-13945
蛛	-13946
蜘	-13947
蝙	-13948
蝠	-13949
蝦	-13950
蟄	-13951
蟲	-13952
衆	-13953
衡	-13954
袁	-13955
裕	-13956
裝	-13957
裡	-13958
襪	-13959
触	-13960
設	-13961
診	-13962
証	-13963
評	-13964
詹	-13965
誠	-13966
警	-13967
识	-13968
诞	-13969
请	-13970
谱	-13971
費	-13972
贡	-13973
赦	-13974
趣	-13975
踏	-13976
蹄	-13977
蹈	-13978
転	-13979
載	-13980
輻	-13981
轟	-13982
输	-13983
辖	-13984
这	-13985
选	-13986
逸	-13987
遊	-13988
遠	-13989
遼	-13990
邮	-13991
郑	-13992
郡	-13993
酶	-13994
醫	-13995
采	-13996
釈	-13997
錢	-13998
録	-13999
鎮	-14000
针	-14001
钟	-14002
铜	-14003
锕	-14004
锡	-14005
閉	-14006
閩	-14007
關	-14008
闪	-14009
问	-14010
阴	-14011
隐	-14012
隼	-14013
雀	-14014
雌	-14015
難	-14016
震	-14017
韻	-14018
頡	-14019
顔	-14020
顕	-14021
顛	-14022
页	-14023
题	-14024
飄	-14025
飯	-14026
飽	-14027
餐	-14028
饪	-14029
駆	-14030
騎	-14031
驚	-14032
驱	-14033
验	-14034
魏	-14035
鮑	-14036
鰭	-14037
鲜	-14038
鲸	-14039
鴉	-14040
鴿	-14041
鸟	-14042
鸭	-14043
鹿	-14044
麥	-14045
麻	-14046
黙	-14047
鼓	-14048
鼻	-14049
갑	-14050
겔	-14051
곤	-14052
광	-14053
귿	-14054
낙	-14055
난	-14056
날	-14057
낱	-14058
냐	-14059
너	-14060
넬	-14061
놀	-14062
놈	-14063
느	-14064
능	-14065
담	-14066
둥	-14067
듐	-14068
딘	-14069
량	-14070
례	-14071
룬	-14072
뤼	-14073
륙	-14074
림	-14075
막	-14076
머	-14077
멘	-14078
멜	-14079
못	-14080
밴	-14081
벌	-14082
봉	-14083
빈	-14084
빠	-14085
습	-14086
승	-14087
싱	-14088
씨	-14089
앵	-14090
얼	-14091
업	-14092
엑	-14093
윈	-14094
율	-14095
윽	-14096
읃	-14097
을	-14098
읏	-14099
입	-14100
직	-14101
째	-14102
쪽	-14103
첫	-14104
청	-14105
추	-14106
칭	-14107
캐	-14108
캔	-14109
컨	-14110
컬	-14111
켈	-14112
콩	-14113
킨	-14114
킬	-14115
털	-14116
텐	-14117
튜	-14118
팅	-14119
패	-14120
팬	-14121
팽	-14122
평	-14123
폰	-14124
할	-14125
핸	-14126
햄	-14127
험	-14128
현	-14129
혜	-14130
혼	-14131
훈	-14132
힐	-14133
𐌺	-14134
𐌻	-14135
𐍂	-14136
	-14137
	-14138
Ď	-14139
Ĕ	-14140
Ě	-14141
Ĺ	-14142
Ň	-14143
Ŕ	-14144
Ť	-14145
Ŭ	-14146
Ů	-14147
Ŵ	-14148
Ŷ	-14149
ƀ	-14150
Ƃ	-14151
Ƈ	-14152
Ɖ	-14153
Ɗ	-14154
Ƌ	-14155
Ƒ	-14156
Ɠ	-14157
Ɯ	-14158
Ɲ	-14159
ƞ	-14160
Ɵ	-14161
ƪ	-14162
ƫ	-14163
Ʈ	-14164
Ʊ	-14165
ƴ	-14166
ƺ	-14167
ƻ	-14168
ƾ	-14169
Ǔ	-14170
ǝ	-14171
Ǧ	-14172
ǯ	-14173
ǹ	-14174
ȅ	-14175
ȑ	-14176
ȡ	-14177
ȵ	-14178
ȶ	-14179
ɩ	-14180
ɼ	-14181
ʅ	-14182
ʆ	-14183
ʓ	-14184
ʚ	-14185
ʞ	-14186
ʩ	-14187
ʪ	-14188
ʫ	-14189
ʬ	-14190
ʭ	-14191
ʮ	-14192
ʯ	-14193
ˆ	-14194
˕	-14195
˨	-14196
̀	-14197
̕	-14198
̗	-14199
̛	-14200
̡	-14201
̣	-14202
̫	-14203
̮	-14204
̳	-14205
̶	-14206
̸	-14207
͂	-14208
ͅ	-14209
͉	-14210
͊	-14211
͌	-14212
͍	-14213
͎	-14214
͢	-14215
Ύ	-14216
ΐ	-14217
Ϊ	-14218
Ϋ	-14219
ΰ	-14220
Ϻ	-14221
Ѐ	-14222
Ѝ	-14223
ѐ	-14224
ѝ	-14225
ѡ	-14226
ѯ	-14227
ѱ	-14228
Ѷ	-14229
ѷ	-14230
ѻ	-14231
Ѽ	-14232
ѽ	-14233
ҁ	-14234
҂	-14235
҃	-14236
҄	-14237
҅	-14238
҆	-14239
҇	-14240
҈	-14241
҉	-14242
Ҋ	-14243
ҋ	-14244
ҍ	-14245
Ҏ	-14246
ҏ	-14247
Ҝ	-14248
ҝ	-14249
Ҥ	-14250
ҥ	-14251
Ҹ	-14252
ҹ	-14253
Ӏ	-14254
ӂ	-14255
Ӄ	-14256
ӄ	-14257
Ӆ	-14258
ӆ	-14259
Ӈ	-14260
ӈ	-14261
Ӊ	-14262
ӊ	-14263
Ӌ	-14264
ӌ	-14265
Ӎ	-14266
ӎ	-14267
ӏ	-14268
Ӓ	-14269
ӓ	-14270
Ӕ	-14271
ӕ	-14272
Ӛ	-14273
ӛ	-14274
Ӝ	-14275
ӝ	-14276
Ӟ	-14277
ӟ	-14278
Ӣ	-14279
ӣ	-14280
Ӥ	-14281
ӥ	-14282
Ӧ	-14283
ӧ	-14284
Ӫ	-14285
ӫ	-14286
Ӭ	-14287
ӭ	-14288
Ӯ	-14289
ӯ	-14290
Ӱ	-14291
ӱ	-14292
Ӵ	-14293
ӵ	-14294
Ӷ	-14295
ӷ	-14296
Ӹ	-14297
ӹ	-14298
Ӻ	-14299
ӻ	-14300
Ӽ	-14301
ӽ	-14302
Ӿ	-14303
ӿ	-14304
Ԁ	-14305
ԁ	-14306
Ԃ	-14307
ԃ	-14308
Ԅ	-14309
ԅ	-14310
Ԇ	-14311
ԇ	-14312
Ԉ	-14313
ԉ	-14314
Ԋ	-14315
ԋ	-14316
Ԍ	-14317
ԍ	-14318
Ԏ	-14319
ԏ	-14320
Ԑ	-14321
ԑ	-14322
Ԓ	-14323
ԓ	-14324
Ԕ	-14325
ԕ	-14326
Ԗ	-14327
ԗ	-14328
Ԙ	-14329
ԙ	-14330
Ԛ	-14331
ԛ	-14332
Ԝ	-14333
ԝ	-14334
Ԟ	-14335
ԟ	-14336
Ԡ	-14337
ԡ	-14338
Ԣ	-14339
ԣ	-14340
Ԥ	-14341
ԥ	-14342
Ԧ	-14343
ԧ	-14344
Ԩ	-14345
ԩ	-14346
Ԫ	-14347
ԫ	-14348
Ԭ	-14349
ԭ	-14350
Ԯ	-14351
ԯ	-14352
Դ	-14353
Զ	-14354
Է	-14355
Ը	-14356
Թ	-14357
Ժ	-14358
Խ	-14359
Ծ	-14360
Ղ	-14361
Ճ	-14362
Մ	-14363
Յ	-14364
Ն	-14365
Ո	-14366
Ջ	-14367
Ռ	-14368
Ր	-14369
Ց	-14370
Ւ	-14371
Փ	-14372
Ք	-14373
Օ	-14374
ՙ	-14375
՚	-14376
՛	-14377
՜	-14378
՝	-14379
՞	-14380
՟	-14381
է	-14382
ը	-14383
ժ	-14384
ձ	-14385
ճ	-14386
ջ	-14387
փ	-14388
ֆ	-14389
։	-14390
֊	-14391
֐	-14392
֑	-14393
֒	-14394
֓	-14395
֔	-14396
֕	-14397
֖	-14398
֗	-14399
֘	-14400
֙	-14401
֚	-14402
֛	-14403
֜	-14404
֝	-14405
֞	-14406
֟	-14407
֠	-14408
֡	-14409
֢	-14410
֣	-14411
֤	-14412
֥	-14413
֦	-14414
֧	-14415
֨	-14416
֩	-14417
֪	-14418
֫	-14419
֬	-14420
֭	-14421
֮	-14422
֯	-14423
ֳ	-14424
ֺ	-14425
ֽ	-14426
׀	-14427
׃	-14428
ׄ	-14429
ׅ	-14430
׆	-14431
ׇ	-14432
׈	-14433
׉	-14434
׊	-14435
׋	-14436
׌	-14437
׍	-14438
׎	-14439
׏	-14440
׫	-14441
׬	-14442
׭	-14443
׮	-14444
ׯ	-14445
׳	-14446
״	-14447
׵	-14448
׶	-14449
׷	-14450
׸	-14451
׹	-14452
׺	-14453
׻	-14454
׼	-14455
׽	-14456
׾	-14457
׿	-14458
؛	-14459
٠	-14460
١	-14461
٢	-14462
٣	-14463
٤	-14464
٥	-14465
٦	-14466
٧	-14467
٨	-14468
٩	-14469
ں	-14470
ھ	-14471
۵	-14472
۶	-14473
۷	-14474
۸	-14475
۹	-14476
ܝ	-14477
ܡ	-14478
ތ	-14479
ސ	-14480
ާ	-14481
ީ	-14482
ު	-14483
ऄ	-14484
ऎ	-14485
ऒ	-14486
ऩ	-14487
ऱ	-14488
ऴ	-14489
ॄ	-14490
ॆ	-14491
ॊ	-14492
॑	-14493
॒	-14494
॓	-14495
॔	-14496
ॠ	-14497
॥	-14498
॰	-14499
ঁ	-14500
ঈ	-14501
ঘ	-14502
ঞ	-14503
ঠ	-14504
ৈ	-14505
০	-14506
১	-14507
২	-14508
৩	-14509
৪	-14510
৫	-14511
৬	-14512
৭	-14513
৮	-14514
৯	-14515
ਆ	-14516
ਇ	-14517
ਖ	-14518
ਜ	-14519
ਟ	-14520
ਣ	-14521
ਤ	-14522
ਨ	-14523
ਵ	-14524
ਸ	-14525
ੈ	-14526
ੜ	-14527
੦	-14528
੧	-14529
੨	-14530
੩	-14531
੪	-14532
੫	-14533
੬	-14534
੭	-14535
੮	-14536
੯	-14537
ੰ	-14538
ઁ	-14539
ઇ	-14540
ઈ	-14541
ઉ	-14542
ઍ	-14543
એ	-14544
ઘ	-14545
ણ	-14546
થ	-14547
ૃ	-14548
ૅ	-14549
૦	-14550
૧	-14551
૨	-14552
૩	-14553
૪	-14554
૫	-14555
૬	-14556
૭	-14557
૮	-14558
૯	-14559
ତ	-14560
ଭ	-14561
ର	-14562
ା	-14563
୦	-14564
୧	-14565
୨	-14566
୩	-14567
୪	-14568
୫	-14569
୬	-14570
୭	-14571
୮	-14572
୯	-14573
ஃ	-14574
ஊ	-14575
ஓ	-14576
ஷ	-14577
௦	-14578
௧	-14579
௨	-14580
௩	-14581
௪	-14582
௫	-14583
௬	-14584
௭	-14585
௮	-14586
௯	-14587
ఇ	-14588
క	-14589
ಐ	-14590
ಖ	-14591
ಣ	-14592
ಥ	-14593
ೂ	-14594
ೊ	-14595
೩	-14596
೬	-14597
೭	-14598
೮	-14599
೯	-14600
അ	-14601
ഉ	-14602
ച	-14603
ജ	-14604
ഡ	-14605
ണ	-14606
ഥ	-14607
ശ	-14608
ീ	-14609
ൈ	-14610
൦	-14611
൧	-14612
൨	-14613
൩	-14614
൪	-14615
൫	-14616
൬	-14617
൭	-14618
൮	-14619
൯	-14620
ඣ	-14621
න	-14622
ා	-14623
ฃ	-14624
ฅ	-14625
ฆ	-14626
ฌ	-14627
ฦ	-14628
ฯ	-14629
฿	-14630
ๅ	-14631
ๆ	-14632
๎	-14633
๏	-14634
๐	-14635
๑	-14636
๒	-14637
๓	-14638
๔	-14639
๕	-14640
๖	-14641
๗	-14642
๘	-14643
๙	-14644
๚	-14645
๛	-14646
ກ	-14647
ຖ	-14648
ຢ	-14649
ລ	-14650
ຯ	-14651
ັ	-14652
ຸ	-14653
ແ	-14654
ໂ	-14655
༠	-14656
༡	-14657
༢	-14658
༣	-14659
༤	-14660
༥	-14661
༦	-14662
༧	-14663
༨	-14664
༩	-14665
ཀ	-14666
ཆ	-14667
ཉ	-14668
ད	-14669
མ	-14670
ཞ	-14671
འ	-14672
ར	-14673
ཥ	-14674
ོ	-14675
ྟ	-14676
ྱ	-14677
ྲ	-14678
စ	-14679
ထ	-14680
ပ	-14681
လ	-14682
ဟ	-14683
ိ	-14684
ီ	-14685
ု	-14686
ူ	-14687
း	-14688
ᄔ	-14689
ᄕ	-14690
ᄚ	-14691
ᄜ	-14692
ᄝ	-14693
ᄞ	-14694
ᄠ	-14695
ᄧ	-14696
ᄩ	-14697
ᄭ	-14698
ᄮ	-14699
ᄯ	-14700
ᄲ	-14701
ᄶ	-14702
ᄼ	-14703
ᄽ	-14704
ᄾ	-14705
ᄿ	-14706
ᅎ	-14707
ᅏ	-14708
ᅐ	-14709
ᅑ	-14710
ᅔ	-14711
ᅕ	-14712
ᅗ	-14713
ᆈ	-14714
ᆔ	-14715
ᆩ	-14716
ᆪ	-14717
ᆬ	-14718
ᆭ	-14719
ᆰ	-14720
ᆱ	-14721
ᆲ	-14722
ᆳ	-14723
ᆴ	-14724
ᆵ	-14725
ᆻ	-14726
ᆼ	-14727
ᇇ	-14728
ᇈ	-14729
ᇌ	-14730
ᇎ	-14731
ᇓ	-14732
ᇗ	-14733
ᇙ	-14734
ᇝ	-14735
ᇟ	-14736
ᇦ	-14737
ᇱ	-14738
ᇲ	-14739
ሀ	-14740
ሁ	-14741
ሂ	-14742
ህ	-14743
ለ	-14744
ሕ	-14745
ማ	-14746
ሜ	-14747
ሩ	-14748
ሬ	-14749
ሰ	-14750
ሶ	-14751
ሽ	-14752
ቃ	-14753
ቅ	-14754
ቢ	-14755
ቨ	-14756
ቶ	-14757
ቻ	-14758
ኅ	-14759
እ	-14760
ከ	-14761
ኪ	-14762
ኬ	-14763
ው	-14764
ዓ	-14765
ዚ	-14766
ዝ	-14767
የ	-14768
ያ	-14769
ይ	-14770
ደ	-14771
ዴ	-14772
ጀ	-14773
ጄ	-14774
ጅ	-14775
ጆ	-14776
ገ	-14777
ጋ	-14778
ጎ	-14779
ጽ	-14780
ፅ	-14781
ፋ	-14782
ፑ	-14783
ፔ	-14784
ፕ	-14785
Ꭱ	-14786
Ꭲ	-14787
Ꭹ	-14788
Ꮆ	-14789
Ꮇ	-14790
Ꮈ	-14791
Ꮎ	-14792
Ꮑ	-14793
Ꮙ	-14794
Ꮜ	-14795
Ꮢ	-14796
Ꮪ	-14797
Ꮷ	-14798
Ᏻ	-14799
ᐆ	-14800
ᐳ	-14801
ᐸ	-14802
ᑭ	-14803
ᒋ	-14804
ᒥ	-14805
ᓈ	-14806
ᓛ	-14807
ᓰ	-14808
ᓱ	-14809
ᔅ	-14810
ᔪ	-14811
ᕖ	-14812
ᚼ	-14813
ᛒ	-14814
ង	-14815
ឆ	-14816
ជ	-14817
ឋ	-14818
ឌ	-14819
ភ	-14820
ឥ	-14821
ឹ	-14822
ូ	-14823
ៃ	-14824
ោ	-14825
ៅ	-14826
៉	-14827
៎	-14828
᠁	-14829
Ḃ	-14830
ḃ	-14831
Ḋ	-14832
ḋ	-14833
Ḏ	-14834
ḛ	-14835
Ḟ	-14836
ḟ	-14837
Ṁ	-14838
Ṗ	-14839
ṗ	-14840
ṝ	-14841
Ṡ	-14842
ṡ	-14843
Ṫ	-14844
ṫ	-14845
Ẁ	-14846
ẁ	-14847
Ẃ	-14848
ẃ	-14849
Ẅ	-14850
Ẓ	-14851
ẗ	-14852
Ả	-14853
ằ	-14854
ẳ	-14855
ẹ	-14856
ẻ	-14857
Ổ	-14858
Ỳ	-14859
Ἄ	-14860
Ἐ	-14861
Ἕ	-14862
ἥ	-14863
ἦ	-14864
Ἠ	-14865
Ἱ	-14866
ὃ	-14867
Ὀ	-14868
Ὁ	-14869
ὖ	-14870
ὥ	-14871
ᾍ	-14872
ᾱ	-14873
ῃ	-14874
ῒ	-14875
ῤ	-14876
‖	-14877
‚	-14878
‿	-14879
₧	-14880
₪	-14881
₯	-14882
↔	-14883
↕	-14884
↨	-14885
↵	-14886
⇌	-14887
∃	-14888
∟	-14889
∩	-14890
∪	-14891
∫	-14892
≅	-14893
⊦	-14894
⋮	-14895
⋯	-14896
⋰	-14897
⋱	-14898
⌂	-14899
⌐	-14900
⌠	-14901
⌡	-14902
⍋	-14903
│	-14904
└	-14905
┘	-14906
├	-14907
┤	-14908
┬	-14909
┴	-14910
┼	-14911
═	-14912
║	-14913
╒	-14914
╓	-14915
╔	-14916
╕	-14917
╖	-14918
╗	-14919
╘	-14920
╙	-14921
╚	-14922
╛	-14923
╜	-14924
╝	-14925
╞	-14926
╟	-14927
╠	-14928
╡	-14929
╢	-14930
╣	-14931
╤	-14932
╦	-14933
╧	-14934
╨	-14935
╩	-14936
╪	-14937
╫	-14938
╬	-14939
╭	-14940
╮	-14941
▌	-14942
▐	-14943
░	-14944
▒	-14945
▓	-14946
■	-14947
▬	-14948
▲	-14949
►	-14950
▼	-14951
▽	-14952
◄	-14953
◊	-14954
◘	-14955
◙	-14956
☄	-14957
☆	-14958
☺	-14959
☻	-14960
☼	-14961
♀	-14962
♂	-14963
♈	-14964
♊	-14965
♑	-14966
♒	-14967
♠	-14968
♣	-14969
♦	-14970
♪	-14971
〈	-14972
〉	-14973
「	-14974
」	-14975
ぁ	-14976
ぃ	-14977
ぇ	-14978
ぜ	-14979
ぱ	-14980
ぷ	-14981
ぺ	-14982
ぼ	-14983
ぽ	-14984
ゔ	-14985
ゝ	-14986
ㄍ	-14987
ㄓ	-14988
ㄡ	-14989
ㄤ	-14990
ㄨ	-14991
䓬	-14992
万	-14993
且	-14994
丕	-14995
丝	-14996
丟	-14997
严	-14998
丰	-14999
串	-15000
丶	-15001
为	-15002
么	-15003
乒	-15004
乓	-15005
予	-15006
井	-15007
亥	-15008
亦	-15009
亩	-15010
享	-15011
亮	-15012
亲	-15013
仅	-15014
仏	-15015
仑	-15016
仕	-15017
付	-15018
仟	-15019
任	-15020
份	-15021
伴	-15022
伶	-15023
佇	-15024
佈	-15025
佰	-15026
佳	-15027
俊	-15028
俠	-15029
倒	-15030
偕	-15031
停	-15032
側	-15033
偵	-15034
偽	-15035
储	-15036
傻	-15037
僕	-15038
僖	-15039
僚	-15040
儀	-15041
儲	-15042
充	-15043
児	-15044
兒	-15045
冊	-15046
册	-15047
冒	-15048
冯	-15049
冷	-15050
凋	-15051
减	-15052
凧	-15053
凸	-15054
刀	-15055
刚	-15056
刮	-15057
到	-15058
剑	-15059
剧	-15060
剩	-15061
副	-15062
剰	-15063
劃	-15064
功	-15065
劫	-15066
劾	-15067
势	-15068
勇	-15069
勤	-15070
勸	-15071
勾	-15072
匯	-15073
匿	-15074
升	-15075
卐	-15076
卑	-15077
卤	-15078
卦	-15079
卯	-15080
却	-15081
卷	-15082
卻	-15083
压	-15084
厕	-15085
厘	-15086
厦	-15087
叁	-15088
参	-15089
又	-15090
叉	-15091
収	-15092
叔	-15093
叟	-15094
叠	-15095
叡	-15096
叨	-15097
叫	-15098
右	-15099
吃	-15100
吒	-15101
吗	-15102
吞	-15103
含	-15104
呆	-15105
呉	-15106
呤	-15107
呼	-15108
咁	-15109
哆	-15110
响	-15111
哩	-15112
唇	-15113
唧	-15114
啊	-15115
啟	-15116
啤	-15117
喀	-15118
喇	-15119
喉	-15120
喺	-15121
嗎	-15122
嗜	-15123
嗰	-15124
嘌	-15125
嘛	-15126
嘸	-15127
嚴	-15128
圈	-15129
團	-15130
圧	-15131
场	-15132
坏	-15133
坐	-15134
坑	-15135
坚	-15136
坛	-15137
坞	-15138
埔	-15139
堉	-15140
堕	-15141
堤	-15142
堰	-15143
塁	-15144
塗	-15145
塚	-15146
墜	-15147
墩	-15148
壬	-15149
壮	-15150
壺	-15151
夂	-15152
夊	-15153
夢	-15154
奔	-15155
套	-15156
奪	-15157
妈	-15158
妥	-15159
姦	-15160
姬	-15161
娃	-15162
娛	-15163
娠	-15164
婆	-15165
婉	-15166
婚	-15167
婦	-15168
嬉	-15169
嬰	-15170
嬴	-15171
孕	-15172
孙	-15173
孚	-15174
孛	-15175
孤	-15176
孫	-15177
宝	-15178
实	-15179
宫	-15180
寨	-15181
審	-15182
寫	-15183
寸	-15184
将	-15185
專	-15186
尋	-15187
尤	-15188
尭	-15189
尽	-15190
尿	-15191
屁	-15192
屄	-15193
屠	-15194
屿	-15195
岐	-15196
峨	-15197
峻	-15198
峽	-15199
嵯	-15200
嶋	-15201
巢	-15202
巫	-15203
已	-15204
巾	-15205
币	-15206
帜	-15207
帮	-15208
帯	-15209
幕	-15210
幺	-15211
幼	-15212
庇	-15213
店	-15214
庙	-15215
庞	-15216
庶	-15217
庸	-15218
廁	-15219
弁	-15220
弈	-15221
张	-15222
弦	-15223
弩	-15224
張	-15225
彈	-15226
彩	-15227
彪	-15228
彻	-15229
待	-15230
很	-15231
徴	-15232
必	-15233
忒	-15234
忠	-15235
怖	-15236
急	-15237
怪	-15238
恰	-15239
恺	-15240
悖	-15241
患	-15242
悯	-15243
惯	-15244
慌	-15245
慣	-15246
憶	-15247
懶	-15248
懷	-15249
戀	-15250
戌	-15251
截	-15252
戶	-15253
扉	-15254
扑	-15255
扩	-15256
扰	-15257
扶	-15258
抚	-15259
択	-15260
护	-15261
押	-15262
拓	-15263
拖	-15264
拡	-15265
括	-15266
挿	-15267
捜	-15268
捻	-15269
掌	-15270
掲	-15271
插	-15272
搖	-15273
搜	-15274
携	-15275
搿	-15276
摂	-15277
摄	-15278
摆	-15279
撞	-15280
攀	-15281
攵	-15282
收	-15283
敷	-15284
斉	-15285
斋	-15286
斎	-15287
斷	-15288
旅	-15289
既	-15290
旧	-15291
昂	-15292
昱	-15293
昴	-15294
显	-15295
晋	-15296
晓	-15297
晰	-15298
暑	-15299
暨	-15300
曜	-15301
替	-15302
杀	-15303
杉	-15304
杏	-15305
杼	-15306
板	-15307
枯	-15308
柬	-15309
栄	-15310
栖	-15311
栽	-15312
桂	-15313
桃	-15314
案	-15315
桥	-15316
桧	-15317
梁	-15318
梨	-15319
械	-15320
梵	-15321
棕	-15322
棣	-15323
楊	-15324
楯	-15325
楷	-15326
楼	-15327
樣	-15328
橄	-15329
橿	-15330
檀	-15331
檔	-15332
檢	-15333
欖	-15334
欠	-15335
歇	-15336
歯	-15337
歳	-15338
歸	-15339
歹	-15340
殊	-15341
殷	-15342
殼	-15343
毀	-15344
毕	-15345
氐	-15346
氘	-15347
氟	-15348
氦	-15349
氩	-15350
氮	-15351
氯	-15352
氰	-15353
汀	-15354
汏	-15355
汤	-15356
汴	-15357
汶	-15358
決	-15359
汾	-15360
沈	-15361
沉	-15362
沟	-15363
没	-15364
沢	-15365
泽	-15366
浆	-15367
测	-15368
浓	-15369
浪	-15370
涉	-15371
涵	-15372
淀	-15373
淇	-15374
淝	-15375
深	-15376
淵	-15377
渉	-15378
渐	-15379
減	-15380
渺	-15381
満	-15382
溝	-15383
溫	-15384
溴	-15385
滋	-15386
滕	-15387
滤	-15388
滨	-15389
滷	-15390
漿	-15391
潟	-15392
澗	-15393
濁	-15394
濃	-15395
瀉	-15396
灰	-15397
炙	-15398
炼	-15399
烷	-15400
烽	-15401
焓	-15402
焦	-15403
焼	-15404
煉	-15405
熈	-15406
燈	-15407
燭	-15408
牆	-15409
版	-15410
牧	-15411
犠	-15412
犧	-15413
狐	-15414
狸	-15415
猜	-15416
猶	-15417
猿	-15418
獅	-15419
珀	-15420
珥	-15421
珪	-15422
琛	-15423
琥	-15424
瑙	-15425
瑤	-15426
璋	-15427
瓶	-15428
甙	-15429
甚	-15430
甜	-15431
甸	-15432
町	-15433
留	-15434
畳	-15435
當	-15436
疚	-15437
疣	-15438
痧	-15439
痿	-15440
癌	-15441
皆	-15442
益	-15443
盎	-15444
盔	-15445
盤	-15446
盪	-15447
砷	-15448
砹	-15449
硼	-15450
碑	-15451
碘	-15452
碧	-15453
確	-15454
磚	-15455
磨	-15456
祈	-15457
祐	-15458
祝	-15459
祷	-15460
禧	-15461
禺	-15462
私	-15463
种	-15464
税	-15465
稚	-15466
穂	-15467
穌	-15468
穗	-15469
窒	-15470
竇	-15471
站	-15472
竜	-15473
竞	-15474
竹	-15475
笃	-15476
笑	-15477
笠	-15478
笨	-15479
筋	-15480
筒	-15481
筝	-15482
箭	-15483
築	-15484
篮	-15485
簧	-15486
粤	-15487
粥	-15488
粵	-15489
粹	-15490
粽	-15491
糧	-15492
糰	-15493
紧	-15494
紹	-15495
絞	-15496
綢	-15497
綴	-15498
綿	-15499
締	-15500
緣	-15501
緯	-15502
縁	-15503
縄	-15504
縱	-15505
繁	-15506
繊	-15507
繍	-15508
繪	-15509
纖	-15510
纤	-15511
纬	-15512
纯	-15513
纺	-15514
纽	-15515
终	-15516
绍	-15517
绣	-15518
继	-15519
绪	-15520
缓	-15521
缪	-15522
缺	-15523
罐	-15524
罵	-15525
羯	-15526
耕	-15527
聚	-15528
聞	-15529
職	-15530
聽	-15531
肅	-15532
肇	-15533
肌	-15534
肝	-15535
股	-15536
肢	-15537
肩	-15538
肾	-15539
胖	-15540
胚	-15541
胰	-15542
胸	-15543
脇	-15544
脷	-15545
腎	-15546
腰	-15547
腳	-15548
膽	-15549
臭	-15550
至	-15551
舉	-15552
舱	-15553
艮	-15554
芒	-15555
芦	-15556
芭	-15557
苋	-15558
苗	-15559
苻	-15560
茅	-15561
茵	-15562
荒	-15563
荟	-15564
荣	-15565
荧	-15566
莽	-15567
营	-15568
葛	-15569
蒲	-15570
蓑	-15571
蓟	-15572
蓬	-15573
薄	-15574
薊	-15575
薛	-15576
薫	-15577
藁	-15578
虛	-15579
蚁	-15580
蚂	-15581
蚓	-15582
蚟	-15583
蚯	-15584
蛍	-15585
蛙	-15586
蜒	-15587
蜡	-15588
蝌	-15589
蝴	-15590
蝶	-15591
蠕	-15592
衍	-15593
袍	-15594
裏	-15595
裔	-15596
裴	-15597
襲	-15598
規	-15599
覺	-15600
觀	-15601
见	-15602
觉	-15603
觸	-15604
訇	-15605
訊	-15606
訓	-15607
託	-15608
訟	-15609
訴	-15610
訶	-15611
詔	-15612
誉	-15613
誌	-15614
誕	-15615
誤	-15616
読	-15617
請	-15618
諦	-15619
諧	-15620
諺	-15621
謠	-15622
譚	-15623
護	-15624
讀	-15625
让	-15626
讲	-15627
诃	-15628
译	-15629
该	-15630
调	-15631
谋	-15632
谍	-15633
谔	-15634
谛	-15635
豊	-15636
豚	-15637
豢	-15638
豬	-15639
豹	-15640
豺	-15641
貴	-15642
賛	-15643
賭	-15644
贛	-15645
负	-15646
财	-15647
贤	-15648
贰	-15649
贵	-15650
贼	-15651
赋	-15652
赌	-15653
赖	-15654
赣	-15655
走	-15656
赵	-15657
跃	-15658
跌	-15659
跳	-15660
蹦	-15661
軟	-15662
軽	-15663
輭	-15664
輯	-15665
輾	-15666
轉	-15667
轨	-15668
转	-15669
轮	-15670
轴	-15671
辅	-15672
辐	-15673
辑	-15674
辟	-15675
辭	-15676
辺	-15677
辽	-15678
远	-15679
迹	-15680
這	-15681
遣	-15682
適	-15683
遷	-15684
邁	-15685
邊	-15686
邏	-15687
邑	-15688
邓	-15689
邪	-15690
邱	-15691
郁	-15692
郝	-15693
酉	-15694
酗	-15695
酥	-15696
酪	-15697
醗	-15698
醚	-15699
醬	-15700
釐	-15701
鉱	-15702
銃	-15703
銘	-15704
鋼	-15705
錐	-15706
錨	-15707
錫	-15708
錬	-15709
錯	-15710
鍛	-15711
鍼	-15712
鎚	-15713
鏡	-15714
鐘	-15715
鐵	-15716
鑑	-15717
钆	-15718
钙	-15719
钡	-15720
钦	-15721
钫	-15722
钬	-15723
钴	-15724
钿	-15725
铈	-15726
铋	-15727
铍	-15728
铒	-15729
铕	-15730
铝	-15731
铟	-15732
铪	-15733
铬	-15734
铭	-15735
铯	-15736
铱	-15737
锋	-15738
锎	-15739
锑	-15740
锔	-15741
锗	-15742
锚	-15743
锤	-15744
锥	-15745
锫	-15746
锿	-15747
镄	-15748
镅	-15749
镇	-15750
镉	-15751
镓	-15752
镜	-15753
镝	-15754
閑	-15755
閣	-15756
閲	-15757
闻	-15758
闽	-15759
阉	-15760
阜	-15761
队	-15762
陆	-15763
降	-15764
陕	-15765
陝	-15766
险	-15767
陶	-15768
陷	-15769
険	-15770
隈	-15771
隋	-15772
随	-15773
隔	-15774
隧	-15775
險	-15776
隷	-15777
隸	-15778
雍	-15779
雑	-15780
雕	-15781
霰	-15782
露	-15783
霸	-15784
鞘	-15785
韃	-15786
韓	-15787
頚	-15788
頻	-15789
頼	-15790
額	-15791
願	-15792
顯	-15793
颈	-15794
颉	-15795
颜	-15796
颠	-15797
飢	-15798
飼	-15799
餅	-15800
饅	-15801
饉	-15802
饑	-15803
饥	-15804
饭	-15805
饮	-15806
饰	-15807
饺	-15808
饿	-15809
馈	-15810
馏	-15811
馕	-15812
駐	-15813
騰	-15814
驼	-15815
骂	-15816
骆	-15817
骑	-15818
骰	-15819
骼	-15820
髄	-15821
髦	-15822
髭	-15823
髮	-15824
鬱	-15825
鬼	-15826
魁	-15827
鯨	-15828
鰓	-15829
鴻	-15830
鵝	-15831
鶏	-15832
鶯	-15833
鷦	-15834
鷯	-15835
鷹	-15836
鸠	-15837
鹃	-15838
鹳	-15839
麒	-15840
麟	-15841
麼	-15842
黏	-15843
默	-15844
點	-15845
齊	-15846
齋	-15847
齐	-15848
齒	-15849
齡	-15850
값	-15851
객	-15852
갠	-15853
갯	-15854
검	-15855
겁	-15856
것	-15857
겉	-15858
겐	-15859
겠	-15860
겨	-15861
결	-15862
곰	-15863
곱	-15864
괄	-15865
괌	-15866
궐	-15867
귈	-15868
귤	-15869
근	-15870
긴	-15871
길	-15872
김	-15873
깨	-15874
께	-15875
끓	-15876
끼	-15877
낭	-15878
내	-15879
냉	-15880
냥	-15881
넌	-15882
넘	-15883
년	-15884
념	-15885
녹	-15886
뇌	-15887
뇨	-15888
닝	-15889
닿	-15890
댕	-15891
덕	-15892
덜	-15893
덩	-15894
돋	-15895
돔	-15896
되	-15897
둘	-15898
뒤	-15899
딱	-15900
똥	-15901
랄	-15902
랏	-15903
램	-15904
랫	-15905
렐	-15906
려	-15907
련	-15908
렬	-15909
롬	-15910
롭	-15911
뢰	-15912
룡	-15913
룩	-15914
룰	-15915
룹	-15916
룻	-15917
름	-15918
릿	-15919
맘	-15920
맙	-15921
멕	-15922
멤	-15923
멸	-15924
몰	-15925
몸	-15926
몽	-15927
묵	-15928
뮈	-15929
뮤	-15930
뮬	-15931
믈	-15932
및	-15933
받	-15934
밟	-15935
밸	-15936
뱀	-15937
뱅	-15938
벼	-15939
벽	-15940
별	-15941
봄	-15942
븀	-15943
빅	-15944
빙	-15945
뼈	-15946
삭	-15947
삼	-15948
샨	-15949
섭	-15950
섯	-15951
셈	-15952
셔	-15953
셰	-15954
셸	-15955
손	-15956
송	-15957
숫	-15958
쉬	-15959
슐	-15960
쓰	-15961
액	-15962
얘	-15963
억	-15964
엄	-15965
없	-15966
엠	-15967
엥	-15968
옐	-15969
옛	-15970
옹	-15971
완	-15972
왜	-15973
웰	-15974
웹	-15975
윗	-15976
으	-15977
읓	-15978
읔	-15979
읕	-15980
읖	-15981
익	-15982
잇	-15983
잠	-15984
잭	-15985
접	-15986
좌	-15987
준	-15988
줄	-15989
쥐	-15990
쯔	-15991
찬	-15992
채	-15993
척	-15994
첩	-15995
첸	-15996
첼	-15997
촉	-15998
촘	-15999
출	-16000
춤	-16001
충	-16002
취	-16003
층	-16004
칙	-16005
친	-16006
칠	-16007
칵	-16008
캣	-16009
컵	-16010
컷	-16011
켄	-16012
켓	-16013
콕	-16014
콧	-16015
콰	-16016
쾰	-16017
쿡	-16018
쿨	-16019
퀴	-16020
퀼	-16021
큰	-16022
탕	-16023
택	-16024
탤	-16025
탱	-16026
텀	-16027
텍	-16028
톤	-16029
톰	-16030
툴	-16031
툼	-16032
튼	-16033
틴	-16034
틸	-16035
팩	-16036
팰	-16037
팻	-16038
펌	-16039
펑	-16040
펠	-16041
폐	-16042
푼	-16043
풀	-16044
퓸	-16045
픽	-16046
핑	-16047
햇	-16048
헥	-16049
헴	-16050
혈	-16051
홈	-16052
홍	-16053
확	-16054
활	-16055
획	-16056
훔	-16057
휴	-16058
흄	-16059
희	-16060
힌	-16061
힘	-16062
힙	-16063
	-16064
	-16065
～	-16066
𐌴	-16067
𐌶	-16068
𐍆	-16069
𨧀	-16070
