{
    "<pad>": 0,
    "<unk>": 1,
    "<s>": 2,
    "SELECT": 3,
    "FROM": 4,
    "WHERE": 5,
    "JOIN": 6,
    "INSERT": 7,
    "UPDATE": 8,
    "DELETE": 9,
    "CREATE": 10,
    "TABLE": 11,
    "VALUES": 12,
    "GROUP": 13,
    "BY": 14,
    "ORDER": 15,
    "AND": 16,
    "OR": 17,
    "NOT": 18,
    "<>": 19,
    "<=": 20,
    ">=": 21,
    "!=": 22,
    "||": 23,
    "&&": 24,
    "::": 25,
    "->>": 26,
    "->": 27,
    ":=": 28,
    "(": 29,
    ")": 30,
    "[": 31,
    "]": 32,
    "{": 33,
    "}": 34,
    ";": 35,
    ".": 36,
    "*": 37,
    "%": 38,
    "+": 39,
    "-": 40,
    "/": 41,
    "=": 42,
    "<": 43,
    ">": 44,
    "A": 45,
    "C": 46,
    "G": 47,
    "T": 48,
    "N": 49,
    "0": 50,
    "1": 51,
    "2": 52,
    "3": 53,
    "4": 54,
    "5": 55,
    "6": 56,
    "7": 57,
    "8": 58,
    "9": 59,
    "10": 60,
    "11": 61,
    "12": 62,
    "13": 63,
    "14": 64,
    "15": 65,
    "16": 66,
    "17": 67,
    "18": 68,
    "19": 69,
    "20": 70,
    "21": 71,
    "22": 72,
    "23": 73,
    "24": 74,
    "25": 75,
    "26": 76,
    "27": 77,
    "28": 78,
    "29": 79,
    "30": 80,
    "31": 81,
    "32": 82,
    "33": 83,
    "34": 84,
    "35": 85,
    "36": 86,
    "37": 87,
    "38": 88,
    "39": 89,
    "40": 90,
    "41": 91,
    "42": 92,
    "43": 93,
    "44": 94,
    "45": 95,
    "46": 96,
    "47": 97,
    "48": 98,
    "49": 99,
    "50": 100,
    "51": 101,
    "52": 102,
    "53": 103,
    "54": 104,
    "55": 105,
    "56": 106,
    "57": 107,
    "58": 108,
    "59": 109,
    "60": 110,
    "61": 111,
    "62": 112,
    "63": 113,
    "64": 114,
    "65": 115,
    "66": 116,
    "67": 117,
    "68": 118,
    "69": 119,
    "70": 120,
    "71": 121,
    "72": 122,
    "73": 123,
    "74": 124,
    "75": 125,
    "76": 126,
    "77": 127,
    "78": 128,
    "79": 129,
    "80": 130,
    "81": 131,
    "82": 132,
    "83": 133,
    "84": 134,
    "85": 135,
    "86": 136,
    "87": 137,
    "88": 138,
    "89": 139,
    "90": 140,
    "91": 141,
    "92": 142,
    "93": 143,
    "94": 144,
    "95": 145,
    "96": 146,
    "97": 147,
    "98": 148,
    "99": 149,
    "100": 150,
    "101": 151,
    "102": 152,
    "103": 153,
    "104": 154,
    "105": 155,
    "106": 156,
    "107": 157,
    "108": 158,
    "109": 159,
    "110": 160,
    "111": 161,
    "112": 162,
    "113": 163,
    "114": 164,
    "115": 165,
    "116": 166,
    "117": 167,
    "118": 168,
    "119": 169,
    "120": 170,
    "121": 171,
    "122": 172,
    "123": 173,
    "124": 174,
    "125": 175,
    "126": 176,
    "127": 177,
    "128": 178,
    "129": 179,
    "130": 180,
    "131": 181,
    "132": 182,
    "133": 183,
    "134": 184,
    "135": 185,
    "136": 186,
    "137": 187,
    "138": 188,
    "139": 189,
    "140": 190,
    "141": 191,
    "142": 192,
    "143": 193,
    "144": 194,
    "145": 195,
    "146": 196,
    "147": 197,
    "148": 198,
    "149": 199,
    "150": 200,
    "151": 201,
    "152": 202,
    "153": 203,
    "154": 204,
    "155": 205,
    "156": 206,
    "157": 207,
    "158": 208,
    "159": 209,
    "160": 210,
    "161": 211,
    "162": 212,
    "163": 213,
    "164": 214,
    "165": 215,
    "166": 216,
    "167": 217,
    "168": 218,
    "169": 219,
    "170": 220,
    "171": 221,
    "172": 222,
    "173": 223,
    "174": 224,
    "175": 225,
    "176": 226,
    "177": 227,
    "178": 228,
    "179": 229,
    "180": 230,
    "181": 231,
    "182": 232,
    "183": 233,
    "184": 234,
    "185": 235,
    "186": 236,
    "187": 237,
    "188": 238,
    "189": 239,
    "190": 240,
    "191": 241,
    "192": 242,
    "193": 243,
    "194": 244,
    "195": 245,
    "196": 246,
    "197": 247,
    "198": 248,
    "199": 249,
    "200": 250,
    "201": 251,
    "202": 252,
    "203": 253,
    "204": 254,
    "205": 255,
    "206": 256,
    "207": 257,
    "208": 258,
    "209": 259,
    "210": 260,
    "211": 261,
    "212": 262,
    "213": 263,
    "214": 264,
    "215": 265,
    "216": 266,
    "217": 267,
    "218": 268,
    "219": 269,
    "220": 270,
    "221": 271,
    "222": 272,
    "223": 273,
    "224": 274,
    "225": 275,
    "226": 276,
    "227": 277,
    "228": 278,
    "229": 279,
    "230": 280,
    "231": 281,
    "232": 282,
    "233": 283,
    "234": 284,
    "235": 285,
    "236": 286,
    "237": 287,
    "238": 288,
    "239": 289,
    "240": 290,
    "241": 291,
    "242": 292,
    "243": 293,
    "244": 294,
    "245": 295,
    "246": 296,
    "247": 297,
    "248": 298,
    "249": 299,
    "250": 300,
    "251": 301,
    "252": 302,
    "253": 303,
    "254": 304,
    "255": 305,
    "<image>": 306,
    "<medical>": 307,
    "<tactile>": 308,
    "<speech>": 309,
    "<database>": 310,
    "<gene>": 311,
    "<text>": 312,
    "▁t": 313,
    "he": 314,
    "▁a": 315,
    "in": 316,
    "er": 317,
    "on": 318,
    "▁the": 319,
    "re": 320,
    "or": 321,
    "at": 322,
    "an": 323,
    "en": 324,
    "is": 325,
    "▁o": 326,
    "es": 327,
    "al": 328,
    "it": 329,
    "▁s": 330,
    "ed": 331,
    "▁of": 332,
    "ar": 333,
    "▁c": 334,
    "''": 335,
    "ic": 336,
    "▁w": 337,
    "nd": 338,
    "▁b": 339,
    "ion": 340,
    "▁in": 341,
    "▁f": 342,
    "▁p": 343,
    "ot": 344,
    "le": 345,
    "om": 346,
    "as": 347,
    "ing": 348,
    "▁and": 349,
    "▁m": 350,
    "ou": 351,
    "am": 352,
    "▁d": 353,
    "ent": 354,
    "▁to": 355,
    "qu": 356,
    "▁h": 357,
    "us": 358,
    "id": 359,
    "el": 360,
    "ol": 361,
    "il": 362,
    "ct": 363,
    "quot": 364,
    "ro": 365,
    "st": 366,
    "▁re": 367,
    "▁l": 368,
    "▁e": 369,
    "im": 370,
    "▁th": 371,
    "▁n": 372,
    "et": 373,
    "ut": 374,
    "ce": 375,
    "ig": 376,
    "lt": 377,
    "ation": 378,
    "ch": 379,
    "ly": 380,
    "▁is": 381,
    "▁S": 382,
    "iv": 383,
    "ag": 384,
    "ad": 385,
    "ur": 386,
    "▁''": 387,
    "ht": 388,
    "ist": 389,
    "▁I": 390,
    "ers": 391,
    "▁be": 392,
    "ir": 393,
    "▁g": 394,
    "ow": 395,
    "gt": 396,
    "▁for": 397,
    "▁B": 398,
    "ra": 399,
    "▁as": 400,
    "amp": 401,
    "▁on": 402,
    "em": 403,
    "ri": 404,
    "um": 405,
    "est": 406,
    "un": 407,
    "her": 408,
    "os": 409,
    "▁M": 410,
    "and": 411,
    "ver": 412,
    "ay": 413,
    "th": 414,
    "ith": 415,
    "ter": 416,
    "▁&": 417,
    "▁P": 418,
    "▁st": 419,
    "op": 420,
    "ate": 421,
    "▁H": 422,
    "▁al": 423,
    "od": 424,
    "▁con": 425,
    "▁by": 426,
    "▁was": 427,
    "▁that": 428,
    "ul": 429,
    "age": 430,
    "▁E": 431,
    "res": 432,
    "▁with": 433,
    "▁an": 434,
    "▁wh": 435,
    "ve": 436,
    "ww": 437,
    "▁D": 438,
    "▁F": 439,
    "ac": 440,
    "▁or": 441,
    "ab": 442,
    "if": 443,
    "ment": 444,
    "▁R": 445,
    "▁are": 446,
    "ain": 447,
    "ity": 448,
    "▁de": 449,
    "rom": 450,
    "'''": 451,
    "▁it": 452,
    "pe": 453,
    "ian": 454,
    "com": 455,
    "ies": 456,
    "▁v": 457,
    "oc": 458,
    "se": 459,
    "▁com": 460,
    "ia": 461,
    "ub": 462,
    "▁W": 463,
    "ame": 464,
    "▁pro": 465,
    "ory": 466,
    "og": 467,
    "art": 468,
    "all": 469,
    "▁ex": 470,
    "▁L": 471,
    "ant": 472,
    "ess": 473,
    "up": 474,
    "ical": 475,
    "ap": 476,
    "ew": 477,
    "ore": 478,
    "ld": 479,
    "ich": 480,
    "ort": 481,
    "con": 482,
    "ex": 483,
    "▁at": 484,
    "ill": 485,
    "▁from": 486,
    "▁r": 487,
    "ial": 488,
    "▁he": 489,
    "tp": 490,
    "ip": 491,
    "ive": 492,
    "ud": 493,
    "nt": 494,
    "ard": 495,
    "http": 496,
    "ang": 497,
    "ber": 498,
    "▁se": 499,
    "ish": 500,
    "▁us": 501,
    "ight": 502,
    "sp": 503,
    "ak": 504,
    "ell": 505,
    "ost": 506,
    "ine": 507,
    "ary": 508,
    "end": 509,
    "ure": 510,
    "ction": 511,
    "br": 512,
    "our": 513,
    "▁not": 514,
    "pt": 515,
    "ign": 516,
    "ast": 517,
    "▁which": 518,
    "▁his": 519,
    "so": 520,
    "ern": 521,
    "ord": 522,
    "▁O": 523,
    "ther": 524,
    "ated": 525,
    "pl": 526,
    "▁J": 527,
    "▁ch": 528,
    "rib": 529,
    "▁U": 530,
    "www": 531,
    "ge": 532,
    "ave": 533,
    "rou": 534,
    "ov": 535,
    "▁k": 536,
    "ext": 537,
    "ran": 538,
    "ph": 539,
    "cl": 540,
    "ust": 541,
    "▁In": 542,
    "av": 543,
    "rit": 544,
    "ff": 545,
    "ision": 546,
    "ous": 547,
    "ire": 548,
    "ry": 549,
    "ong": 550,
    "ear": 551,
    "uc": 552,
    "ect": 553,
    "iz": 554,
    "ace": 555,
    "ks": 556,
    "▁pl": 557,
    "ie": 558,
    "per": 559,
    "mer": 560,
    "ence": 561,
    "ome": 562,
    "ath": 563,
    "▁le": 564,
    "ere": 565,
    "ass": 566,
    "▁St": 567,
    "▁also": 568,
    "gh": 569,
    "rev": 570,
    "erm": 571,
    "ition": 572,
    "▁comp": 573,
    "ribut": 574,
    "▁have": 575,
    "▁y": 576,
    "itle": 577,
    "ations": 578,
    "ally": 579,
    "▁un": 580,
    "ik": 581,
    "▁K": 582,
    "▁sh": 583,
    "ult": 584,
    "▁has": 585,
    "ateg": 586,
    "▁|": 587,
    "tim": 588,
    "act": 589,
    "▁were": 590,
    "land": 591,
    "ng": 592,
    "▁ar": 593,
    "ide": 594,
    "▁cont": 595,
    "fer": 596,
    "any": 597,
    "are": 598,
    "ism": 599,
    "ue": 600,
    "▁this": 601,
    "ib": 602,
    "uch": 603,
    "cont": 604,
    "▁int": 605,
    "text": 606,
    "ategory": 607,
    "orm": 608,
    "ates": 609,
    "ml": 610,
    "▁other": 611,
    "ric": 612,
    "ep": 613,
    "ok": 614,
    "title": 615,
    "page": 616,
    "▁cl": 617,
    "▁but": 618,
    "ack": 619,
    "▁ab": 620,
    "ree": 621,
    "ount": 622,
    "olog": 623,
    "ics": 624,
    "In": 625,
    "hen": 626,
    "▁can": 627,
    "▁all": 628,
    "ributor": 629,
    "und": 630,
    "ft": 631,
    "cc": 632,
    "ug": 633,
    "pres": 634,
    "tern": 635,
    "out": 636,
    "ould": 637,
    "▁ad": 638,
    "estamp": 639,
    "revision": 640,
    "timestamp": 641,
    "contributor": 642,
    "ens": 643,
    "▁its": 644,
    "able": 645,
    "port": 646,
    "over": 647,
    "▁part": 648,
    "▁one": 649,
    "▁im": 650,
    "▁wor": 651,
    "ite": 652,
    "▁their": 653,
    "oll": 654,
    "ely": 655,
    "irst": 656,
    "own": 657,
    "'',": 658,
    "here": 659,
    "ited": 660,
    "les": 661,
    "ach": 662,
    "ind": 663,
    "▁ap": 664,
    "ime": 665,
    "▁'''": 666,
    "ile": 667,
    "▁dis": 668,
    "ound": 669,
    "ater": 670,
    "ational": 671,
    "ces": 672,
    "int": 673,
    "▁V": 674,
    "ice": 675,
    "ash": 676,
    "ubl": 677,
    "▁had": 678,
    "▁sy": 679,
    "angu": 680,
    "▁en": 681,
    "▁Un": 682,
    "ec": 683,
    "ob": 684,
    "ase": 685,
    "comment": 686,
    "ions": 687,
    "meric": 688,
    "aw": 689,
    "ee": 690,
    "ru": 691,
    "ose": 692,
    "wo": 693,
    "▁been": 694,
    "▁first": 695,
    "ron": 696,
    "▁more": 697,
    "ance": 698,
    "we": 699,
    "ever": 700,
    "vel": 701,
    "ci": 702,
    "ans": 703,
    "ors": 704,
    "ername": 705,
    "username": 706,
    "▁who": 707,
    "ne": 708,
    "his": 709,
    "red": 710,
    "cent": 711,
    "▁most": 712,
    "clud": 713,
    "org": 714,
    "▁res": 715,
    "▁year": 716,
    "lect": 717,
    "hed": 718,
    "▁ev": 719,
    "one": 720,
    "▁langu": 721,
    "▁used": 722,
    "fter": 723,
    "▁pr": 724,
    "▁comm": 725,
    "ents": 726,
    "ual": 727,
    "▁It": 728,
    "ular": 729,
    "ict": 730,
    "▁per": 731,
    "ivers": 732,
    "▁such": 733,
    "▁form": 734,
    "erv": 735,
    "stem": 736,
    "ener": 737,
    "▁some": 738,
    "▁des": 739,
    "▁they": 740,
    "rad": 741,
    "de": 742,
    "▁cons": 743,
    "form": 744,
    "reat": 745,
    "▁me": 746,
    "umb": 747,
    "▁sp": 748,
    "ren": 749,
    "▁rel": 750,
    "▁j": 751,
    "ough": 752,
    "ram": 753,
    "ark": 754,
    "ons": 755,
    "pec": 756,
    "aus": 757,
    "▁ag": 758,
    "eg": 759,
    "ten": 760,
    "ail": 761,
    "old": 762,
    "ood": 763,
    "▁into": 764,
    "▁includ": 765,
    "ys": 766,
    "▁te": 767,
    "du": 768,
    "ings": 769,
    "pro": 770,
    "ress": 771,
    "hr": 772,
    "io": 773,
    "ied": 774,
    "▁two": 775,
    "ond": 776,
    "Im": 777,
    "▁than": 778,
    "td": 779,
    "te": 780,
    "▁cent": 781,
    "▁many": 782,
    "▁so": 783,
    "▁over": 784,
    "▁He": 785,
    "math": 786,
    "cess": 787,
    "erve": 788,
    "ious": 789,
    "wn": 790,
    "ology": 791,
    "Un": 792,
    "merican": 793,
    "▁out": 794,
    "▁ind": 795,
    "▁kn": 796,
    "▁only": 797,
    "ific": 798,
    "▁und": 799,
    "▁x": 800,
    "▁play": 801,
    "▁bet": 802,
    "ative": 803,
    "▁up": 804,
    "▁system": 805,
    "ox": 806,
    "ss": 807,
    "ook": 808,
    "oh": 809,
    "▁pe": 810,
    "oth": 811,
    "ject": 812,
    "min": 813,
    "▁do": 814,
    "iss": 815,
    "▁language": 816,
    "▁time": 817,
    "cy": 818,
    "uring": 819,
    "▁there": 820,
    "▁bec": 821,
    "ople": 822,
    "ert": 823,
    "ral": 824,
    "fl": 825,
    "▁act": 826,
    "uro": 827,
    "arch": 828,
    "html": 829,
    "istory": 830,
    "hem": 831,
    "ah": 832,
    "ublic": 833,
    "▁would": 834,
    "Image": 835,
    "ann": 836,
    "right": 837,
    "iet": 838,
    "li": 839,
    "▁col": 840,
    "ities": 841,
    "ade": 842,
    "▁att": 843,
    "space": 844,
    "▁Y": 845,
    "▁may": 846,
    "▁we": 847,
    "oy": 848,
    "▁reg": 849,
    "ower": 850,
    "▁sub": 851,
    "arg": 852,
    "lish": 853,
    "ote": 854,
    "ars": 855,
    "overn": 856,
    "ident": 857,
    "orn": 858,
    "sup": 859,
    "▁after": 860,
    "ll": 861,
    "ution": 862,
    "ild": 863,
    "pos": 864,
    "round": 865,
    "igh": 866,
    "ween": 867,
    "ists": 868,
    "▁under": 869,
    "the": 870,
    "▁dif": 871,
    "owever": 872,
    "preserve": 873,
    "▁xml": 874,
    "very": 875,
    "▁inter": 876,
    "sub": 877,
    "▁when": 878,
    "▁call": 879,
    "ake": 880,
    "▁them": 881,
    "ilm": 882,
    "ke": 883,
    "als": 884,
    "raph": 885,
    "▁Eng": 886,
    "mall": 887,
    "ually": 888,
    "ased": 889,
    "tic": 890,
    "▁use": 891,
    "▁mod": 892,
    "ury": 893,
    "▁between": 894,
    "ple": 895,
    "ines": 896,
    "▁new": 897,
    "rans": 898,
    "▁sc": 899,
    "▁sup": 900,
    "other": 901,
    "▁num": 902,
    "▁ac": 903,
    "ays": 904,
    "oint": 905,
    "ered": 906,
    "▁acc": 907,
    "ince": 908,
    "roup": 909,
    "ix": 910,
    "ages": 911,
    "▁ro": 912,
    "▁States": 913,
    "nb": 914,
    "cept": 915,
    "▁ear": 916,
    "▁am": 917,
    "hip": 918,
    "▁off": 919,
    "ible": 920,
    "▁qu": 921,
    "▁count": 922,
    "▁about": 923,
    "att": 924,
    "▁pop": 925,
    "▁def": 926,
    "ont": 927,
    "gan": 928,
    "▁rec": 929,
    "ick": 930,
    "ev": 931,
    "▁pos": 932,
    "px": 933,
    "▁ph": 934,
    "ames": 935,
    "ale": 936,
    "nbsp": 937,
    "ced": 938,
    "ork": 939,
    "uss": 940,
    "▁years": 941,
    "rough": 942,
    "ts": 943,
    "▁these": 944,
    "urn": 945,
    "▁no": 946,
    "ins": 947,
    "ward": 948,
    "hes": 949,
    "▁pol": 950,
    "hrist": 951,
    "▁gener": 952,
    "ike": 953,
    "ating": 954,
    "▁any": 955,
    "ily": 956,
    "St": 957,
    "ures": 958,
    "pr": 959,
    "▁work": 960,
    "az": 961,
    "▁ra": 962,
    "▁fl": 963,
    "ock": 964,
    "▁rem": 965,
    "omm": 966,
    "inal": 967,
    "iel": 968,
    "▁Is": 969,
    "urope": 970,
    "fore": 971,
    "ise": 972,
    "man": 973,
    "▁him": 974,
    "ause": 975,
    "oun": 976,
    "▁ass": 977,
    "aj": 978,
    "▁ob": 979,
    "▁people": 980,
    "velop": 981,
    "ature": 982,
    "cre": 983,
    "▁will": 984,
    "uth": 985,
    "thumb": 986,
    "ife": 987,
    "▁inv": 988,
    "ton": 989,
    "elf": 990,
    "ted": 991,
    "eth": 992,
    "duc": 993,
    "ax": 994,
    "▁known": 995,
    "▁called": 996,
    "▁bel": 997,
    "overnment": 998,
    "ically": 999,
    "its": 1000,
    "irect": 1001,
    "▁writ": 1002,
    "put": 1003,
    "outh": 1004,
    "col": 1005,
    "ode": 1006,
    "imes": 1007,
    "▁op": 1008,
    "▁set": 1009,
    "▁number": 1010,
    "jp": 1011,
    "▁pres": 1012,
    "ract": 1013,
    "iversity": 1014,
    "▁where": 1015,
    "▁spec": 1016,
    "ement": 1017,
    "▁through": 1018,
    "▁em": 1019,
    "▁inst": 1020,
    "orld": 1021,
    "ollow": 1022,
    "▁sim": 1023,
    "der": 1024,
    "▁co": 1025,
    "▁often": 1026,
    "ble": 1027,
    "▁differ": 1028,
    "iew": 1029,
    "ium": 1030,
    "row": 1031,
    "▁term": 1032,
    "erman": 1033,
    "▁,": 1034,
    "jpg": 1035,
    "▁var": 1036,
    "usic": 1037,
    "ather": 1038,
    "▁lin": 1039,
    "air": 1040,
    "ember": 1041,
    "ished": 1042,
    "▁name": 1043,
    "har": 1044,
    "ohn": 1045,
    "▁pre": 1046,
    "co": 1047,
    "center": 1048,
    "ctions": 1049,
    "ograph": 1050,
    "▁man": 1051,
    "oot": 1052,
    "▁prov": 1053,
    "▁char": 1054,
    "yp": 1055,
    "▁bl": 1056,
    "ural": 1057,
    "yle": 1058,
    "▁fe": 1059,
    "▁add": 1060,
    "ier": 1061,
    "orth": 1062,
    "▁ext": 1063,
    "gram": 1064,
    "▁being": 1065,
    "emb": 1066,
    "ritish": 1067,
    "▁'": 1068,
    "pect": 1069,
    "▁found": 1070,
    "ians": 1071,
    "▁ent": 1072,
    "▁dist": 1073,
    "conom": 1074,
    "▁group": 1075,
    "▁examp": 1076,
    "ina": 1077,
    "▁end": 1078,
    "▁develop": 1079,
    "▁well": 1080,
    "els": 1081,
    "chn": 1082,
    "United": 1083,
    "inn": 1084,
    "lement": 1085,
    "ful": 1086,
    "oman": 1087,
    "▁For": 1088,
    "erson": 1089,
    "ove": 1090,
    "ized": 1091,
    "▁again": 1092,
    "▁made": 1093,
    "uk": 1094,
    "ange": 1095,
    "RE": 1096,
    "vers": 1097,
    "▁then": 1098,
    "▁De": 1099,
    "ues": 1100,
    "▁follow": 1101,
    "▁trans": 1102,
    "ulation": 1103,
    "▁film": 1104,
    "▁mov": 1105,
    "▁world": 1106,
    "cond": 1107,
    "▁eff": 1108,
    "ternal": 1109,
    "ball": 1110,
    "omet": 1111,
    "▁est": 1112,
    "ives": 1113,
    "ool": 1114,
    "▁during": 1115,
    "▁II": 1116,
    "▁orig": 1117,
    "▁ed": 1118,
    "▁main": 1119,
    "ined": 1120,
    "atic": 1121,
    "ility": 1122,
    "ield": 1123,
    "ty": 1124,
    "▁\\": 1125,
    "▁century": 1126,
    "▁trad": 1127,
    "▁Ind": 1128,
    "▁both": 1129,
    "ially": 1130,
    "ndash": 1131,
    "▁her": 1132,
    "▁tra": 1133,
    "urch": 1134,
    "align": 1135,
    "▁fam": 1136,
    "oo": 1137,
    "▁align": 1138,
    "fr": 1139,
    "ences": 1140,
    "▁War": 1141,
    "▁consid": 1142,
    "▁ser": 1143,
    "ajor": 1144,
    "▁if": 1145,
    "lex": 1146,
    "ck": 1147,
    "▁same": 1148,
    "yn": 1149,
    "htm": 1150,
    "ouse": 1151,
    "ital": 1152,
    "▁government": 1153,
    "rop": 1154,
    "led": 1155,
    "hough": 1156,
    "▁str": 1157,
    "▁produ": 1158,
    "▁\"": 1159,
    "rench": 1160,
    "stit": 1161,
    "▁example": 1162,
    "▁sign": 1163,
    "cient": 1164,
    "gy": 1165,
    "bert": 1166,
    "▁ne": 1167,
    "▁partic": 1168,
    "irc": 1169,
    "uman": 1170,
    "▁cap": 1171,
    "way": 1172,
    "▁common": 1173,
    "tt": 1174,
    "▁high": 1175,
    "▁sur": 1176,
    "▁charact": 1177,
    "▁English": 1178,
    "itt": 1179,
    "hy": 1180,
    "edia": 1181,
    "tr": 1182,
    "ternational": 1183,
    "▁sever": 1184,
    "▁cre": 1185,
    "▁refer": 1186,
    "Ex": 1187,
    "ved": 1188,
    "▁long": 1189,
    "▁word": 1190,
    "▁disc": 1191,
    "dom": 1192,
    "▁United": 1193,
    "▁class": 1194,
    "au": 1195,
    "ene": 1196,
    "▁alt": 1197,
    ":''": 1198,
    "▁own": 1199,
    "ley": 1200,
    "▁stud": 1201,
    "▁later": 1202,
    "ruct": 1203,
    "ries": 1204,
    "eb": 1205,
    "ional": 1206,
    "ole": 1207,
    "sc": 1208,
    "▁became": 1209,
    "par": 1210,
    "▁state": 1211,
    "List": 1212,
    "▁serv": 1213,
    "olution": 1214,
    "▁links": 1215,
    "enn": 1216,
    "▁ret": 1217,
    "▁lead": 1218,
    "▁different": 1219,
    "▁loc": 1220,
    "▁Europe": 1221,
    "▁while": 1222,
    "▁cur": 1223,
    "arge": 1224,
    "▁point": 1225,
    "▁result": 1226,
    "▁car": 1227,
    "ius": 1228,
    "iqu": 1229,
    "▁occ": 1230,
    "▁three": 1231,
    "ilit": 1232,
    "yl": 1233,
    "arm": 1234,
    "ived": 1235,
    "IP": 1236,
    "▁elect": 1237,
    "ization": 1238,
    "▁each": 1239,
    "ants": 1240,
    "▁appe": 1241,
    "▁style": 1242,
    "▁mon": 1243,
    "ains": 1244,
    "ank": 1245,
    "net": 1246,
    "▁even": 1247,
    "▁program": 1248,
    "▁contin": 1249,
    "ey": 1250,
    "▁including": 1251,
    "ght": 1252,
    "ament": 1253,
    "▁very": 1254,
    "istor": 1255,
    "▁because": 1256,
    "press": 1257,
    "▁Fran": 1258,
    "▁equ": 1259,
    "inc": 1260,
    "▁law": 1261,
    "▁King": 1262,
    "uccess": 1263,
    "▁early": 1264,
    "▁before": 1265,
    "▁contr": 1266,
    "▁bu": 1267,
    "lands": 1268,
    "▁you": 1269,
    "uthor": 1270,
    "▁Sp": 1271,
    "▁could": 1272,
    "aim": 1273,
    "▁small": 1274,
    "▁However": 1275,
    "▁power": 1276,
    "md": 1277,
    "ull": 1278,
    "▁major": 1279,
    "▁much": 1280,
    "ize": 1281,
    "ink": 1282,
    "iam": 1283,
    "ason": 1284,
    "▁desc": 1285,
    "▁music": 1286,
    "iver": 1287,
    "ator": 1288,
    "left": 1289,
    "sh": 1290,
    "ript": 1291,
    "nl": 1292,
    "rent": 1293,
    "▁see": 1294,
    "▁becom": 1295,
    "of": 1296,
    "por": 1297,
    "▁Pro": 1298,
    "aking": 1299,
    "vent": 1300,
    "▁det": 1301,
    "ata": 1302,
    "▁min": 1303,
    "▁design": 1304,
    "▁polit": 1305,
    "ews": 1306,
    "ross": 1307,
    "iod": 1308,
    "▁belie": 1309,
    "ained": 1310,
    "son": 1311,
    "▁University": 1312,
    "▁several": 1313,
    "ense": 1314,
    "formation": 1315,
    "▁against": 1316,
    "my": 1317,
    "▁dr": 1318,
    "▁dec": 1319,
    "ms": 1320,
    "▁right": 1321,
    "gen": 1322,
    "▁Ex": 1323,
    "▁import": 1324,
    "uary": 1325,
    "▁Se": 1326,
    "ref": 1327,
    "ivid": 1328,
    "▁vers": 1329,
    "▁poss": 1330,
    "▁those": 1331,
    "▁Em": 1332,
    "▁Pr": 1333,
    "▁British": 1334,
    "▁Z": 1335,
    "mdash": 1336,
    "▁larg": 1337,
    "chool": 1338,
    "ows": 1339,
    "▁fact": 1340,
    "▁Or": 1341,
    "▁sing": 1342,
    ":'''": 1343,
    "▁since": 1344,
    "ane": 1345,
    "▁sl": 1346,
    "▁oper": 1347,
    "▁back": 1348,
    "leg": 1349,
    "minor": 1350,
    "▁requ": 1351,
    "▁large": 1352,
    "ae": 1353,
    "▁city": 1354,
    "De": 1355,
    "ired": 1356,
    "▁like": 1357,
    "ja": 1358,
    "▁fun": 1359,
    "bl": 1360,
    "▁war": 1361,
    "cience": 1362,
    "▁artic": 1363,
    "ared": 1364,
    "ases": 1365,
    "anad": 1366,
    "iter": 1367,
    "▁support": 1368,
    "ware": 1369,
    "Fran": 1370,
    "ively": 1371,
    "▁game": 1372,
    "▁direct": 1373,
    "isc": 1374,
    "▁val": 1375,
    "▁now": 1376,
    "oci": 1377,
    "hristian": 1378,
    "lev": 1379,
    "▁stand": 1380,
    "ott": 1381,
    "▁second": 1382,
    "▁death": 1383,
    "▁mat": 1384,
    "▁leg": 1385,
    "ories": 1386,
    "rem": 1387,
    "See": 1388,
    "▁spe": 1389,
    "aid": 1390,
    "ets": 1391,
    "af": 1392,
    "ster": 1393,
    "iving": 1394,
    "▁last": 1395,
    "duced": 1396,
    "ness": 1397,
    "▁person": 1398,
    "▁life": 1399,
    "omin": 1400,
    "iven": 1401,
    "til": 1402,
    "apan": 1403,
    "sy": 1404,
    "▁effect": 1405,
    "ird": 1406,
    "''&": 1407,
    "ography": 1408,
    "▁Re": 1409,
    "▁Wh": 1410,
    "icial": 1411,
    "▁comput": 1412,
    "SB": 1413,
    "▁Le": 1414,
    "rew": 1415,
    "be": 1416,
    "itions": 1417,
    "▁still": 1418,
    "▁organ": 1419,
    "▁econom": 1420,
    "ilitary": 1421,
    "bs": 1422,
    "ices": 1423,
    "fric": 1424,
    "med": 1425,
    "▁Sh": 1426,
    "▁process": 1427,
    "▁popular": 1428,
    "let": 1429,
    "ze": 1430,
    "iety": 1431,
    "▁what": 1432,
    "ai": 1433,
    "▁series": 1434,
    "ony": 1435,
    "John": 1436,
    "▁wid": 1437,
    "It": 1438,
    "ilar": 1439,
    "▁met": 1440,
    "▁soc": 1441,
    "iction": 1442,
    "ustral": 1443,
    "ument": 1444,
    "ilos": 1445,
    "ised": 1446,
    "▁character": 1447,
    "▁cor": 1448,
    "▁br": 1449,
    "ung": 1450,
    "ified": 1451,
    "embers": 1452,
    "anc": 1453,
    "DI": 1454,
    "▁techn": 1455,
    "mb": 1456,
    "Ind": 1457,
    "pre": 1458,
    "ves": 1459,
    "▁commun": 1460,
    "▁success": 1461,
    "▁cult": 1462,
    "by": 1463,
    "hey": 1464,
    "▁until": 1465,
    "sk": 1466,
    "▁record": 1467,
    "▁av": 1468,
    "▁incre": 1469,
    "alk": 1470,
    "▁did": 1471,
    "ient": 1472,
    "ilosop": 1473,
    "▁Rep": 1474,
    "▁public": 1475,
    "eng": 1476,
    "▁ref": 1477,
    "▁include": 1478,
    "plic": 1479,
    "ute": 1480,
    "small": 1481,
    "▁tr": 1482,
    "▁author": 1483,
    "ably": 1484,
    "▁she": 1485,
    "ese": 1486,
    "ried": 1487,
    "▁Sc": 1488,
    "▁however": 1489,
    "line": 1490,
    "flu": 1491,
    "▁publ": 1492,
    "ody": 1493,
    "illion": 1494,
    "▁appro": 1495,
    "day": 1496,
    "▁great": 1497,
    "raft": 1498,
    "▁country": 1499,
    "▁cell": 1500,
    "ped": 1501,
    "uit": 1502,
    "reek": 1503,
    "lection": 1504,
    "ca": 1505,
    "▁modern": 1506,
    "▁four": 1507,
    "▁using": 1508,
    "olic": 1509,
    "ivil": 1510,
    "▁hand": 1511,
    "▁eng": 1512,
    "hese": 1513,
    "epend": 1514,
    "▁usually": 1515,
    "▁theory": 1516,
    "amb": 1517,
    "▁history": 1518,
    "▁fre": 1519,
    "une": 1520,
    "▁book": 1521,
    "oss": 1522,
    "ister": 1523,
    "▁land": 1524,
    "ooks": 1525,
    "ald": 1526,
    "ments": 1527,
    "▁go": 1528,
    "ological": 1529,
    "attle": 1530,
    "▁claim": 1531,
    "ately": 1532,
    "amed": 1533,
    "ats": 1534,
    "▁view": 1535,
    "ugust": 1536,
    "▁World": 1537,
    "oly": 1538,
    "lear": 1539,
    "ission": 1540,
    "uff": 1541,
    "sv": 1542,
    "ued": 1543,
    "▁period": 1544,
    "Eng": 1545,
    "▁York": 1546,
    "ration": 1547,
    "▁non": 1548,
    "ality": 1549,
    "da": 1550,
    "▁order": 1551,
    "▁particular": 1552,
    "Re": 1553,
    "▁team": 1554,
    "idd": 1555,
    "▁mark": 1556,
    "ham": 1557,
    "▁based": 1558,
    "alth": 1559,
    "▁Bl": 1560,
    "ven": 1561,
    "▁dep": 1562,
    "▁run": 1563,
    "estern": 1564,
    "no": 1565,
    "▁pass": 1566,
    "Pr": 1567,
    "ugg": 1568,
    "road": 1569,
    "▁around": 1570,
    "▁es": 1571,
    "ting": 1572,
    "▁art": 1573,
    "▁Q": 1574,
    "▁does": 1575,
    "not": 1576,
    "iber": 1577,
    "▁considered": 1578,
    "to": 1579,
    "arty": 1580,
    "color": 1581,
    "▁par": 1582,
    "ards": 1583,
    "ertain": 1584,
    "ometimes": 1585,
    "▁area": 1586,
    "ule": 1587,
    "ought": 1588,
    "ris": 1589,
    "▁important": 1590,
    "lin": 1591,
    "▁French": 1592,
    "▁near": 1593,
    "▁Ph": 1594,
    "reen": 1595,
    "less": 1596,
    "arb": 1597,
    "itional": 1598,
    "ermany": 1599,
    "ma": 1600,
    "▁stat": 1601,
    "order": 1602,
    "for": 1603,
    "▁repres": 1604,
    "stant": 1605,
    "ource": 1606,
    "ended": 1607,
    "akes": 1608,
    "eder": 1609,
    "▁way": 1610,
    "▁typ": 1611,
    "ootball": 1612,
    "▁prev": 1613,
    "▁within": 1614,
    "hurch": 1615,
    "sl": 1616,
    "▁expl": 1617,
    "▁human": 1618,
    "▁exist": 1619,
    "▁dem": 1620,
    "▁Mar": 1621,
    ",&": 1622,
    "empt": 1623,
    "aster": 1624,
    "work": 1625,
    "read": 1626,
    "▁among": 1627,
    "ner": 1628,
    "▁title": 1629,
    "ides": 1630,
    "▁exper": 1631,
    "▁ISB": 1632,
    "▁similar": 1633,
    "▁rest": 1634,
    "apt": 1635,
    "▁adv": 1636,
    "▁should": 1637,
    "edu": 1638,
    "ither": 1639,
    "omen": 1640,
    "▁members": 1641,
    "ague": 1642,
    "▁start": 1643,
    "istic": 1644,
    "▁every": 1645,
    "▁text": 1646,
    "pire": 1647,
    "ling": 1648,
    "ently": 1649,
    "aced": 1650,
    "eor": 1651,
    "▁fin": 1652,
    "▁influ": 1653,
    "aving": 1654,
    "▁another": 1655,
    "▁general": 1656,
    "ether": 1657,
    "▁current": 1658,
    "▁less": 1659,
    "comm": 1660,
    "▁ide": 1661,
    "ply": 1662,
    "▁allow": 1663,
    "▁article": 1664,
    "▁rele": 1665,
    "rab": 1666,
    "▁exp": 1667,
    "ering": 1668,
    "▁make": 1669,
    "uck": 1670,
    "urg": 1671,
    "▁pract": 1672,
    "▁po": 1673,
    "reg": 1674,
    "oon": 1675,
    "▁ins": 1676,
    "olit": 1677,
    "▁mean": 1678,
    "▁old": 1679,
    "ales": 1680,
    "avid": 1681,
    "ording": 1682,
    "la": 1683,
    "▁show": 1684,
    "▁languages": 1685,
    "▁population": 1686,
    "off": 1687,
    "▁describ": 1688,
    "▁proble": 1689,
    "▁On": 1690,
    "▁Br": 1691,
    "▁given": 1692,
    "Se": 1693,
    "▁place": 1694,
    "ery": 1695,
    "▁top": 1696,
    "resident": 1697,
    "aul": 1698,
    "▁line": 1699,
    "▁countries": 1700,
    "lege": 1701,
    "ica": 1702,
    "▁due": 1703,
    "▁few": 1704,
    "rown": 1705,
    "▁crit": 1706,
    "illiam": 1707,
    "▁political": 1708,
    "ival": 1709,
    "ency": 1710,
    "aly": 1711,
    "arn": 1712,
    "ethod": 1713,
    "cil": 1714,
    "ones": 1715,
    "use": 1716,
    "atural": 1717,
    "▁cour": 1718,
    "ior": 1719,
    "▁bas": 1720,
    "▁without": 1721,
    "▁following": 1722,
    "External": 1723,
    "ring": 1724,
    "ead": 1725,
    "▁arg": 1726,
    "omp": 1727,
    "ots": 1728,
    "▁relig": 1729,
    "arth": 1730,
    "▁player": 1731,
    "▁short": 1732,
    "Sp": 1733,
    "wh": 1734,
    "▁child": 1735,
    "posed": 1736,
    "▁med": 1737,
    "▁just": 1738,
    "ope": 1739,
    "▁down": 1740,
    "▁perform": 1741,
    "▁rev": 1742,
    "▁become": 1743,
    "▁Be": 1744,
    "▁mar": 1745,
    "▁must": 1746,
    "History": 1747,
    "omb": 1748,
    "ming": 1749,
    "merica": 1750,
    ":&": 1751,
    "eneral": 1752,
    "▁inf": 1753,
    "irth": 1754,
    "▁estab": 1755,
    "▁left": 1756,
    "▁US": 1757,
    "iron": 1758,
    "ps": 1759,
    "▁day": 1760,
    "▁field": 1761,
    "▁origin": 1762,
    "ustri": 1763,
    "▁case": 1764,
    "rael": 1765,
    "ander": 1766,
    "▁element": 1767,
    "ka": 1768,
    "▁beg": 1769,
    "▁need": 1770,
    "rain": 1771,
    "eorge": 1772,
    "gl": 1773,
    "urther": 1774,
    "▁sol": 1775,
    "zh": 1776,
    "urs": 1777,
    "che": 1778,
    "▁sometimes": 1779,
    "▁represent": 1780,
    "oe": 1781,
    "ari": 1782,
    "▁present": 1783,
    "▁national": 1784,
    "dd": 1785,
    "▁head": 1786,
    "idge": 1787,
    "ana": 1788,
    "eter": 1789,
    "most": 1790,
    "DIRE": 1791,
    "Bl": 1792,
    "ided": 1793,
    "▁various": 1794,
    "ividual": 1795,
    "▁control": 1796,
    "anish": 1797,
    "REDIRE": 1798,
    "▁er": 1799,
    "ways": 1800,
    "ray": 1801,
    "▁information": 1802,
    "self": 1803,
    "ination": 1804,
    "▁Kingdom": 1805,
    "cem": 1806,
    "▁read": 1807,
    "iki": 1808,
    "ches": 1809,
    "▁pat": 1810,
    "▁although": 1811,
    "hat": 1812,
    "ftware": 1813,
    "ondon": 1814,
    "ourn": 1815,
    "▁el": 1816,
    "▁iss": 1817,
    "▁air": 1818,
    "arian": 1819,
    "''',": 1820,
    "▁resp": 1821,
    "▁began": 1822,
    "span": 1823,
    "▁rul": 1824,
    "▁though": 1825,
    "▁gl": 1826,
    "▁Some": 1827,
    "▁histor": 1828,
    "▁rece": 1829,
    "▁version": 1830,
    "arl": 1831,
    "alt": 1832,
    "ler": 1833,
    "▁chang": 1834,
    "▁John": 1835,
    "iles": 1836,
    "▁Pl": 1837,
    "app": 1838,
    "now": 1839,
    "see": 1840,
    "puter": 1841,
    "ison": 1842,
    "rand": 1843,
    "▁phys": 1844,
    "▁proper": 1845,
    "ctor": 1846,
    "ino": 1847,
    "▁my": 1848,
    "▁Republic": 1849,
    "cul": 1850,
    "▁prot": 1851,
    "ground": 1852,
    "Ph": 1853,
    "▁rad": 1854,
    "▁England": 1855,
    "▁school": 1856,
    "stitution": 1857,
    "▁level": 1858,
    "ford": 1859,
    "▁real": 1860,
    "▁original": 1861,
    "▁water": 1862,
    "▁hel": 1863,
    "II": 1864,
    "▁written": 1865,
    "otal": 1866,
    "ype": 1867,
    "▁attempt": 1868,
    "▁relations": 1869,
    "▁others": 1870,
    "▁X": 1871,
    "ification": 1872,
    "▁generally": 1873,
    "▁tem": 1874,
    "▁comb": 1875,
    "osp": 1876,
    "▁prom": 1877,
    "▁systems": 1878,
    "ogn": 1879,
    "fi": 1880,
    "ention": 1881,
    "▁conf": 1882,
    "ocr": 1883,
    "top": 1884,
    "▁sk": 1885,
    "ances": 1886,
    "ential": 1887,
    "▁Union": 1888,
    "aps": 1889,
    "rict": 1890,
    "▁gen": 1891,
    "▁home": 1892,
    "▁ter": 1893,
    "ouncil": 1894,
    "'''&": 1895,
    "▁His": 1896,
    "▁invol": 1897,
    "▁open": 1898,
    "▁single": 1899,
    "▁struct": 1900,
    "▁million": 1901,
    "▁ant": 1902,
    "idence": 1903,
    "▁aff": 1904,
    "▁cr": 1905,
    "He": 1906,
    "▁led": 1907,
    "US": 1908,
    "harles": 1909,
    "▁fore": 1910,
    "wards": 1911,
    "▁return": 1912,
    "▁object": 1913,
    "itive": 1914,
    "ique": 1915,
    "▁function": 1916,
    "iness": 1917,
    "met": 1918,
    "ports": 1919,
    "cember": 1920,
    "aut": 1921,
    "▁times": 1922,
    "back": 1923,
    "▁individual": 1924,
    "Sh": 1925,
    "Europe": 1926,
    "hemat": 1927,
    "ends": 1928,
    "▁family": 1929,
    "▁military": 1930,
    "▁list": 1931,
    "▁method": 1932,
    "▁Par": 1933,
    "tl": 1934,
    "▁circ": 1935,
    "oard": 1936,
    "ources": 1937,
    "ret": 1938,
    "ability": 1939,
    "▁dev": 1940,
    "▁Man": 1941,
    "▁port": 1942,
    "mar": 1943,
    "▁Roman": 1944,
    "alf": 1945,
    "▁Party": 1946,
    "atter": 1947,
    "ruction": 1948,
    "yd": 1949,
    "▁lim": 1950,
    "peror": 1951,
    "▁rather": 1952,
    "▁ident": 1953,
    "▁groups": 1954,
    "ites": 1955,
    "anada": 1956,
    "▁states": 1957,
    "imate": 1958,
    "▁gu": 1959,
    "▁Min": 1960,
    "aterial": 1961,
    "aining": 1962,
    "▁light": 1963,
    "ta": 1964,
    "astern": 1965,
    "rel": 1966,
    "▁space": 1967,
    "▁certain": 1968,
    "gcolor": 1969,
    "▁ann": 1970,
    "▁der": 1971,
    "▁event": 1972,
    "▁prof": 1973,
    "▁body": 1974,
    "▁either": 1975,
    "▁good": 1976,
    "▁turn": 1977,
    "aken": 1978,
    "bit": 1979,
    "▁means": 1980,
    "▁prim": 1981,
    "mon": 1982,
    "▁intro": 1983,
    "▁Ed": 1984,
    "Is": 1985,
    "▁product": 1986,
    "na": 1987,
    "atin": 1988,
    "ilt": 1989,
    "▁vol": 1990,
    "▁Russ": 1991,
    "▁Japan": 1992,
    "▁compos": 1993,
    "inese": 1994,
    "▁computer": 1995,
    "▁along": 1996,
    "▁said": 1997,
    "ured": 1998,
    "▁caus": 1999,
    "levision": 2000,
    "ger": 2001,
    "ommun": 2002,
    "side": 2003,
    "▁development": 2004,
    "pecially": 2005,
    "avy": 2006,
    "ored": 2007,
    "stand": 2008,
    "▁En": 2009,
    "hic": 2010,
    "▁cal": 2011,
    "▁independ": 2012,
    "sport": 2013,
    "acy": 2014,
    "▁philosop": 2015,
    "ebr": 2016,
    "incip": 2017,
    "▁possible": 2018,
    "▁hig": 2019,
    "▁Sy": 2020,
    "inter": 2021,
    "▁const": 2022,
    "lo": 2023,
    "▁beh": 2024,
    "add": 2025,
    "ude": 2026,
    "▁published": 2027,
    "rap": 2028,
    "▁recent": 2029,
    "▁take": 2030,
    "uel": 2031,
    "▁build": 2032,
    "▁never": 2033,
    "rac": 2034,
    "▁app": 2035,
    "ibr": 2036,
    "ollege": 2037,
    "▁named": 2038,
    "▁developed": 2039,
    "hern": 2040,
    "iation": 2041,
    "ests": 2042,
    "Sc": 2043,
    "iol": 2044,
    "aint": 2045,
    "anuary": 2046,
    "cs": 2047,
    "serv": 2048,
    "ha": 2049,
    "alif": 2050,
    "▁data": 2051,
    "▁strong": 2052,
    "▁games": 2053,
    "bum": 2054,
    "str": 2055,
    "▁late": 2056,
    "▁cond": 2057,
    "gth": 2058,
    "▁kill": 2059,
    "ivision": 2060,
    "▁bre": 2061,
    "gov": 2062,
    "fact": 2063,
    "hinese": 2064,
    "png": 2065,
    "On": 2066,
    "▁works": 2067,
    "mat": 2068,
    "▁separ": 2069,
    "For": 2070,
    "bra": 2071,
    "hom": 2072,
    "ittle": 2073,
    "inning": 2074,
    "ief": 2075,
    "atholic": 2076,
    "ober": 2077,
    "aug": 2078,
    "imal": 2079,
    "▁held": 2080,
    "play": 2081,
    "▁engine": 2082,
    "▁km": 2083,
    "▁grow": 2084,
    "▁Empire": 2085,
    "English": 2086,
    "▁former": 2087,
    "hina": 2088,
    "ops": 2089,
    "liament": 2090,
    "▁inc": 2091,
    "▁vis": 2092,
    "lor": 2093,
    "▁European": 2094,
    "ush": 2095,
    "▁age": 2096,
    "Ed": 2097,
    "▁appear": 2098,
    "|&": 2099,
    "que": 2100,
    "key": 2101,
    "World": 2102,
    "▁know": 2103,
    "oid": 2104,
    "▁took": 2105,
    "sequ": 2106,
    "ume": 2107,
    "▁above": 2108,
    "▁repl": 2109,
    "ean": 2110,
    "▁di": 2111,
    "▁ke": 2112,
    "iddle": 2113,
    "▁mult": 2114,
    "▁how": 2115,
    "Pro": 2116,
    "▁concept": 2117,
    "ID": 2118,
    "icro": 2119,
    "▁hold": 2120,
    "ected": 2121,
    "▁low": 2122,
    "ef": 2123,
    "Roman": 2124,
    "oviet": 2125,
    "▁itself": 2126,
    "frica": 2127,
    "▁material": 2128,
    "note": 2129,
    "Or": 2130,
    "orthern": 2131,
    "▁seen": 2132,
    "ustralia": 2133,
    "▁One": 2134,
    "uly": 2135,
    "gypt": 2136,
    "pril": 2137,
    "ivity": 2138,
    "arc": 2139,
    "▁birth": 2140,
    "▁special": 2141,
    "rish": 2142,
    "▁del": 2143,
    "usiness": 2144,
    "ele": 2145,
    "British": 2146,
    "▁subject": 2147,
    "umbers": 2148,
    "▁la": 2149,
    "▁frequ": 2150,
    "arent": 2151,
    "lthough": 2152,
    "▁conc": 2153,
    "▁access": 2154,
    "▁et": 2155,
    "enry": 2156,
    "▁avail": 2157,
    "▁official": 2158,
    "aces": 2159,
    "face": 2160,
    "eo": 2161,
    "▁arch": 2162,
    "ensive": 2163,
    "ney": 2164,
    "▁History": 2165,
    "▁words": 2166,
    "atures": 2167,
    "▁bi": 2168,
    "▁best": 2169,
    "▁Her": 2170,
    "ental": 2171,
    "▁diff": 2172,
    "ternet": 2173,
    "search": 2174,
    "▁accept": 2175,
    "hu": 2176,
    "▁net": 2177,
    "▁standard": 2178,
    "▁came": 2179,
    "▁free": 2180,
    "ape": 2181,
    "win": 2182,
    "entral": 2183,
    "▁associ": 2184,
    "ergy": 2185,
    "▁State": 2186,
    "lb": 2187,
    "comp": 2188,
    "▁mag": 2189,
    "▁decl": 2190,
    "raw": 2191,
    "sel": 2192,
    "▁especially": 2193,
    "zer": 2194,
    "viron": 2195,
    "▁having": 2196,
    "sych": 2197,
    "ands": 2198,
    "▁aut": 2199,
    "▁signific": 2200,
    "▁regard": 2201,
    "exual": 2202,
    "oms": 2203,
    "▁base": 2204,
    "ferences": 2205,
    "acks": 2206,
    "▁dest": 2207,
    "▁meas": 2208,
    "▁$": 2209,
    "ploy": 2210,
    "▁#": 2211,
    "rag": 2212,
    "▁mass": 2213,
    "hel": 2214,
    "▁wr": 2215,
    "▁clos": 2216,
    "▁created": 2217,
    "▁song": 2218,
    "ators": 2219,
    "▁ep": 2220,
    "ror": 2221,
    "▁red": 2222,
    "ify": 2223,
    "▁terms": 2224,
    "abor": 2225,
    "▁areas": 2226,
    "ko": 2227,
    "▁defin": 2228,
    "▁himself": 2229,
    "▁find": 2230,
    "▁France": 2231,
    "rm": 2232,
    "ront": 2233,
    "alian": 2234,
    "bi": 2235,
    "▁local": 2236,
    "enc": 2237,
    "ctober": 2238,
    "▁side": 2239,
    "▁By": 2240,
    "▁West": 2241,
    "▁treat": 2242,
    "ym": 2243,
    "▁force": 2244,
    "nn": 2245,
    "minist": 2246,
    "aries": 2247,
    "▁Res": 2248,
    "lished": 2249,
    "ecess": 2250,
    "version": 2251,
    "val": 2252,
    "uation": 2253,
    "▁sound": 2254,
    "oph": 2255,
    "cle": 2256,
    "rt": 2257,
    "▁son": 2258,
    "▁Press": 2259,
    "chan": 2260,
    "▁king": 2261,
    "ington": 2262,
    "hers": 2263,
    "duction": 2264,
    "▁position": 2265,
    "▁univers": 2266,
    "arr": 2267,
    "▁men": 2268,
    "ael": 2269,
    "ikip": 2270,
    "istics": 2271,
    "asing": 2272,
    "French": 2273,
    "aper": 2274,
    "artic": 2275,
    "ovember": 2276,
    "▁liter": 2277,
    "lam": 2278,
    "▁President": 2279,
    "rch": 2280,
    "ingu": 2281,
    "▁largest": 2282,
    "▁House": 2283,
    "▁camp": 2284,
    "ij": 2285,
    "▁South": 2286,
    "ula": 2287,
    "▁care": 2288,
    "ning": 2289,
    "hemical": 2290,
    "▁scient": 2291,
    "ournal": 2292,
    "▁science": 2293,
    "▁famous": 2294,
    "▁East": 2295,
    "▁color": 2296,
    "ille": 2297,
    "▁region": 2298,
    "ransport": 2299,
    "arily": 2300,
    "index": 2301,
    "rick": 2302,
    "bb": 2303,
    "cis": 2304,
    "aged": 2305,
    "obert": 2306,
    "▁thus": 2307,
    "▁available": 2308,
    "aur": 2309,
    "ested": 2310,
    "▁role": 2311,
    "ste": 2312,
    "▁might": 2313,
    "▁cop": 2314,
    "lim": 2315,
    "▁post": 2316,
    "ikipedia": 2317,
    "▁ship": 2318,
    "▁further": 2319,
    "ptember": 2320,
    "ending": 2321,
    "mbol": 2322,
    "ements": 2323,
    "▁produced": 2324,
    "reland": 2325,
    "▁almost": 2326,
    "ston": 2327,
    "berg": 2328,
    "ebruary": 2329,
    "▁forces": 2330,
    "duct": 2331,
    "▁consider": 2332,
    "▁If": 2333,
    "▁nov": 2334,
    "▁change": 2335,
    "go": 2336,
    "ara": 2337,
    "▁Rev": 2338,
    "▁social": 2339,
    "Pl": 2340,
    "▁sugg": 2341,
    "▁Brit": 2342,
    "action": 2343,
    "ago": 2344,
    "▁See": 2345,
    "▁children": 2346,
    "▁hard": 2347,
    "▁numbers": 2348,
    "▁party": 2349,
    "aliforn": 2350,
    "▁pur": 2351,
    "ising": 2352,
    "istan": 2353,
    "▁When": 2354,
    "overed": 2355,
    "▁played": 2356,
    "ges": 2357,
    "box": 2358,
    "▁Other": 2359,
    "▁upon": 2360,
    "▁mot": 2361,
    "outher": 2362,
    "kn": 2363,
    "vironment": 2364,
    "ours": 2365,
    "▁earli": 2366,
    "▁full": 2367,
    "▁forms": 2368,
    "news": 2369,
    "▁comple": 2370,
    "aught": 2371,
    "▁ball": 2372,
    "▁story": 2373,
    "▁thought": 2374,
    "▁civil": 2375,
    "▁transl": 2376,
    "year": 2377,
    "asc": 2378,
    "▁mer": 2379,
    "ewish": 2380,
    "ights": 2381,
    "ideo": 2382,
    "▁Ber": 2383,
    "dis": 2384,
    "▁ve": 2385,
    "rian": 2386,
    "▁Dem": 2387,
    "ference": 2388,
    "▁sw": 2389,
    "ream": 2390,
    "▁Many": 2391,
    "▁suff": 2392,
    "▁north": 2393,
    "▁Sch": 2394,
    "▁least": 2395,
    "cur": 2396,
    "ett": 2397,
    "used": 2398,
    "orpor": 2399,
    "outhern": 2400,
    "▁economic": 2401,
    "▁occur": 2402,
    "▁whe": 2403,
    "Em": 2404,
    "▁border": 2405,
    "etic": 2406,
    "like": 2407,
    "ser": 2408,
    "▁far": 2409,
    "elect": 2410,
    "▁production": 2411,
    "itch": 2412,
    "▁significant": 2413,
    "IS": 2414,
    "▁ge": 2415,
    "▁Israel": 2416,
    "▁Har": 2417,
    "▁express": 2418,
    "main": 2419,
    "vert": 2420,
    "alifornia": 2421,
    "▁site": 2422,
    "▁Soc": 2423,
    "▁meaning": 2424,
    "▁recogn": 2425,
    "▁i": 2426,
    "▁mem": 2427,
    "▁service": 2428,
    "▁che": 2429,
    "atives": 2430,
    "▁deg": 2431,
    "istry": 2432,
    "▁tw": 2433,
    "▁Pe": 2434,
    "▁press": 2435,
    "▁princip": 2436,
    "ged": 2437,
    "ids": 2438,
    "▁south": 2439,
    "▁addition": 2440,
    "▁company": 2441,
    "▁type": 2442,
    "ysis": 2443,
    "▁culture": 2444,
    "ulture": 2445,
    "▁released": 2446,
    "▁parts": 2447,
    "Wh": 2448,
    "▁init": 2449,
    "aff": 2450,
    "▁som": 2451,
    "▁month": 2452,
    "▁study": 2453,
    "▁six": 2454,
    "▁included": 2455,
    "adem": 2456,
    "ched": 2457,
    "rav": 2458,
    "cast": 2459,
    "ien": 2460,
    "rip": 2461,
    "ronic": 2462,
    "ny": 2463,
    "mit": 2464,
    "▁days": 2465,
    "▁prob": 2466,
    "▁den": 2467,
    "ems": 2468,
    "▁sum": 2469,
    "▁member": 2470,
    "▁complex": 2471,
    "lass": 2472,
    "udd": 2473,
    "▁enc": 2474,
    "▁London": 2475,
    "▁established": 2476,
    "inary": 2477,
    "▁third": 2478,
    "▁Mc": 2479,
    "ellig": 2480,
    "oyal": 2481,
    "▁always": 2482,
    "Le": 2483,
    "inf": 2484,
    "itor": 2485,
    "▁entire": 2486,
    "▁source": 2487,
    "▁taken": 2488,
    "ication": 2489,
    "▁software": 2490,
    "ining": 2491,
    "▁five": 2492,
    "ourt": 2493,
    "rest": 2494,
    "▁energy": 2495,
    "Mar": 2496,
    "Be": 2497,
    "El": 2498,
    "▁season": 2499,
    "ades": 2500,
    "▁Ser": 2501,
    "William": 2502,
    "hi": 2503,
    "▁El": 2504,
    "▁report": 2505,
    "▁ord": 2506,
    "▁anal": 2507,
    "▁educ": 2508,
    "▁fail": 2509,
    "▁League": 2510,
    "▁pred": 2511,
    "cite": 2512,
    "▁arr": 2513,
    "rum": 2514,
    "ords": 2515,
    "ience": 2516,
    "▁norm": 2517,
    "▁account": 2518,
    "icult": 2519,
    "▁today": 2520,
    "▁built": 2521,
    "ecut": 2522,
    "ounter": 2523,
    "▁capital": 2524,
    "▁uses": 2525,
    "▁making": 2526,
    "|''": 2527,
    "▁Des": 2528,
    "▁international": 2529,
    "▁tog": 2530,
    "▁attack": 2531,
    "▁polic": 2532,
    "▁key": 2533,
    "▁project": 2534,
    "code": 2535,
    "▁town": 2536,
    "▁album": 2537,
    "▁market": 2538,
    "▁dou": 2539,
    "▁died": 2540,
    "▁deb": 2541,
    "itect": 2542,
    "En": 2543,
    "▁next": 2544,
    "urb": 2545,
    "reed": 2546,
    "▁together": 2547,
    "▁determ": 2548,
    "▁compet": 2549,
    "roy": 2550,
    "▁movement": 2551,
    "odes": 2552,
    "▁code": 2553,
    "▁quest": 2554,
    "▁sent": 2555,
    "usion": 2556,
    "South": 2557,
    "▁territ": 2558,
    "University": 2559,
    "▁below": 2560,
    "asp": 2561,
    "▁log": 2562,
    "▁prop": 2563,
    "with": 2564,
    "icism": 2565,
    "▁pri": 2566,
    "elling": 2567,
    "▁May": 2568,
    "▁observ": 2569,
    "▁International": 2570,
    "European": 2571,
    "ceed": 2572,
    "▁box": 2573,
    "inct": 2574,
    "lexander": 2575,
    "name": 2576,
    "▁gr": 2577,
    "▁value": 2578,
    "▁problem": 2579,
    "mp": 2580,
    "erous": 2581,
    "▁except": 2582,
    "▁Islands": 2583,
    "▁say": 2584,
    "▁Sw": 2585,
    "▁books": 2586,
    "ux": 2587,
    "▁She": 2588,
    "▁range": 2589,
    "▁fall": 2590,
    "▁bgcolor": 2591,
    "▁Pol": 2592,
    "▁broad": 2593,
    "ength": 2594,
    "gress": 2595,
    "alv": 2596,
    "selves": 2597,
    "oney": 2598,
    "▁Earth": 2599,
    "▁natural": 2600,
    "sw": 2601,
    "▁mach": 2602,
    "▁amount": 2603,
    "oz": 2604,
    "ircraft": 2605,
    "▁players": 2606,
    "▁lo": 2607,
    "▁rate": 2608,
    "▁half": 2609,
    "▁plan": 2610,
    "▁cases": 2611,
    "▁Mon": 2612,
    "▁father": 2613,
    "icon": 2614,
    "▁But": 2615,
    "▁difficult": 2616,
    "isl": 2617,
    "▁size": 2618,
    "▁religious": 2619,
    "irit": 2620,
    "▁referred": 2621,
    "ini": 2622,
    "▁president": 2623,
    "can": 2624,
    "▁themselves": 2625,
    "me": 2626,
    "▁young": 2627,
    "▁clear": 2628,
    "cycl": 2629,
    "▁once": 2630,
    "hib": 2631,
    "▁little": 2632,
    "ederal": 2633,
    "▁respect": 2634,
    "▁structure": 2635,
    "▁names": 2636,
    "dam": 2637,
    "frican": 2638,
    "irt": 2639,
    "▁previous": 2640,
    "▁Pri": 2641,
    "▁pers": 2642,
    "▁imp": 2643,
    "▁sold": 2644,
    "ria": 2645,
    "ounty": 2646,
    "ros": 2647,
    "ened": 2648,
    "ledge": 2649,
    "merc": 2650,
    "▁Int": 2651,
    "▁abs": 2652,
    "International": 2653,
    "▁rights": 2654,
    "rup": 2655,
    "Fl": 2656,
    "FF": 2657,
    "▁Sup": 2658,
    "ask": 2659,
    "atal": 2660,
    "Japan": 2661,
    "plement": 2662,
    "▁evidence": 2663,
    "raz": 2664,
    "wood": 2665,
    "ustry": 2666,
    "▁traditional": 2667,
    "olar": 2668,
    "▁River": 2669,
    "▁whose": 2670,
    "ola": 2671,
    "pop": 2672,
    "burg": 2673,
    "▁Island": 2674,
    "acing": 2675,
    "▁feature": 2676,
    "▁fem": 2677,
    "ocratic": 2678,
    "▁temper": 2679,
    "igital": 2680,
    "ocument": 2681,
    "known": 2682,
    "▁sett": 2683,
    "▁total": 2684,
    "anguage": 2685,
    "orse": 2686,
    "▁link": 2687,
    "view": 2688,
    "ania": 2689,
    "▁anim": 2690,
    "orph": 2691,
    "▁put": 2692,
    "▁model": 2693,
    "▁symbol": 2694,
    "useum": 2695,
    "▁:": 2696,
    "▁cost": 2697,
    "asy": 2698,
    "oice": 2699,
    "hus": 2700,
    "▁related": 2701,
    "▁fund": 2702,
    "▁help": 2703,
    "hematics": 2704,
    "atively": 2705,
    "▁band": 2706,
    "utch": 2707,
    "▁lik": 2708,
    "ached": 2709,
    "tion": 2710,
    "▁cy": 2711,
    "▁necess": 2712,
    "rg": 2713,
    "lbert": 2714,
    "illa": 2715,
    "amer": 2716,
    "▁page": 2717,
    "▁elements": 2718,
    "▁won": 2719,
    "olumb": 2720,
    "fa": 2721,
    "Russ": 2722,
    "▁impro": 2723,
    "pen": 2724,
    "ires": 2725,
    "onic": 2726,
    "▁football": 2727,
    "tain": 2728,
    "ama": 2729,
    "▁get": 2730,
    "▁India": 2731,
    "sim": 2732,
    "echn": 2733,
    "field": 2734,
    "homas": 2735,
    "▁adop": 2736,
    "▁species": 2737,
    "▁wrote": 2738,
    "oper": 2739,
    "▁discuss": 2740,
    "▁David": 2741,
    "▁applic": 2742,
    "▁dom": 2743,
    "▁continued": 2744,
    "▁Day": 2745,
    "▁past": 2746,
    "pite": 2747,
    "asion": 2748,
    "rovers": 2749,
    "▁house": 2750,
    "anadian": 2751,
    "head": 2752,
    "pd": 2753,
    "▁Most": 2754,
    "▁width": 2755,
    "▁Med": 2756,
    "▁research": 2757,
    "▁coll": 2758,
    "position": 2759,
    "oral": 2760,
    "▁instead": 2761,
    "ension": 2762,
    "▁mechan": 2763,
    "▁rule": 2764,
    "▁particularly": 2765,
    "▁too": 2766,
    "▁lower": 2767,
    "▁described": 2768,
    "atch": 2769,
    "font": 2770,
    "▁tre": 2771,
    "▁z": 2772,
    "▁television": 2773,
    "▁reason": 2774,
    "reme": 2775,
    "▁priv": 2776,
    "▁image": 2777,
    "▁tradition": 2778,
    "▁final": 2779,
    "flag": 2780,
    "▁tri": 2781,
    "otes": 2782,
    "ortug": 2783,
    "▁interest": 2784,
    "▁influence": 2785,
    "lf": 2786,
    "▁able": 2787,
    "ipp": 2788,
    "mith": 2789,
    "▁Indian": 2790,
    "▁successful": 2791,
    "▁viol": 2792,
    "▁fig": 2793,
    "▁characters": 2794,
    "rim": 2795,
    "▁Qu": 2796,
    "▁domin": 2797,
    "iting": 2798,
    "uture": 2799,
    "▁come": 2800,
    "FO": 2801,
    "sia": 2802,
    "iers": 2803,
    "ustralian": 2804,
    "uke": 2805,
    "▁profess": 2806,
    "▁living": 2807,
    "ensus": 2808,
    "▁indic": 2809,
    "▁integ": 2810,
    "▁cities": 2811,
    "odern": 2812,
    "▁island": 2813,
    "▁concern": 2814,
    "▁We": 2815,
    "▁Pal": 2816,
    "▁eth": 2817,
    "▁higher": 2818,
    "▁whether": 2819,
    "▁community": 2820,
    "onn": 2821,
    "▁commonly": 2822,
    "▁hum": 2823,
    "▁bo": 2824,
    "▁fav": 2825,
    "imately": 2826,
    "▁practice": 2827,
    "stitute": 2828,
    "vention": 2829,
    "ccording": 2830,
    "▁according": 2831,
    "aves": 2832,
    "▁creat": 2833,
    "MP": 2834,
    "ills": 2835,
    "anced": 2836,
    "▁cross": 2837,
    "▁nature": 2838,
    "iff": 2839,
    "▁let": 2840,
    "ona": 2841,
    "ichard": 2842,
    "ech": 2843,
    "▁food": 2844,
    "acter": 2845,
    "David": 2846,
    "lections": 2847,
    "▁III": 2848,
    "time": 2849,
    "▁belief": 2850,
    "▁church": 2851,
    "▁formed": 2852,
    "olf": 2853,
    "rought": 2854,
    "het": 2855,
    "▁business": 2856,
    "php": 2857,
    "nder": 2858,
    "▁sit": 2859,
    "▁With": 2860,
    "Element": 2861,
    "▁produc": 2862,
    "▁central": 2863,
    "odox": 2864,
    "▁fri": 2865,
    "▁Ireland": 2866,
    "▁imm": 2867,
    "poll": 2868,
    "computer": 2869,
    "▁cannot": 2870,
    "unk": 2871,
    "ores": 2872,
    "▁women": 2873,
    "ixed": 2874,
    "Sw": 2875,
    "▁throughout": 2876,
    "bor": 2877,
    "▁neg": 2878,
    "▁followed": 2879,
    "ufact": 2880,
    "▁Im": 2881,
    "▁Off": 2882,
    "▁god": 2883,
    "book": 2884,
    "ounced": 2885,
    "film": 2886,
    "▁ill": 2887,
    "▁Britain": 2888,
    "mark": 2889,
    "eck": 2890,
    "▁born": 2891,
    "▁actually": 2892,
    "▁System": 2893,
    "▁ess": 2894,
    "▁ground": 2895,
    "▁election": 2896,
    "▁problems": 2897,
    "▁specific": 2898,
    "ulf": 2899,
    "DP": 2900,
    "▁foreign": 2901,
    "ipl": 2902,
    "▁widely": 2903,
    "unic": 2904,
    "▁detail": 2905,
    "▁offer": 2906,
    "▁aircraft": 2907,
    "ection": 2908,
    "▁administ": 2909,
    "rated": 2910,
    "ving": 2911,
    "anted": 2912,
    "▁Fl": 2913,
    "▁valign": 2914,
    "▁host": 2915,
    "ription": 2916,
    "Br": 2917,
    "OS": 2918,
    "'''''": 2919,
    "ibility": 2920,
    "plied": 2921,
    "olk": 2922,
    "▁Per": 2923,
    "▁Western": 2924,
    "ption": 2925,
    "ssoci": 2926,
    "▁films": 2927,
    "▁simply": 2928,
    "▁relationship": 2929,
    "▁sch": 2930,
    "ns": 2931,
    "▁Bar": 2932,
    "atory": 2933,
    "omer": 2934,
    "France": 2935,
    "ichael": 2936,
    "▁While": 2937,
    "▁true": 2938,
    "nother": 2939,
    "▁speak": 2940,
    "chie": 2941,
    "Her": 2942,
    "▁script": 2943,
    "EE": 2944,
    "Some": 2945,
    "▁fire": 2946,
    "ashington": 2947,
    "ico": 2948,
    "▁altern": 2949,
    "▁Mac": 2950,
    "▁Soviet": 2951,
    "hab": 2952,
    "onf": 2953,
    "utions": 2954,
    "▁compan": 2955,
    "▁pot": 2956,
    "och": 2957,
    "rmy": 2958,
    "abet": 2959,
    "▁trade": 2960,
    "isk": 2961,
    "band": 2962,
    "stein": 2963,
    "▁Park": 2964,
    "▁SI": 2965,
    "ES": 2966,
    "▁Egypt": 2967,
    "icient": 2968,
    "itiz": 2969,
    "▁Sea": 2970,
    "ommon": 2971,
    "war": 2972,
    "▁gre": 2973,
    "earch": 2974,
    "tlant": 2975,
    "▁ever": 2976,
    "▁test": 2977,
    "▁cause": 2978,
    "eorg": 2979,
    "part": 2980,
    "▁received": 2981,
    "Par": 2982,
    "▁lost": 2983,
    "Rep": 2984,
    "omy": 2985,
    "get": 2986,
    "▁star": 2987,
    "▁believe": 2988,
    "▁interpre": 2989,
    "▁jo": 2990,
    "cell": 2991,
    "▁fight": 2992,
    "ilities": 2993,
    "ican": 2994,
    "▁Sec": 2995,
    "fin": 2996,
    "rich": 2997,
    "▁Bel": 2998,
    "▁our": 2999,
    "owers": 3000,
    "▁action": 3001,
    "▁required": 3002,
    "yr": 3003,
    "medi": 3004,
    "▁consist": 3005,
    "ocol": 3006,
    "ouis": 3007,
    "▁ancient": 3008,
    "pha": 3009,
    "pose": 3010,
    "▁outside": 3011,
    "rect": 3012,
    "ishing": 3013,
    "gar": 3014,
    "▁remov": 3015,
    "pdf": 3016,
    "gu": 3017,
    "▁hom": 3018,
    "▁network": 3019,
    "▁black": 3020,
    "hest": 3021,
    "eff": 3022,
    "▁UK": 3023,
    "▁invest": 3024,
    "▁defined": 3025,
    "▁respons": 3026,
    "born": 3027,
    "ties": 3028,
    "ili": 3029,
    "▁laws": 3030,
    "▁self": 3031,
    "▁Minister": 3032,
    "▁includes": 3033,
    "▁prote": 3034,
    "▁sense": 3035,
    "gor": 3036,
    "▁events": 3037,
    "▁idea": 3038,
    "Har": 3039,
    "mag": 3040,
    "ambig": 3041,
    "lected": 3042,
    "▁associated": 3043,
    "gi": 3044,
    "uous": 3045,
    "King": 3046,
    "ida": 3047,
    "ributed": 3048,
    "ready": 3049,
    "▁added": 3050,
    "▁novel": 3051,
    "image": 3052,
    "▁went": 3053,
    "▁designed": 3054,
    "▁Bo": 3055,
    "▁Red": 3056,
    "mercial": 3057,
    "▁points": 3058,
    "▁defe": 3059,
    "▁introduced": 3060,
    "esus": 3061,
    "▁changes": 3062,
    "▁here": 3063,
    "cap": 3064,
    "itude": 3065,
    "▁coast": 3066,
    "▁offic": 3067,
    "▁provide": 3068,
    "▁require": 3069,
    "thodox": 3070,
    "▁fa": 3071,
    "▁surv": 3072,
    "resp": 3073,
    "otland": 3074,
    "▁types": 3075,
    "▁allowed": 3076,
    "▁close": 3077,
    "rd": 3078,
    "azine": 3079,
    "▁cover": 3080,
    "▁eventually": 3081,
    "▁divid": 3082,
    "▁employ": 3083,
    "▁features": 3084,
    "flict": 3085,
    "▁understand": 3086,
    "rn": 3087,
    "▁majority": 3088,
    "edy": 3089,
    "cyclop": 3090,
    "▁increasing": 3091,
    "verage": 3092,
    "James": 3093,
    "Robert": 3094,
    "orks": 3095,
    "▁programming": 3096,
    "annel": 3097,
    "▁battle": 3098,
    "omputer": 3099,
    "▁jud": 3100,
    "▁economy": 3101,
    "▁believed": 3102,
    "cean": 3103,
    "▁sat": 3104,
    "▁achie": 3105,
    "▁originally": 3106,
    "unt": 3107,
    "▁started": 3108,
    "▁activ": 3109,
    "Int": 3110,
    "isher": 3111,
    "eek": 3112,
    "oles": 3113,
    "orts": 3114,
    "iding": 3115,
    "iberal": 3116,
    "▁industry": 3117,
    "ni": 3118,
    "ayer": 3119,
    "▁ver": 3120,
    "▁etc": 3121,
    "▁located": 3122,
    "References": 3123,
    "West": 3124,
    "▁approx": 3125,
    "▁grad": 3126,
    "▁rock": 3127,
    "come": 3128,
    "reet": 3129,
    "iment": 3130,
    "quare": 3131,
    "ranch": 3132,
    "Main": 3133,
    "Other": 3134,
    "men": 3135,
    "▁away": 3136,
    "▁miss": 3137,
    "ump": 3138,
    "▁occup": 3139,
    "▁Inter": 3140,
    "urk": 3141,
    "rier": 3142,
    "oul": 3143,
    "Elementbox": 3144,
    "Qu": 3145,
    "▁beginning": 3146,
    "ects": 3147,
    "Pe": 3148,
    "itz": 3149,
    "pecial": 3150,
    "▁fiction": 3151,
    "▁conn": 3152,
    "▁court": 3153,
    "▁brought": 3154,
    "rist": 3155,
    "▁controvers": 3156,
    "▁typically": 3157,
    "▁across": 3158,
    "▁William": 3159,
    "▁actor": 3160,
    "asons": 3161,
    "▁mid": 3162,
    "May": 3163,
    "▁speed": 3164,
    "▁legal": 3165,
    "▁Jewish": 3166,
    "▁January": 3167,
    "▁look": 3168,
    "aching": 3169,
    "December": 3170,
    "enced": 3171,
    "▁society": 3172,
    "▁longer": 3173,
    "set": 3174,
    "FL": 3175,
    "haps": 3176,
    "▁March": 3177,
    "▁remains": 3178,
    "Battle": 3179,
    "ider": 3180,
    "|'''": 3181,
    "▁Law": 3182,
    "enter": 3183,
    "▁larger": 3184,
    "BM": 3185,
    "Dem": 3186,
    "inger": 3187,
    "▁elected": 3188,
    "▁leaders": 3189,
    "arter": 3190,
    "▁kind": 3191,
    "▁live": 3192,
    "bu": 3193,
    "uclear": 3194,
    "▁colspan": 3195,
    "▁already": 3196,
    "▁dial": 3197,
    "alled": 3198,
    "oor": 3199,
    "reece": 3200,
    "adding": 3201,
    "ulated": 3202,
    "▁sequ": 3203,
    "ynam": 3204,
    "▁foc": 3205,
    "▁date": 3206,
    "▁probably": 3207,
    "writ": 3208,
    "▁Jews": 3209,
    "▁earlier": 3210,
    "▁Hol": 3211,
    "where": 3212,
    "▁School": 3213,
    "ada": 3214,
    "thology": 3215,
    "ribution": 3216,
    "ZE": 3217,
    "pon": 3218,
    "Bel": 3219,
    "▁You": 3220,
    "▁movie": 3221,
    "▁complete": 3222,
    "▁manufact": 3223,
    "etro": 3224,
    "▁therefore": 3225,
    "ghan": 3226,
    "▁lab": 3227,
    "hicago": 3228,
    "public": 3229,
    "hristianity": 3230,
    "▁army": 3231,
    "cons": 3232,
    "▁independent": 3233,
    "▁Me": 3234,
    "onstant": 3235,
    "▁manag": 3236,
    "ala": 3237,
    "▁contains": 3238,
    "SI": 3239,
    "well": 3240,
    "class": 3241,
    "ongress": 3242,
    "▁separate": 3243,
    "▁Fin": 3244,
    "Man": 3245,
    "aign": 3246,
    "▁future": 3247,
    "▁reference": 3248,
    "world": 3249,
    "ounds": 3250,
    "amm": 3251,
    "▁meet": 3252,
    "▁pain": 3253,
    "ountry": 3254,
    "▁dam": 3255,
    "rogen": 3256,
    "umber": 3257,
    "▁Ro": 3258,
    "list": 3259,
    "▁During": 3260,
    "▁give": 3261,
    "▁companies": 3262,
    "▁rules": 3263,
    "▁status": 3264,
    "▁physical": 3265,
    "hood": 3266,
    "▁anti": 3267,
    "inet": 3268,
    "▁Reg": 3269,
    "▁largely": 3270,
    "▁produce": 3271,
    "▁directly": 3272,
    "uments": 3273,
    "ompany": 3274,
    "▁results": 3275,
    "▁better": 3276,
    "ibrary": 3277,
    "▁length": 3278,
    "▁appoint": 3279,
    "obal": 3280,
    "Henry": 3281,
    "itation": 3282,
    "▁things": 3283,
    "▁learn": 3284,
    "ER": 3285,
    "ken": 3286,
    "▁your": 3287,
    "▁Spanish": 3288,
    "▁environment": 3289,
    "uda": 3290,
    "▁aud": 3291,
    "pollo": 3292,
    "▁quick": 3293,
    "By": 3294,
    "▁dise": 3295,
    "▁services": 3296,
    "▁div": 3297,
    "las": 3298,
    "▁SIZE": 3299,
    "▁makes": 3300,
    "▁effects": 3301,
    "bo": 3302,
    "lso": 3303,
    "artment": 3304,
    "hold": 3305,
    "▁remained": 3306,
    "airs": 3307,
    "▁products": 3308,
    "urt": 3309,
    "▁gave": 3310,
    "change": 3311,
    "background": 3312,
    "uses": 3313,
    "▁mount": 3314,
    "▁—": 3315,
    "organ": 3316,
    "▁technology": 3317,
    "▁mus": 3318,
    "▁pen": 3319,
    "frac": 3320,
    "ictor": 3321,
    "▁December": 3322,
    "▁saw": 3323,
    "ssociation": 3324,
    "▁pron": 3325,
    "▁External": 3326,
    "▁lack": 3327,
    "▁keep": 3328,
    "▁growth": 3329,
    "▁limited": 3330,
    "iant": 3331,
    "ustrial": 3332,
    "▁Dr": 3333,
    "▁enough": 3334,
    "▁personal": 3335,
    "▁parties": 3336,
    "▁id": 3337,
    "▁web": 3338,
    "▁From": 3339,
    "ables": 3340,
    "▁soon": 3341,
    "▁founded": 3342,
    "embly": 3343,
    "▁behav": 3344,
    "obel": 3345,
    "uries": 3346,
    "▁Irish": 3347,
    "ya": 3348,
    "rif": 3349,
    "▁Paul": 3350,
    "▁leader": 3351,
    "▁Japanese": 3352,
    "▁caused": 3353,
    "▁west": 3354,
    "▁question": 3355,
    "▁webs": 3356,
    "▁historical": 3357,
    "ician": 3358,
    "▁capt": 3359,
    "▁whole": 3360,
    "▁writing": 3361,
    "▁highly": 3362,
    "ato": 3363,
    "▁Parliament": 3364,
    "omic": 3365,
    "▁simple": 3366,
    "rth": 3367,
    "▁unit": 3368,
    "▁mother": 3369,
    "uslim": 3370,
    "▁address": 3371,
    "lan": 3372,
    "respond": 3373,
    "bg": 3374,
    "based": 3375,
    "board": 3376,
    "▁likely": 3377,
    "za": 3378,
    "ati": 3379,
    "ampions": 3380,
    "uitar": 3381,
    "▁matter": 3382,
    "▁months": 3383,
    "Sup": 3384,
    "▁killed": 3385,
    "Ber": 3386,
    "phabet": 3387,
    "▁leading": 3388,
    "ki": 3389,
    "cer": 3390,
    "bridge": 3391,
    "▁Dep": 3392,
    "▁issues": 3393,
    "▁education": 3394,
    "ises": 3395,
    "▁gas": 3396,
    "▁moved": 3397,
    "aker": 3398,
    "▁radio": 3399,
    "▁policy": 3400,
    "▁super": 3401,
    "▁deaths": 3402,
    "ship": 3403,
    "▁colon": 3404,
    "▁center": 3405,
    "▁writer": 3406,
    "coh": 3407,
    "▁yet": 3408,
    "▁rap": 3409,
    "gebra": 3410,
    "▁weap": 3411,
    "fghan": 3412,
    "izations": 3413,
    "irg": 3414,
    "amily": 3415,
    "razil": 3416,
    "▁expect": 3417,
    "▁definition": 3418,
    "One": 3419,
    "ita": 3420,
    "wik": 3421,
    "iques": 3422,
    "▁minor": 3423,
    "▁knowledge": 3424,
    "▁mostly": 3425,
    "▁division": 3426,
    "▁Rec": 3427,
    "▁provided": 3428,
    "pple": 3429,
    "▁High": 3430,
    "▁lines": 3431,
    "han": 3432,
    "ishop": 3433,
    "history": 3434,
    "porary": 3435,
    "▁building": 3436,
    "alle": 3437,
    "▁instit": 3438,
    "gorith": 3439,
    "oted": 3440,
    "state": 3441,
    "▁Serv": 3442,
    "ocal": 3443,
    "▁Bas": 3444,
    "▁arm": 3445,
    "▁remain": 3446,
    "▁regular": 3447,
    "endar": 3448,
    "hemistry": 3449,
    "ads": 3450,
    "anded": 3451,
    "▁architect": 3452,
    "▁implement": 3453,
    "urd": 3454,
    "indows": 3455,
    "artin": 3456,
    "▁complet": 3457,
    "▁cut": 3458,
    "▁destroy": 3459,
    "utes": 3460,
    "orial": 3461,
    "▁east": 3462,
    "▁surface": 3463,
    "__": 3464,
    "ecause": 3465,
    "▁citiz": 3466,
    "▁bar": 3467,
    "which": 3468,
    "▁smaller": 3469,
    "nic": 3470,
    "▁So": 3471,
    "▁fac": 3472,
    "▁acid": 3473,
    "▁Stud": 3474,
    "▁commercial": 3475,
    "iance": 3476,
    "▁copy": 3477,
    "▁govern": 3478,
    "▁replaced": 3479,
    "quote": 3480,
    "aval": 3481,
    "▁done": 3482,
    "bon": 3483,
    "▁issue": 3484,
    "king": 3485,
    "cal": 3486,
    "▁Mag": 3487,
    "▁tro": 3488,
    "▁October": 3489,
    "anned": 3490,
    "ented": 3491,
    "rs": 3492,
    "▁appeared": 3493,
    "▁establish": 3494,
    "ga": 3495,
    "lav": 3496,
    "rol": 3497,
    "▁eas": 3498,
    "olitics": 3499,
    "eal": 3500,
    "▁basis": 3501,
    "post": 3502,
    "▁deal": 3503,
    "▁currently": 3504,
    "▁Sim": 3505,
    "oseph": 3506,
    "Per": 3507,
    "▁Italian": 3508,
    "▁Book": 3509,
    "▁particip": 3510,
    "ender": 3511,
    "▁greater": 3512,
    "▁towards": 3513,
    "ocial": 3514,
    "ift": 3515,
    "▁eight": 3516,
    "January": 3517,
    "▁video": 3518,
    "▁Society": 3519,
    "elligence": 3520,
    "▁epis": 3521,
    "ado": 3522,
    "enes": 3523,
    "▁emer": 3524,
    "group": 3525,
    "▁sources": 3526,
    "onald": 3527,
    "thing": 3528,
    "▁double": 3529,
    "▁earth": 3530,
    "ena": 3531,
    "arly": 3532,
    "▁rout": 3533,
    "isation": 3534,
    "▁distinct": 3535,
    "rey": 3536,
    "▁metal": 3537,
    "▁divided": 3538,
    "Black": 3539,
    "▁heav": 3540,
    "▁appears": 3541,
    "vi": 3542,
    "hing": 3543,
    "rypt": 3544,
    "astic": 3545,
    "izing": 3546,
    "hens": 3547,
    "perial": 3548,
    "▁reform": 3549,
    "osis": 3550,
    "▁working": 3551,
    "istance": 3552,
    "▁Since": 3553,
    "▁execut": 3554,
    "▁islands": 3555,
    "▁variety": 3556,
    "▁philosophy": 3557,
    "oke": 3558,
    "▁increase": 3559,
    "law": 3560,
    "olid": 3561,
    "icine": 3562,
    "rthur": 3563,
    "▁claims": 3564,
    "eta": 3565,
    "racy": 3566,
    "▁Hall": 3567,
    "▁First": 3568,
    "▁stories": 3569,
    "ras": 3570,
    "▁ht": 3571,
    "▁Islam": 3572,
    "▁births": 3573,
    "elebr": 3574,
    "▁fr": 3575,
    "▁cou": 3576,
    "idents": 3577,
    "▁break": 3578,
    "▁changed": 3579,
    "▁scientific": 3580,
    "hal": 3581,
    "Paul": 3582,
    "▁pie": 3583,
    "▁tax": 3584,
    "tters": 3585,
    "▁step": 3586,
    "oto": 3587,
    "▁ten": 3588,
    "ensity": 3589,
    "▁front": 3590,
    "▁June": 3591,
    "▁blood": 3592,
    "▁quant": 3593,
    "▁methods": 3594,
    "▁degree": 3595,
    "▁brother": 3596,
    "nov": 3597,
    "▁office": 3598,
    "''':": 3599,
    "alism": 3600,
    "▁involved": 3601,
    "▁northern": 3602,
    "irl": 3603,
    "▁cust": 3604,
    "▁rare": 3605,
    "▁vari": 3606,
    "▁wife": 3607,
    "▁Prize": 3608,
    "▁Revolution": 3609,
    "▁course": 3610,
    "President": 3611,
    "▁letter": 3612,
    "olitical": 3613,
    "▁ang": 3614,
    "stron": 3615,
    "▁http": 3616,
    "▁think": 3617,
    "▁white": 3618,
    "▁Emperor": 3619,
    "▁whom": 3620,
    "▁theore": 3621,
    "ueen": 3622,
    "const": 3623,
    "▁increased": 3624,
    "rea": 3625,
    "ait": 3626,
    "▁mention": 3627,
    "Pol": 3628,
    "raq": 3629,
    "▁dire": 3630,
    "west": 3631,
    "music": 3632,
    "▁Science": 3633,
    "▁measure": 3634,
    "ador": 3635,
    "▁July": 3636,
    "▁psych": 3637,
    "▁programs": 3638,
    "Frank": 3639,
    "La": 3640,
    "▁conflict": 3641,
    "▁correspond": 3642,
    "ething": 3643,
    "▁transport": 3644,
    "cadem": 3645,
    "▁Mat": 3646,
    "Phil": 3647,
    "mas": 3648,
    "▁loss": 3649,
    "July": 3650,
    "▁era": 3651,
    "ustria": 3652,
    "▁pay": 3653,
    "▁becomes": 3654,
    "onstitution": 3655,
    "▁relatively": 3656,
    "gn": 3657,
    "▁hyp": 3658,
    "olden": 3659,
    "▁trib": 3660,
    "ky": 3661,
    "ngel": 3662,
    "▁disput": 3663,
    "▁nation": 3664,
    "▁hon": 3665,
    "▁primary": 3666,
    "▁property": 3667,
    "ears": 3668,
    "Inter": 3669,
    "ictionary": 3670,
    "poly": 3671,
    "rabic": 3672,
    "▁values": 3673,
    "▁drug": 3674,
    "▁conditions": 3675,
    "Elect": 3676,
    "riage": 3677,
    "▁subsequ": 3678,
    "iple": 3679,
    "▁move": 3680,
    "▁happ": 3681,
    "▁My": 3682,
    "igned": 3683,
    "reement": 3684,
    "spe": 3685,
    "▁Smith": 3686,
    "▁section": 3687,
    "clus": 3688,
    "▁bound": 3689,
    "▁travel": 3690,
    "▁Institute": 3691,
    "▁analysis": 3692,
    "▁hyd": 3693,
    "acific": 3694,
    "aud": 3695,
    "▁laun": 3696,
    "isms": 3697,
    "olec": 3698,
    "pression": 3699,
    "etherlands": 3700,
    "disambig": 3701,
    "▁constitution": 3702,
    "▁release": 3703,
    "estic": 3704,
    "▁decision": 3705,
    "craft": 3706,
    "▁existence": 3707,
    "ali": 3708,
    "▁objects": 3709,
    "▁average": 3710,
    "Wikipedia": 3711,
    "▁draw": 3712,
    "▁religion": 3713,
    "date": 3714,
    "▁Web": 3715,
    "light": 3716,
    "▁career": 3717,
    "▁claimed": 3718,
    "ols": 3719,
    "▁tour": 3720,
    "ibly": 3721,
    "aring": 3722,
    "▁southern": 3723,
    "onse": 3724,
    "▁functions": 3725,
    "▁Prot": 3726,
    "▁Latin": 3727,
    "fe": 3728,
    "ias": 3729,
    "phys": 3730,
    "▁tend": 3731,
    "unction": 3732,
    "▁hit": 3733,
    "DS": 3734,
    "otic": 3735,
    "▁takes": 3736,
    "▁James": 3737,
    "▁create": 3738,
    "▁Orthodox": 3739,
    "▁sea": 3740,
    "▁September": 3741,
    "▁bene": 3742,
    "▁nearly": 3743,
    "anks": 3744,
    "olars": 3745,
    "rical": 3746,
    "irgin": 3747,
    "▁Frank": 3748,
    "▁basic": 3749,
    "▁frequently": 3750,
    "Mon": 3751,
    "overy": 3752,
    "wise": 3753,
    "ips": 3754,
    "▁solid": 3755,
    "OM": 3756,
    "▁edition": 3757,
    "▁letters": 3758,
    "start": 3759,
    "▁counter": 3760,
    "▁Kong": 3761,
    "▁journal": 3762,
    "▁studies": 3763,
    "ache": 3764,
    "▁station": 3765,
    "▁table": 3766,
    "▁Jesus": 3767,
    "▁instance": 3768,
    "arp": 3769,
    "erc": 3770,
    "itted": 3771,
    "level": 3772,
    "rying": 3773,
    "▁Black": 3774,
    "uge": 3775,
    "fect": 3776,
    "▁gun": 3777,
    "▁calcul": 3778,
    "axim": 3779,
    "▁adopted": 3780,
    "ua": 3781,
    "▁Ham": 3782,
    "ellow": 3783,
    "▁male": 3784,
    "▁Sen": 3785,
    "▁wide": 3786,
    "igation": 3787,
    "padding": 3788,
    "▁website": 3789,
    "cyclopedia": 3790,
    "BB": 3791,
    "verse": 3792,
    "▁western": 3793,
    "▁Val": 3794,
    "▁discovered": 3795,
    "lov": 3796,
    "lying": 3797,
    "MS": 3798,
    "▁Ev": 3799,
    "When": 3800,
    ",''": 3801,
    "England": 3802,
    "ici": 3803,
    "water": 3804,
    "point": 3805,
    "▁ideas": 3806,
    "oston": 3807,
    "▁mess": 3808,
    "▁memory": 3809,
    "Do": 3810,
    "hyd": 3811,
    "▁assum": 3812,
    "▁placed": 3813,
    "ilosophy": 3814,
    "UK": 3815,
    "Ben": 3816,
    "agn": 3817,
    "ultural": 3818,
    "▁Mo": 3819,
    "elled": 3820,
    "▁extrem": 3821,
    "▁animals": 3822,
    "▁primarily": 3823,
    "cing": 3824,
    "raction": 3825,
    "▁contain": 3826,
    "▁returned": 3827,
    "ho": 3828,
    "iana": 3829,
    "▁Rel": 3830,
    "▁don": 3831,
    "▁immedi": 3832,
    "▁articles": 3833,
    "▁ir": 3834,
    "erry": 3835,
    "umer": 3836,
    "Des": 3837,
    "rief": 3838,
    "igg": 3839,
    "▁latter": 3840,
    "▁Russian": 3841,
    "rade": 3842,
    "leges": 3843,
    "wiki": 3844,
    "▁concent": 3845,
    "▁private": 3846,
    "▁document": 3847,
    "abb": 3848,
    "opp": 3849,
    "soft": 3850,
    "▁Del": 3851,
    "▁card": 3852,
    "London": 3853,
    "February": 3854,
    "▁constant": 3855,
    "▁territory": 3856,
    "▁Henry": 3857,
    "LI": 3858,
    "ano": 3859,
    "hard": 3860,
    "▁peace": 3861,
    "▁chemical": 3862,
    "▁legisl": 3863,
    "new": 3864,
    "▁shown": 3865,
    "cel": 3866,
    "do": 3867,
    "ncient": 3868,
    "▁money": 3869,
    "style": 3870,
    "▁daught": 3871,
    "web": 3872,
    "▁pages": 3873,
    "▁February": 3874,
    "inent": 3875,
    "▁served": 3876,
    "▁machine": 3877,
    "free": 3878,
    "▁aspect": 3879,
    "September": 3880,
    "▁students": 3881,
    "cret": 3882,
    "▁pric": 3883,
    "▁conversion": 3884,
    "roll": 3885,
    "▁thous": 3886,
    "ella": 3887,
    "▁More": 3888,
    "▁shows": 3889,
    "▁married": 3890,
    "▁campaign": 3891,
    "oken": 3892,
    "ittee": 3893,
    "▁acqu": 3894,
    "▁temperature": 3895,
    "utom": 3896,
    "Latin": 3897,
    "article": 3898,
    "asty": 3899,
    "▁units": 3900,
    "pri": 3901,
    "East": 3902,
    "▁Spain": 3903,
    "▁accepted": 3904,
    "xford": 3905,
    "undred": 3906,
    "sch": 3907,
    "▁Lin": 3908,
    "March": 3909,
    "▁club": 3910,
    "rument": 3911,
    "▁reported": 3912,
    "October": 3913,
    "ications": 3914,
    "cles": 3915,
    "▁consists": 3916,
    "ying": 3917,
    "cious": 3918,
    "▁seem": 3919,
    "▁levels": 3920,
    "▁schools": 3921,
    "▁experience": 3922,
    "▁instrument": 3923,
    "di": 3924,
    "Republic": 3925,
    "ye": 3926,
    "First": 3927,
    "mov": 3928,
    "▁Its": 3929,
    "from": 3930,
    "Old": 3931,
    "elt": 3932,
    "Italy": 3933,
    "▁graph": 3934,
    "▁numerous": 3935,
    "Red": 3936,
    "olved": 3937,
    "rgent": 3938,
    "▁health": 3939,
    "BS": 3940,
    "▁percent": 3941,
    "▁controll": 3942,
    "▁cred": 3943,
    "▁literature": 3944,
    "uz": 3945,
    "hesis": 3946,
    "throp": 3947,
    "▁examples": 3948,
    "uba": 3949,
    "▁Dis": 3950,
    "▁rail": 3951,
    "cher": 3952,
    "▁oil": 3953,
    "more": 3954,
    "olor": 3955,
    "vis": 3956,
    "spir": 3957,
    "▁refers": 3958,
    "▁pressure": 3959,
    "▁cat": 3960,
    "▁quite": 3961,
    "Richard": 3962,
    "▁perhaps": 3963,
    "▁perm": 3964,
    "▁context": 3965,
    "▁normal": 3966,
    "iah": 3967,
    "sex": 3968,
    "▁targ": 3969,
    "▁independence": 3970,
    "We": 3971,
    "ambridge": 3972,
    "▁flag": 3973,
    "▁celebr": 3974,
    "▁location": 3975,
    "▁surround": 3976,
    "Ev": 3977,
    "des": 3978,
    "▁mis": 3979,
    "▁Series": 3980,
    "▁serious": 3981,
    "DO": 3982,
    "▁Ill": 3983,
    "▁bro": 3984,
    "▁highest": 3985,
    "nce": 3986,
    "enth": 3987,
    "▁ways": 3988,
    "▁ability": 3989,
    "▁quickly": 3990,
    "agan": 3991,
    "ancial": 3992,
    "oreign": 3993,
    "▁media": 3994,
    "▁creation": 3995,
    "▁interpret": 3996,
    "obox": 3997,
    "▁troops": 3998,
    "cat": 3999,
    "illed": 4000,
    "▁autom": 4001,
    "▁equival": 4002,
    "▁evolution": 4003,
    "cgi": 4004,
    "▁sm": 4005,
    "▁Rome": 4006,
    "uis": 4007,
    "▁something": 4008,
    "rid": 4009,
    "onia": 4010,
    "▁ens": 4011,
    "ordin": 4012,
    "▁older": 4013,
    "▁prevent": 4014,
    "▁elections": 4015,
    "▁lic": 4016,
    "San": 4017,
    "ios": 4018,
    "▁centuries": 4019,
    "uy": 4020,
    "▁Do": 4021,
    "▁Brown": 4022,
    "▁alleg": 4023,
    "▁print": 4024,
    "▁derived": 4025,
    "▁estim": 4026,
    "▁female": 4027,
    "▁performance": 4028,
    "uine": 4029,
    "▁rat": 4030,
    "▁harm": 4031,
    "ocracy": 4032,
    "▁recently": 4033,
    "▁construction": 4034,
    "IV": 4035,
    "▁exact": 4036,
    "Sy": 4037,
    "rack": 4038,
    "▁command": 4039,
    "▁proposed": 4040,
    "Econom": 4041,
    "▁mainly": 4042,
    "▁spread": 4043,
    "sr": 4044,
    "▁behind": 4045,
    "house": 4046,
    "▁equip": 4047,
    "▁noted": 4048,
    "▁organization": 4049,
    "▁possess": 4050,
    "err": 4051,
    "▁properties": 4052,
    "▁poor": 4053,
    "bur": 4054,
    "log": 4055,
    "reaty": 4056,
    "▁diss": 4057,
    "tained": 4058,
    "▁compon": 4059,
    "▁applied": 4060,
    "ava": 4061,
    "Ep": 4062,
    "trans": 4063,
    "▁Organ": 4064,
    "henomen": 4065,
    "▁collect": 4066,
    "Irish": 4067,
    "▁individuals": 4068,
    "exas": 4069,
    "▁von": 4070,
    "▁pattern": 4071,
    "▁authority": 4072,
    "arwin": 4073,
    "unn": 4074,
    "phas": 4075,
    "▁Pres": 4076,
    "Internet": 4077,
    "ervative": 4078,
    "hap": 4079,
    "▁talk": 4080,
    "▁regions": 4081,
    "▁sens": 4082,
    "▁scholars": 4083,
    "▁equal": 4084,
    "atur": 4085,
    "▁recorded": 4086,
    "ampionship": 4087,
    "▁passed": 4088,
    "▁necessary": 4089,
    "▁Vol": 4090,
    "▁cand": 4091,
    "▁demon": 4092,
    "aine": 4093,
    "lymp": 4094,
    "▁cultural": 4095,
    "ctr": 4096,
    "hor": 4097,
    "oa": 4098,
    "del": 4099,
    "oic": 4100,
    "aches": 4101,
    "▁collection": 4102,
    "!!": 4103,
    "June": 4104,
    "emporary": 4105,
    "curity": 4106,
    "▁neigh": 4107,
    "mi": 4108,
    "wide": 4109,
    "▁saf": 4110,
    "▁content": 4111,
    "▁operations": 4112,
    "▁user": 4113,
    "▁versions": 4114,
    "obile": 4115,
    "ira": 4116,
    "aled": 4117,
    "itors": 4118,
    "▁poet": 4119,
    "▁playing": 4120,
    "▁provides": 4121,
    "▁display": 4122,
    "▁Internet": 4123,
    "ntar": 4124,
    "rate": 4125,
    "▁cart": 4126,
    "▁prec": 4127,
    "▁active": 4128,
    "▁mind": 4129,
    "IM": 4130,
    "'':": 4131,
    "▁sus": 4132,
    "ville": 4133,
    "▁seven": 4134,
    "▁forced": 4135,
    "rin": 4136,
    "▁paper": 4137,
    "▁bond": 4138,
    "▁taking": 4139,
    "ube": 4140,
    "▁Wil": 4141,
    "anner": 4142,
    "ungary": 4143,
    "▁faith": 4144,
    "Spanish": 4145,
    "▁distingu": 4146,
    "rk": 4147,
    "also": 4148,
    "orage": 4149,
    "▁electron": 4150,
    "rtic": 4151,
    "ously": 4152,
    "such": 4153,
    "amental": 4154,
    "osm": 4155,
    "▁Life": 4156,
    "▁comes": 4157,
    "▁contract": 4158,
    "▁universe": 4159,
    "▁dead": 4160,
    "mod": 4161,
    "▁plant": 4162,
    "ading": 4163,
    "▁Russia": 4164,
    "fghanistan": 4165,
    "Dan": 4166,
    "▁Lord": 4167,
    "▁stri": 4168,
    "▁parent": 4169,
    "duce": 4170,
    "▁note": 4171,
    "▁Econom": 4172,
    "▁disease": 4173,
    "cest": 4174,
    "eden": 4175,
    "inton": 4176,
    "Michael": 4177,
    "cademy": 4178,
    "urches": 4179,
    "▁techniques": 4180,
    "atab": 4181,
    "▁vow": 4182,
    "▁repe": 4183,
    "▁powers": 4184,
    "▁threat": 4185,
    "▁intended": 4186,
    "Ser": 4187,
    "▁opt": 4188,
    "wa": 4189,
    "▁sem": 4190,
    "▁slow": 4191,
    "▁conver": 4192,
    "▁Pat": 4193,
    "▁rep": 4194,
    "▁via": 4195,
    "▁strateg": 4196,
    "▁performed": 4197,
    "▁sym": 4198,
    "▁Museum": 4199,
    "▁correct": 4200,
    "▁apparent": 4201,
    "oday": 4202,
    "hematical": 4203,
    "▁additional": 4204,
    "Rel": 4205,
    "iger": 4206,
    "arrow": 4207,
    "▁cells": 4208,
    "ographic": 4209,
    "PS": 4210,
    "▁algorith": 4211,
    "▁resources": 4212,
    "mir": 4213,
    "▁ox": 4214,
    "anda": 4215,
    "▁response": 4216,
    "▁How": 4217,
    "▁Holy": 4218,
    "▁sexual": 4219,
    "▁rise": 4220,
    "▁somew": 4221,
    "▁citizens": 4222,
    "bell": 4223,
    "▁Force": 4224,
    "▁needed": 4225,
    "▁reached": 4226,
    "▁publisher": 4227,
    "lean": 4228,
    "▁heavy": 4229,
    "▁spect": 4230,
    "cluding": 4231,
    "▁baseball": 4232,
    "amin": 4233,
    "▁White": 4234,
    "▁river": 4235,
    "imb": 4236,
    "Isl": 4237,
    "▁removed": 4238,
    "▁purpose": 4239,
    "vard": 4240,
    "▁Mor": 4241,
    "▁award": 4242,
    "Med": 4243,
    "netic": 4244,
    "▁foot": 4245,
    "▁synt": 4246,
    "sec": 4247,
    "▁regarded": 4248,
    "▁cast": 4249,
    "ii": 4250,
    "alo": 4251,
    "equ": 4252,
    "▁phot": 4253,
    "▁map": 4254,
    "▁pict": 4255,
    "mann": 4256,
    "ferred": 4257,
    "▁benef": 4258,
    "archy": 4259,
    "inction": 4260,
    "▁reject": 4261,
    "▁direction": 4262,
    "If": 4263,
    "▁cho": 4264,
    "▁drop": 4265,
    "istorical": 4266,
    "▁Of": 4267,
    "Many": 4268,
    "lexand": 4269,
    "ynasty": 4270,
    "▁avoid": 4271,
    "vey": 4272,
    "ryst": 4273,
    "ieties": 4274,
    "nowiki": 4275,
    "osexual": 4276,
    "▁activity": 4277,
    "My": 4278,
    "▁file": 4279,
    "irm": 4280,
    "under": 4281,
    "active": 4282,
    "▁billion": 4283,
    "orporation": 4284,
    "adio": 4285,
    "encies": 4286,
    "▁places": 4287,
    "▁Scotland": 4288,
    "▁progress": 4289,
    "ón": 4290,
    "Book": 4291,
    "agon": 4292,
    "▁allows": 4293,
    "had": 4294,
    "uls": 4295,
    "ottish": 4296,
    "▁writers": 4297,
    "non": 4298,
    "▁lay": 4299,
    "Ste": 4300,
    "enz": 4301,
    "▁Bay": 4302,
    "▁rapid": 4303,
    "▁nations": 4304,
    "▁pun": 4305,
    "▁stage": 4306,
    "▁–": 4307,
    "ova": 4308,
    "▁night": 4309,
    "▁conduct": 4310,
    ":#": 4311,
    "ani": 4312,
    "▁tit": 4313,
    "▁spirit": 4314,
    "ributions": 4315,
    "▁treatment": 4316,
    "mig": 4317,
    "ares": 4318,
    "human": 4319,
    "▁circum": 4320,
    "▁background": 4321,
    "Dis": 4322,
    "▁suc": 4323,
    "rie": 4324,
    "Israel": 4325,
    "▁alphabet": 4326,
    "inem": 4327,
    "inois": 4328,
    "▁depend": 4329,
    "▁comment": 4330,
    "▁construct": 4331,
    "Inf": 4332,
    "▁Fre": 4333,
    "▁conne": 4334,
    "reder": 4335,
    "▁Pers": 4336,
    "itting": 4337,
    "eography": 4338,
    "home": 4339,
    "▁contrast": 4340,
    "rix": 4341,
    "▁oppos": 4342,
    "▁appointed": 4343,
    "enh": 4344,
    "quad": 4345,
    "▁ple": 4346,
    "▁prior": 4347,
    "▁reaction": 4348,
    "Bar": 4349,
    "▁Ep": 4350,
    "angel": 4351,
    "arbon": 4352,
    "▁Francis": 4353,
    "uese": 4354,
    "iform": 4355,
    "aseball": 4356,
    "▁love": 4357,
    "▁actual": 4358,
    "▁volume": 4359,
    "▁suggest": 4360,
    "een": 4361,
    "▁Free": 4362,
    "▁stop": 4363,
    "olumbia": 4364,
    "▁notable": 4365,
    "▁broadcast": 4366,
    "Bi": 4367,
    "zech": 4368,
    "▁conv": 4369,
    "simple": 4370,
    "rec": 4371,
    "uan": 4372,
    "▁Elect": 4373,
    "▁humans": 4374,
    "apse": 4375,
    "ilies": 4376,
    "▁Muslim": 4377,
    "▁Bi": 4378,
    "Pers": 4379,
    "Sam": 4380,
    "ils": 4381,
    "nam": 4382,
    "▁gives": 4383,
    "▁Washington": 4384,
    "ictory": 4385,
    "▁worked": 4386,
    "times": 4387,
    "Soviet": 4388,
    "▁approach": 4389,
    "▁Dutch": 4390,
    "rees": 4391,
    "urity": 4392,
    "iamond": 4393,
    "▁Italy": 4394,
    "▁chief": 4395,
    "uing": 4396,
    "▁middle": 4397,
    "▁unique": 4398,
    "ommission": 4399,
    "bre": 4400,
    "heir": 4401,
    "▁bur": 4402,
    "bgcolor": 4403,
    "ortuguese": 4404,
    "▁ut": 4405,
    "indu": 4406,
    "andard": 4407,
    "▁round": 4408,
    "▁approximately": 4409,
    "occ": 4410,
    "▁Dan": 4411,
    "▁mission": 4412,
    "aven": 4413,
    "ndrew": 4414,
    "▁Public": 4415,
    "dr": 4416,
    "ero": 4417,
    "db": 4418,
    "abs": 4419,
    "real": 4420,
    "▁dim": 4421,
    "aging": 4422,
    "cohol": 4423,
    "▁Ocean": 4424,
    "ansion": 4425,
    "power": 4426,
    "▁Mass": 4427,
    "▁enem": 4428,
    "▁daughter": 4429,
    "alls": 4430,
    "▁conqu": 4431,
    "echnology": 4432,
    "isters": 4433,
    "ione": 4434,
    "▁ult": 4435,
    "abeth": 4436,
    "url": 4437,
    "brew": 4438,
    "Italian": 4439,
    "▁describe": 4440,
    "uten": 4441,
    "▁bank": 4442,
    "ML": 4443,
    "Sch": 4444,
    "osa": 4445,
    "▁batt": 4446,
    "▁motion": 4447,
    "Del": 4448,
    "▁ste": 4449,
    "▁deep": 4450,
    "▁supported": 4451,
    "Mac": 4452,
    "▁Def": 4453,
    "urrent": 4454,
    "▁singer": 4455,
    "iled": 4456,
    "gency": 4457,
    "During": 4458,
    "▁inhab": 4459,
    "▁formal": 4460,
    "oud": 4461,
    "▁Sam": 4462,
    "▁fle": 4463,
    "▁Music": 4464,
    "ek": 4465,
    "amples": 4466,
    "▁bring": 4467,
    "▁compar": 4468,
    "▁carried": 4469,
    "mathematics": 4470,
    "bed": 4471,
    "ully": 4472,
    "▁stated": 4473,
    "▁hundred": 4474,
    "▁race": 4475,
    "ulations": 4476,
    "▁operating": 4477,
    "opes": 4478,
    "Saint": 4479,
    "block": 4480,
    "▁bomb": 4481,
    "▁accur": 4482,
    "tlantic": 4483,
    "▁Football": 4484,
    "▁extremely": 4485,
    "rency": 4486,
    "itable": 4487,
    "▁vehic": 4488,
    "fort": 4489,
    "▁Old": 4490,
    "▁inj": 4491,
    "icted": 4492,
    "▁useful": 4493,
    "▁professional": 4494,
    "rant": 4495,
    "uthors": 4496,
    "▁Eastern": 4497,
    "▁reasons": 4498,
    "▁completely": 4499,
    "▁hous": 4500,
    "ota": 4501,
    "usc": 4502,
    "arts": 4503,
    "apers": 4504,
    "▁virt": 4505,
    "▁speech": 4506,
    "Pal": 4507,
    "ealand": 4508,
    "riculture": 4509,
    "Islam": 4510,
    "inner": 4511,
    "▁running": 4512,
    "▁advant": 4513,
    "▁multiple": 4514,
    "▁BB": 4515,
    "▁share": 4516,
    "▁write": 4517,
    "▁classical": 4518,
    "rat": 4519,
    "usal": 4520,
    "ients": 4521,
    "▁Bible": 4522,
    "▁La": 4523,
    "roat": 4524,
    "▁Service": 4525,
    "▁computers": 4526,
    "Bill": 4527,
    "down": 4528,
    "leph": 4529,
    "ellect": 4530,
    "▁seems": 4531,
    "▁bass": 4532,
    "PP": 4533,
    "life": 4534,
    "eral": 4535,
    "rone": 4536,
    "▁feel": 4537,
    "▁follows": 4538,
    "▁continue": 4539,
    "▁responsible": 4540,
    "▁Haw": 4541,
    "▁stren": 4542,
    "▁figure": 4543,
    "icrosoft": 4544,
    "azi": 4545,
    "oca": 4546,
    "oration": 4547,
    "▁director": 4548,
    "ora": 4549,
    "▁IV": 4550,
    "umin": 4551,
    "hristians": 4552,
    "▁remaining": 4553,
    "▁engineering": 4554,
    "dv": 4555,
    "size": 4556,
    "urban": 4557,
    "▁Direct": 4558,
    "▁joined": 4559,
    "arol": 4560,
    "▁sac": 4561,
    "mitted": 4562,
    "▁slight": 4563,
    "Den": 4564,
    "lic": 4565,
    "|'''&": 4566,
    "▁candid": 4567,
    "▁Dist": 4568,
    "People": 4569,
    "▁users": 4570,
    "ulate": 4571,
    "▁phenomen": 4572,
    "▁theories": 4573,
    "▁difference": 4574,
    "▁sex": 4575,
    "▁farm": 4576,
    "▁usage": 4577,
    "entially": 4578,
    "▁Zealand": 4579,
    "▁distance": 4580,
    "aded": 4581,
    "eless": 4582,
    "anal": 4583,
    "▁news": 4584,
    "▁ask": 4585,
    "omorph": 4586,
    "PL": 4587,
    "▁vote": 4588,
    "comple": 4589,
    "▁freed": 4590,
    "▁branch": 4591,
    "Japanese": 4592,
    "OL": 4593,
    "▁Inc": 4594,
    "▁sil": 4595,
    "odies": 4596,
    "▁else": 4597,
    "▁guitar": 4598,
    "plies": 4599,
    "▁wind": 4600,
    "▁occurs": 4601,
    "▁internal": 4602,
    "big": 4603,
    "coln": 4604,
    "▁format": 4605,
    "igen": 4606,
    "race": 4607,
    "success": 4608,
    "▁actress": 4609,
    "▁Den": 4610,
    "▁resulting": 4611,
    "wid": 4612,
    "▁path": 4613,
    "univers": 4614,
    "▁settlement": 4615,
    "mission": 4616,
    "',": 4617,
    "▁Mount": 4618,
    "▁Mal": 4619,
    "▁fif": 4620,
    "Royal": 4621,
    "inian": 4622,
    "ospel": 4623,
    "▁models": 4624,
    "olt": 4625,
    "ells": 4626,
    "▁San": 4627,
    "ilton": 4628,
    "aria": 4629,
    "bour": 4630,
    "Egypt": 4631,
    "▁hands": 4632,
    "enty": 4633,
    "▁week": 4634,
    "hematic": 4635,
    "▁alternative": 4636,
    "eds": 4637,
    "edic": 4638,
    "olly": 4639,
    "▁weight": 4640,
    "▁powerful": 4641,
    "▁distribution": 4642,
    "▁“": 4643,
    "mosp": 4644,
    "▁Phil": 4645,
    "anet": 4646,
    "oring": 4647,
    "▁dram": 4648,
    "▁carbon": 4649,
    "azz": 4650,
    "oples": 4651,
    "▁reading": 4652,
    "▁records": 4653,
    "▁fast": 4654,
    "▁impact": 4655,
    "▁applications": 4656,
    "po": 4657,
    "ned": 4658,
    "▁lived": 4659,
    "stances": 4660,
    "bel": 4661,
    "▁bit": 4662,
    "▁elev": 4663,
    "▁pack": 4664,
    "▁opposed": 4665,
    "allel": 4666,
    "▁kil": 4667,
    "India": 4668,
    "▁spoken": 4669,
    "stantial": 4670,
    "▁potential": 4671,
    "▁Kn": 4672,
    "bury": 4673,
    "▁mix": 4674,
    "▁phr": 4675,
    "▁ax": 4676,
    "ocks": 4677,
    "▁shot": 4678,
    "▁secret": 4679,
    "bot": 4680,
    "rus": 4681,
    "▁cellpadding": 4682,
    "izes": 4683,
    "works": 4684,
    "▁face": 4685,
    "▁hours": 4686,
    "▁represented": 4687,
    "▁sports": 4688,
    "▁Us": 4689,
    "▁sec": 4690,
    "ception": 4691,
    "aily": 4692,
    "▁sets": 4693,
    "▁turned": 4694,
    "▁spl": 4695,
    "▁songs": 4696,
    "▁somewhat": 4697,
    "cks": 4698,
    "cts": 4699,
    "div": 4700,
    "▁charge": 4701,
    "erem": 4702,
    "osen": 4703,
    "▁fair": 4704,
    "antasy": 4705,
    "ifically": 4706,
    "language": 4707,
    "▁medical": 4708,
    "agg": 4709,
    "ucle": 4710,
    "▁contact": 4711,
    "iro": 4712,
    "isp": 4713,
    "oting": 4714,
    "▁electric": 4715,
    "ault": 4716,
    "▁exists": 4717,
    "▁influenced": 4718,
    "iop": 4719,
    "heat": 4720,
    "bar": 4721,
    "▁Mod": 4722,
    "▁vary": 4723,
    "▁signal": 4724,
    "▁protect": 4725,
    "▁translation": 4726,
    "era": 4727,
    "ancy": 4728,
    "▁activities": 4729,
    "eu": 4730,
    "colspan": 4731,
    "▁online": 4732,
    "ffff": 4733,
    "▁tree": 4734,
    "▁consequ": 4735,
    "sole": 4736,
    "tonic": 4737,
    "▁emphas": 4738,
    "▁previously": 4739,
    "▁easily": 4740,
    "oma": 4741,
    "▁corpor": 4742,
    "▁security": 4743,
    "Peter": 4744,
    "▁behavior": 4745,
    "info": 4746,
    "▁nor": 4747,
    "inces": 4748,
    "place": 4749,
    "ssembly": 4750,
    "▁causes": 4751,
    "▁becoming": 4752,
    "Mal": 4753,
    "osh": 4754,
    "▁ended": 4755,
    "▁ships": 4756,
    "▁Project": 4757,
    "▁decided": 4758,
    "▁Bur": 4759,
    "▁Eth": 4760,
    "▁Mov": 4761,
    "▁Mary": 4762,
    "▁mill": 4763,
    "▁block": 4764,
    "▁finally": 4765,
    "izabeth": 4766,
    "▁device": 4767,
    "▁argument": 4768,
    "▁episode": 4769,
    "▁initial": 4770,
    "oses": 4771,
    "Edward": 4772,
    "▁Under": 4773,
    "velopment": 4774,
    "▁composed": 4775,
    "estant": 4776,
    "lorida": 4777,
    "▁notably": 4778,
    "From": 4779,
    "long": 4780,
    "▁Duke": 4781,
    "atabase": 4782,
    "▁hot": 4783,
    "achus": 4784,
    "▁consum": 4785,
    "▁native": 4786,
    "▁despite": 4787,
    "▁lif": 4788,
    "uinea": 4789,
    "den": 4790,
    "sper": 4791,
    "▁Love": 4792,
    "▁brief": 4793,
    "▁Street": 4794,
    "▁signed": 4795,
    "mericans": 4796,
    "ante": 4797,
    "▁ones": 4798,
    "hile": 4799,
    "▁board": 4800,
    "▁mentioned": 4801,
    "ри": 4802,
    "nton": 4803,
    "▁reve": 4804,
    "umn": 4805,
    "▁rot": 4806,
    "▁Prov": 4807,
    "abyl": 4808,
    "kins": 4809,
    "▁attempts": 4810,
    "▁teams": 4811,
    "Emperor": 4812,
    "fess": 4813,
    "▁Mark": 4814,
    "▁failed": 4815,
    "estament": 4816,
    "yes": 4817,
    "agram": 4818,
    "hristmas": 4819,
    "▁eastern": 4820,
    "etts": 4821,
    "uddh": 4822,
    "ewton": 4823,
    "Western": 4824,
    "ederation": 4825,
    "yond": 4826,
    "▁flow": 4827,
    "onvention": 4828,
    "▁Bow": 4829,
    "orders": 4830,
    "▁review": 4831,
    "▁condition": 4832,
    "claim": 4833,
    "▁views": 4834,
    "▁arrang": 4835,
    "▁musical": 4836,
    "dem": 4837,
    "ety": 4838,
    "after": 4839,
    "called": 4840,
    "actions": 4841,
    "ermanic": 4842,
    "▁attacks": 4843,
    "▁federal": 4844,
    "▁su": 4845,
    "▁win": 4846,
    "aters": 4847,
    "▁rank": 4848,
    "▁friend": 4849,
    "▁Just": 4850,
    "▁capac": 4851,
    "igan": 4852,
    "▁empire": 4853,
    "opy": 4854,
    "poss": 4855,
    "▁Bank": 4856,
    "▁miles": 4857,
    "▁beyond": 4858,
    "▁topics": 4859,
    "pa": 4860,
    "ан": 4861,
    "Special": 4862,
    "VD": 4863,
    "mus": 4864,
    "ril": 4865,
    "stra": 4866,
    "▁Secret": 4867,
    "War": 4868,
    "poses": 4869,
    "▁reign": 4870,
    "▁belong": 4871,
    "JP": 4872,
    "lfred": 4873,
    "▁Found": 4874,
    "overnor": 4875,
    "science": 4876,
    "▁succeed": 4877,
    "▁appearance": 4878,
    "▁equivalent": 4879,
    "pat": 4880,
    "ockey": 4881,
    "▁allowing": 4882,
    "andom": 4883,
    "hetic": 4884,
    "itzer": 4885,
    "ottom": 4886,
    "▁doctr": 4887,
    "▁favor": 4888,
    "▁friends": 4889,
    "▁featured": 4890,
    "▁heat": 4891,
    "▁People": 4892,
    "ologists": 4893,
    "▁equipment": 4894,
    "▁operation": 4895,
    "iring": 4896,
    "▁fuel": 4897,
    "ibl": 4898,
    "▁Sun": 4899,
    "▁flu": 4900,
    "▁hor": 4901,
    "etics": 4902,
    "▁target": 4903,
    "▁solution": 4904,
    "DE": 4905,
    "SE": 4906,
    "Sim": 4907,
    "gian": 4908,
    "uide": 4909,
    "linton": 4910,
    "▁giving": 4911,
    "▁screen": 4912,
    "ules": 4913,
    "Russia": 4914,
    "▁charg": 4915,
    "▁declared": 4916,
    "▁IMP": 4917,
    "▁dark": 4918,
    "Bal": 4919,
    "gam": 4920,
    "commun": 4921,
    "▁kingdom": 4922,
    "width": 4923,
    "▁doll": 4924,
    "▁compared": 4925,
    "▁standards": 4926,
    "▁industrial": 4927,
    "▁Ste": 4928,
    "▁vill": 4929,
    "▁track": 4930,
    "▁astron": 4931,
    "onversion": 4932,
    "hief": 4933,
    "hree": 4934,
    "mond": 4935,
    "wing": 4936,
    "▁Jud": 4937,
    "▁disk": 4938,
    "eorgia": 4939,
    "▁drive": 4940,
    "▁wood": 4941,
    "▁focus": 4942,
    "▁immediately": 4943,
    "▁Ver": 4944,
    "cules": 4945,
    "iated": 4946,
    "udaism": 4947,
    "▁micro": 4948,
    "▁blue": 4949,
    "▁meant": 4950,
    "Francis": 4951,
    "▁centre": 4952,
    "▁financial": 4953,
    "empl": 4954,
    "minus": 4955,
    "▁Iraq": 4956,
    "▁critic": 4957,
    "▁replace": 4958,
    "▁entirely": 4959,
    "iny": 4960,
    "igin": 4961,
    "zant": 4962,
    "▁presence": 4963,
    "▁differences": 4964,
    "print": 4965,
    "spacing": 4966,
    "▁argued": 4967,
    "▁efforts": 4968,
    "lub": 4969,
    "libr": 4970,
    "▁Hill": 4971,
    "ellite": 4972,
    "▁moving": 4973,
    "▁proved": 4974,
    "ictional": 4975,
    "hall": 4976,
    "onym": 4977,
    "stract": 4978,
    "onc": 4979,
    "rig": 4980,
    "anto": 4981,
    "▁Boy": 4982,
    "nia": 4983,
    "ommunity": 4984,
    "▁Because": 4985,
    "▁quality": 4986,
    "alvin": 4987,
    "▁fully": 4988,
    "sil": 4989,
    "▁requires": 4990,
    "▁Wikipedia": 4991,
    "▁principle": 4992,
    "foot": 4993,
    "achusetts": 4994,
    "cd": 4995,
    "oment": 4996,
    "usalem": 4997,
    "wealth": 4998,
    "▁announced": 4999,
    "oast": 5000,
    "angle": 5001,
    "▁goal": 5002,
    "ortugal": 5003,
    "▁risk": 5004,
    "▁encour": 5005,
    "polytonic": 5006,
    "▁agreement": 5007,
    "▁revolution": 5008,
    "iling": 5009,
    "erusalem": 5010,
    "▁Language": 5011,
    "jo": 5012,
    "ging": 5013,
    "alpha": 5014,
    "ст": 5015,
    "adium": 5016,
    "▁crew": 5017,
    "▁council": 5018,
    "▁Department": 5019,
    "force": 5020,
    "▁Ford": 5021,
    "▁dang": 5022,
    "▁Louis": 5023,
    "▁algebra": 5024,
    "▁earliest": 5025,
    "▁occasion": 5026,
    "▁organizations": 5027,
    "Bob": 5028,
    "You": 5029,
    "Spain": 5030,
    "▁Disc": 5031,
    "▁oppon": 5032,
    "akistan": 5033,
    "▁constit": 5034,
    "▁expected": 5035,
    "▁opposition": 5036,
    "ragon": 5037,
    "ellectual": 5038,
    "pass": 5039,
    "▁Bal": 5040,
    "▁Olymp": 5041,
    "▁scale": 5042,
    "▁serve": 5043,
    "gium": 5044,
    "ogen": 5045,
    "Louis": 5046,
    "▁conson": 5047,
    "▁demonstr": 5048,
    "▁vic": 5049,
    "instein": 5050,
    "▁cellspacing": 5051,
    "va": 5052,
    "zen": 5053,
    "alax": 5054,
    "ping": 5055,
    "eters": 5056,
    "econom": 5057,
    "etwork": 5058,
    "▁situation": 5059,
    "▁gram": 5060,
    "▁combined": 5061,
    "ba": 5062,
    "phi": 5063,
    "keley": 5064,
    "Di": 5065,
    "nat": 5066,
    "run": 5067,
    "Most": 5068,
    "oven": 5069,
    "▁`": 5070,
    "rock": 5071,
    "▁runs": 5072,
    "▁incorpor": 5073,
    "▁starting": 5074,
    "ois": 5075,
    "▁row": 5076,
    "▁rough": 5077,
    "▁unc": 5078,
    "ommittee": 5079,
    "▁unknown": 5080,
    "▁IP": 5081,
    "eeee": 5082,
    "▁Dou": 5083,
    "exico": 5084,
    "▁peoples": 5085,
    "Reg": 5086,
    "even": 5087,
    "teen": 5088,
    "▁''&": 5089,
    "named": 5090,
    "▁van": 5091,
    "overs": 5092,
    "▁ruled": 5093,
    "▁prison": 5094,
    "▁search": 5095,
    "anning": 5096,
    "erved": 5097,
    "ieval": 5098,
    "tical": 5099,
    "▁Film": 5100,
    "rative": 5101,
    "▁Hebrew": 5102,
    "▁suggested": 5103,
    "!&": 5104,
    "vement": 5105,
    "▁going": 5106,
    "utomated": 5107,
    "bf": 5108,
    "▁infin": 5109,
    "▁flight": 5110,
    "population": 5111,
    "▁otherwise": 5112,
    "sey": 5113,
    "everal": 5114,
    "ribute": 5115,
    "▁gained": 5116,
    "Free": 5117,
    "Mark": 5118,
    "ogue": 5119,
    "▁Human": 5120,
    "▁Robert": 5121,
    "▁growing": 5122,
    "▁Illinois": 5123,
    "▁critical": 5124,
    "III": 5125,
    "but": 5126,
    "rog": 5127,
    "enger": 5128,
    "▁fans": 5129,
    "▁marriage": 5130,
    "zero": 5131,
    "igion": 5132,
    "▁fell": 5133,
    "ilding": 5134,
    "stream": 5135,
    "▁Jones": 5136,
    "▁stars": 5137,
    "▁debate": 5138,
    "▁reduced": 5139,
    "▁references": 5140,
    "Sem": 5141,
    "ika": 5142,
    "▁Rail": 5143,
    "▁woman": 5144,
    "▁communities": 5145,
    "▁plants": 5146,
    "▁possibly": 5147,
    "uris": 5148,
    "▁aim": 5149,
    "▁domestic": 5150,
    "▁occurred": 5151,
    "ito": 5152,
    "joy": 5153,
    "▁ath": 5154,
    "black": 5155,
    "▁stra": 5156,
    "DF": 5157,
    "lab": 5158,
    "eltic": 5159,
    "ructure": 5160,
    "▁fields": 5161,
    "ader": 5162,
    "hand": 5163,
    "Prime": 5164,
    "aling": 5165,
    "ening": 5166,
    "▁burn": 5167,
    "Eastern": 5168,
    "▁inside": 5169,
    "▁Johnson": 5170,
    "▁discussion": 5171,
    "Fin": 5172,
    "din": 5173,
    "burgh": 5174,
    "▁Both": 5175,
    "▁Part": 5176,
    "ologist": 5177,
    "▁weapons": 5178,
    "nline": 5179,
    "▁adult": 5180,
    "▁brain": 5181,
    "ady": 5182,
    "▁ice": 5183,
    "ometry": 5184,
    "gif": 5185,
    "▁Leg": 5186,
    "ilbert": 5187,
    "▁choice": 5188,
    "▁factors": 5189,
    "▁magazine": 5190,
    "arib": 5191,
    "Second": 5192,
    "▁match": 5193,
    "▁criticism": 5194,
    "▁recognized": 5195,
    "▁'''''": 5196,
    "▁effective": 5197,
    "iable": 5198,
    "eld": 5199,
    "ura": 5200,
    "▁Oxford": 5201,
    "▁calendar": 5202,
    "igious": 5203,
    "▁technique": 5204,
    "▁containing": 5205,
    "Flag": 5206,
    "▁limit": 5207,
    "▁Berlin": 5208,
    "▁copyright": 5209,
    "▁contemporary": 5210,
    "doc": 5211,
    "▁answ": 5212,
    "▁Books": 5213,
    "▁purch": 5214,
    "Military": 5215,
    "▁stations": 5216,
    "sian": 5217,
    "Bas": 5218,
    "ette": 5219,
    "yper": 5220,
    "▁feet": 5221,
    "▁says": 5222,
    "▁Paris": 5223,
    "bbc": 5224,
    "oat": 5225,
    "hild": 5226,
    "aints": 5227,
    "alile": 5228,
    "▁actions": 5229,
    "gg": 5230,
    "Mat": 5231,
    "city": 5232,
    "▁bal": 5233,
    "emale": 5234,
    "otion": 5235,
    "▁myth": 5236,
    "▁cycle": 5237,
    "▁heart": 5238,
    "▁newsp": 5239,
    "ciation": 5240,
    "▁attract": 5241,
    "▁materials": 5242,
    "oured": 5243,
    "▁Open": 5244,
    "▁Research": 5245,
    "▁sequence": 5246,
    "▁Organization": 5247,
    "type": 5248,
    "▁families": 5249,
    "▁determined": 5250,
    "▁hero": 5251,
    "▁alone": 5252,
    "▁closely": 5253,
    "▁completed": 5254,
    "▁connected": 5255,
    "iplom": 5256,
    "ceived": 5257,
    "▁income": 5258,
    "▁emperor": 5259,
    "▁management": 5260,
    "▁hop": 5261,
    "▁classes": 5262,
    "▁victory": 5263,
    "owa": 5264,
    "Jean": 5265,
    "With": 5266,
    "▁parliament": 5267,
    "asa": 5268,
    "deg": 5269,
    "riz": 5270,
    "ruit": 5271,
    "▁Royal": 5272,
    "ologies": 5273,
    "illy": 5274,
    "mong": 5275,
    "rank": 5276,
    "spired": 5277,
    "▁grand": 5278,
    "▁animal": 5279,
    "▁relative": 5280,
    "▁attention": 5281,
    "▁expansion": 5282,
    "▁introduction": 5283,
    "Iran": 5284,
    "avis": 5285,
    "ffic": 5286,
    "isted": 5287,
    "▁politics": 5288,
    "▁combination": 5289,
    "tari": 5290,
    "including": 5291,
    "▁Information": 5292,
    "▁application": 5293,
    "eto": 5294,
    "ctors": 5295,
    "▁equation": 5296,
    "▁training": 5297,
    "▁Spe": 5298,
    "eline": 5299,
    "heast": 5300,
    "▁Univers": 5301,
    "▁advanced": 5302,
    "▁greatest": 5303,
    "stub": 5304,
    "atman": 5305,
    "ifying": 5306,
    "▁argue": 5307,
    "ression": 5308,
    "▁Finland": 5309,
    "ewis": 5310,
    "inus": 5311,
    "ephen": 5312,
    "▁Over": 5313,
    "▁gold": 5314,
    "▁Queen": 5315,
    "▁extensive": 5316,
    "Joseph": 5317,
    "▁extra": 5318,
    "▁domain": 5319,
    "ommonwealth": 5320,
    "ager": 5321,
    "link": 5322,
    "▁Sub": 5323,
    "odore": 5324,
    "▁extended": 5325,
    "PU": 5326,
    "Pop": 5327,
    "▁mut": 5328,
    "▁sort": 5329,
    "Eth": 5330,
    "uisine": 5331,
    "▁damage": 5332,
    "▁marked": 5333,
    "▁Program": 5334,
    "▁positive": 5335,
    "▁Democratic": 5336,
    "▁popularity": 5337,
    "bin": 5338,
    "cor": 5339,
    "▁Peter": 5340,
    "▁protection": 5341,
    "she": 5342,
    "▁external": 5343,
    "ao": 5344,
    "vest": 5345,
    "ishes": 5346,
    "▁Prime": 5347,
    "▁sites": 5348,
    "articles": 5349,
    "▁slightly": 5350,
    "▁architecture": 5351,
    "▁Social": 5352,
    "▁churches": 5353,
    "acher": 5354,
    "uated": 5355,
    "Russian": 5356,
    "ungarian": 5357,
    "▁Library": 5358,
    "▁Official": 5359,
    "blockquote": 5360,
    "▁kept": 5361,
    "plicit": 5362,
    "cription": 5363,
    "km": 5364,
    "aved": 5365,
    "uther": 5366,
    "án": 5367,
    "stat": 5368,
    "▁administration": 5369,
    "rot": 5370,
    "andon": 5371,
    "person": 5372,
    "▁Brazil": 5373,
    "Leg": 5374,
    "Min": 5375,
    "ouch": 5376,
    "ership": 5377,
    "▁Martin": 5378,
    "▁entered": 5379,
    "▁resulted": 5380,
    "pi": 5381,
    "adel": 5382,
    "Heb": 5383,
    "▁advoc": 5384,
    "library": 5385,
    "▁Virgin": 5386,
    "▁forest": 5387,
    "▁perman": 5388,
    "▁structures": 5389,
    "irds": 5390,
    "iller": 5391,
    "ummer": 5392,
    "flagicon": 5393,
    "▁composer": 5394,
    "▁directed": 5395,
    "▁maintain": 5396,
    "anes": 5397,
    "▁apply": 5398,
    "▁enter": 5399,
    "▁climate": 5400,
    "▁offered": 5401,
    "ygen": 5402,
    "estival": 5403,
    "rgentina": 5404,
    "▁continues": 5405,
    "pir": 5406,
    "▁emb": 5407,
    "errit": 5408,
    "▁Stat": 5409,
    "▁entry": 5410,
    "sky": 5411,
    "ensions": 5412,
    "▁details": 5413,
    "▁attempted": 5414,
    "frame": 5415,
    "urkey": 5416,
    "ollowing": 5417,
    "▁understanding": 5418,
    "▁quot": 5419,
    "▁holds": 5420,
    "▁advantage": 5421,
    "mo": 5422,
    "rupt": 5423,
    "onst": 5424,
    "While": 5425,
    "omput": 5426,
    "abylon": 5427,
    "▁string": 5428,
    "▁province": 5429,
    "▁destroyed": 5430,
    "inth": 5431,
    "uate": 5432,
    "▁Bul": 5433,
    "contin": 5434,
    "atically": 5435,
    "SS": 5436,
    "▁fixed": 5437,
    "ocation": 5438,
    "▁importance": 5439,
    "Bah": 5440,
    "Prot": 5441,
    "ommons": 5442,
    "▁devices": 5443,
    "▁figures": 5444,
    "gr": 5445,
    "▁ec": 5446,
    "pers": 5447,
    "▁ancest": 5448,
    "Pope": 5449,
    "▁Dev": 5450,
    "▁pure": 5451,
    "▁Modern": 5452,
    "▁Windows": 5453,
    "▁algorithm": 5454,
    "▁increasingly": 5455,
    "dec": 5456,
    "▁shall": 5457,
    "▁custom": 5458,
    "▁Rob": 5459,
    "movie": 5460,
    "▁chall": 5461,
    "▁digital": 5462,
    "aa": 5463,
    "iano": 5464,
    "▁road": 5465,
    "▁ft": 5466,
    "High": 5467,
    "imin": 5468,
    "▁Lab": 5469,
    "Dutch": 5470,
    "urkish": 5471,
    "▁nothing": 5472,
    "▁existing": 5473,
    "Film": 5474,
    "first": 5475,
    "uster": 5476,
    "▁scene": 5477,
    "▁identity": 5478,
    "uard": 5479,
    "▁frequency": 5480,
    "▁officially": 5481,
    "yg": 5482,
    "bal": 5483,
    "▁begins": 5484,
    "hampionship": 5485,
    "pp": 5486,
    "edish": 5487,
    "natural": 5488,
    "▁factor": 5489,
    "▁defeated": 5490,
    "▁estimated": 5491,
    "hol": 5492,
    "ruce": 5493,
    "▁Even": 5494,
    "▁inde": 5495,
    "allery": 5496,
    "▁experim": 5497,
    "▁processes": 5498,
    "Don": 5499,
    "etary": 5500,
    "▁acts": 5501,
    "▁notes": 5502,
    "▁category": 5503,
    "▁du": 5504,
    "▁dig": 5505,
    "number": 5506,
    "▁plays": 5507,
    "▁helped": 5508,
    "▁inform": 5509,
    "car": 5510,
    "char": 5511,
    "▁dog": 5512,
    "▁cards": 5513,
    "▁carry": 5514,
    "▁extent": 5515,
    "national": 5516,
    "▁invasion": 5517,
    "nal": 5518,
    "ften": 5519,
    "▁maxim": 5520,
    "riedrich": 5521,
    "Hel": 5522,
    "▁Rom": 5523,
    "entre": 5524,
    "urder": 5525,
    "Dr": 5526,
    "aph": 5527,
    "crete": 5528,
    "orway": 5529,
    "redirect": 5530,
    "▁authors": 5531,
    "▁reflect": 5532,
    "▁theorem": 5533,
    "▁buildings": 5534,
    "▁prominent": 5535,
    "?&": 5536,
    "ра": 5537,
    "Pat": 5538,
    "fix": 5539,
    "oes": 5540,
    "▁Ben": 5541,
    "▁coal": 5542,
    "▁Wales": 5543,
    "▁needs": 5544,
    "vol": 5545,
    "▁Jr": 5546,
    "▁aid": 5547,
    "stone": 5548,
    "hannel": 5549,
    "▁horse": 5550,
    "Politics": 5551,
    "▁kilomet": 5552,
    "▁formation": 5553,
    "PR": 5554,
    "arden": 5555,
    "orough": 5556,
    "▁Pacific": 5557,
    "lv": 5558,
    "▁pp": 5559,
    "▁bad": 5560,
    "▁opin": 5561,
    "ecution": 5562,
    "hio": 5563,
    "▁adj": 5564,
    "▁pil": 5565,
    "shtml": 5566,
    "hester": 5567,
    "Ham": 5568,
    "uter": 5569,
    "akers": 5570,
    "▁suit": 5571,
    "▁agreed": 5572,
    "rust": 5573,
    "ngeles": 5574,
    "olorado": 5575,
    "▁images": 5576,
    "cf": 5577,
    "rawn": 5578,
    "▁shoot": 5579,
    "▁texts": 5580,
    "However": 5581,
    "itarian": 5582,
    "▁output": 5583,
    "Big": 5584,
    "iler": 5585,
    "unicip": 5586,
    "▁decades": 5587,
    "▁experiment": 5588,
    "aes": 5589,
    "fully": 5590,
    "▁roll": 5591,
    "▁decre": 5592,
    "related": 5593,
    "▁minister": 5594,
    "▁negative": 5595,
    "▁positions": 5596,
    "kin": 5597,
    "lem": 5598,
    "about": 5599,
    "Middle": 5600,
    "▁effort": 5601,
    "lassical": 5602,
    "▁bul": 5603,
    "rison": 5604,
    "▁Bill": 5605,
    "▁league": 5606,
    "▁ign": 5607,
    "anges": 5608,
    "rticle": 5609,
    "▁green": 5610,
    "▁sides": 5611,
    "fri": 5612,
    "pol": 5613,
    "mouth": 5614,
    "▁grav": 5615,
    "▁categ": 5616,
    "▁illust": 5617,
    "mad": 5618,
    "▁sun": 5619,
    "hical": 5620,
    "▁legend": 5621,
    "▁scientists": 5622,
    "▁description": 5623,
    "ogle": 5624,
    "itness": 5625,
    "▁defense": 5626,
    "▁liberal": 5627,
    "▁statement": 5628,
    "wan": 5629,
    "rave": 5630,
    "▁why": 5631,
    "ustrian": 5632,
    "▁convent": 5633,
    "Early": 5634,
    "▁Phys": 5635,
    "▁doub": 5636,
    "▁expressed": 5637,
    "Bo": 5638,
    "legal": 5639,
    "Indian": 5640,
    "▁Engine": 5641,
    "▁ethnic": 5642,
    "▁identified": 5643,
    "BR": 5644,
    "bd": 5645,
    "ker": 5646,
    "▁traditions": 5647,
    "▁controversy": 5648,
    "acc": 5649,
    "▁Such": 5650,
    "▁aspects": 5651,
    "icks": 5652,
    "ongo": 5653,
    "ample": 5654,
    "▁heavily": 5655,
    "▁governments": 5656,
    "ees": 5657,
    "aming": 5658,
    "▁Land": 5659,
    "ackson": 5660,
    "▁reach": 5661,
    "▁fourth": 5662,
    "▁square": 5663,
    "igration": 5664,
    "▁mythology": 5665,
    "▁Hong": 5666,
    "▁artist": 5667,
    "▁closed": 5668,
    "▁specifically": 5669,
    "▁toward": 5670,
    "ommunist": 5671,
    "▁receive": 5672,
    "ographics": 5673,
    "kh": 5674,
    "eler": 5675,
    "game": 5676,
    "Since": 5677,
    "▁labor": 5678,
    "▁opened": 5679,
    "▁proced": 5680,
    "▁wealth": 5681,
    "▁student": 5682,
    "▁observed": 5683,
    "idae": 5684,
    "▁cod": 5685,
    "irport": 5686,
    "▁enjoy": 5687,
    "▁lives": 5688,
    "▁atmosp": 5689,
    "▁presented": 5690,
    "ogg": 5691,
    "ciences": 5692,
    "anta": 5693,
    "site": 5694,
    "▁frame": 5695,
    "▁exchange": 5696,
    "▁respectively": 5697,
    "Me": 5698,
    "mal": 5699,
    "▁job": 5700,
    "▁Each": 5701,
    "uar": 5702,
    "▁url": 5703,
    "ograp": 5704,
    "mult": 5705,
    "▁arms": 5706,
    "▁Young": 5707,
    "▁supply": 5708,
    "cientific": 5709,
    "▁mathematics": 5710,
    "▁institutions": 5711,
    "fish": 5712,
    "ashion": 5713,
    "braham": 5714,
    "▁storage": 5715,
    "▁thousands": 5716,
    "▁controversial": 5717,
    "User": 5718,
    "▁Year": 5719,
    "ichigan": 5720,
    "▁Palest": 5721,
    "▁beliefs": 5722,
    "▁transform": 5723,
    "▁big": 5724,
    "▁simpl": 5725,
    "▁greatly": 5726,
    "▁fundamental": 5727,
    "sen": 5728,
    "▁Far": 5729,
    "▁Ret": 5730,
    "uration": 5731,
    "▁continuous": 5732,
    "ila": 5733,
    "map": 5734,
    "host": 5735,
    "▁pal": 5736,
    "▁vast": 5737,
    "▁moment": 5738,
    "▁artists": 5739,
    "▁creating": 5740,
    "▁redirect": 5741,
    "lad": 5742,
    "▁Senate": 5743,
    "▁critics": 5744,
    "How": 5745,
    "tra": 5746,
    "▁drink": 5747,
    "▁sport": 5748,
    "ativity": 5749,
    "football": 5750,
    "aby": 5751,
    "ivia": 5752,
    "Hebrew": 5753,
    "Wik": 5754,
    "aka": 5755,
    "bean": 5756,
    "▁fan": 5757,
    "omple": 5758,
    "onesia": 5759,
    "▁voice": 5760,
    "ducation": 5761,
    "▁formula": 5762,
    "▁typical": 5763,
    "▁considerable": 5764,
    "Lin": 5765,
    "rial": 5766,
    "ublin": 5767,
    "▁Second": 5768,
    "rictions": 5769,
    "ré": 5770,
    "aic": 5771,
    "roc": 5772,
    "▁Iran": 5773,
    "▁label": 5774,
    "▁Darwin": 5775,
    "▁parallel": 5776,
    "erg": 5777,
    "neg": 5778,
    "eeks": 5779,
    "spec": 5780,
    "inema": 5781,
    "overe": 5782,
    "▁Later": 5783,
    "clusion": 5784,
    "▁channel": 5785,
    "▁freedom": 5786,
    "▁inhabit": 5787,
    "Rec": 5788,
    "aac": 5789,
    "▁Way": 5790,
    "apole": 5791,
    "argin": 5792,
    "▁want": 5793,
    "▁logic": 5794,
    "disambiguation": 5795,
    "ISB": 5796,
    "opher": 5797,
    "▁Space": 5798,
    "Univers": 5799,
    "lig": 5800,
    "irus": 5801,
    "▁goods": 5802,
    "Jim": 5803,
    "iat": 5804,
    "alty": 5805,
    "stood": 5806,
    "▁Bush": 5807,
    "▁Publ": 5808,
    "▁warm": 5809,
    "Jewish": 5810,
    "▁input": 5811,
    "onstantin": 5812,
    "Met": 5813,
    "andy": 5814,
    "ctic": 5815,
    "▁weak": 5816,
    "▁abandon": 5817,
    "Rever": 5818,
    "▁purs": 5819,
    "▁manner": 5820,
    "obe": 5821,
    "▁Fe": 5822,
    "ormal": 5823,
    "capital": 5824,
    "▁raised": 5825,
    "ello": 5826,
    "▁Kore": 5827,
    "▁hypot": 5828,
    "ansas": 5829,
    "antic": 5830,
    "ontin": 5831,
    "▁grew": 5832,
    "flation": 5833,
    "▁concepts": 5834,
    "IR": 5835,
    "ngl": 5836,
    "ylv": 5837,
    "rics": 5838,
    "atform": 5839,
    "ji": 5840,
    "mes": 5841,
    "ques": 5842,
    "laska": 5843,
    "▁spent": 5844,
    "▁controlled": 5845,
    "▁processing": 5846,
    "sq": 5847,
    "enses": 5848,
    "social": 5849,
    "stance": 5850,
    "▁instrum": 5851,
    "▁relation": 5852,
    "jan": 5853,
    "dess": 5854,
    "▁strip": 5855,
    "▁withd": 5856,
    "raf": 5857,
    "▁Bre": 5858,
    "osing": 5859,
    "perors": 5860,
    "▁leave": 5861,
    "▁minutes": 5862,
    "▁connection": 5863,
    "▁instruments": 5864,
    "▁Bu": 5865,
    "itic": 5866,
    "acteria": 5867,
    "▁summer": 5868,
    "▁Further": 5869,
    "▁regional": 5870,
    "oir": 5871,
    "Star": 5872,
    "arus": 5873,
    "▁upper": 5874,
    "▁Middle": 5875,
    "▁Security": 5876,
    "▁purposes": 5877,
    "Dou": 5878,
    "appe": 5879,
    "SP": 5880,
    "agen": 5881,
    "anti": 5882,
    "heme": 5883,
    "risis": 5884,
    "olecular": 5885,
    "▁physics": 5886,
    "▁sufficient": 5887,
    "alse": 5888,
    "etroit": 5889,
    "▁intelligence": 5890,
    "ен": 5891,
    "maz": 5892,
    "elve": 5893,
    "glas": 5894,
    "mail": 5895,
    "▁Mil": 5896,
    "▁academ": 5897,
    "▁policies": 5898,
    "rome": 5899,
    "oeing": 5900,
    "▁stay": 5901,
    "▁cultures": 5902,
    "She": 5903,
    "auc": 5904,
    "ogy": 5905,
    "lark": 5906,
    "lease": 5907,
    "rence": 5908,
    "▁union": 5909,
    "??": 5910,
    "House": 5911,
    "▁tribes": 5912,
    "DD": 5913,
    "olon": 5914,
    "▁Bob": 5915,
    "▁shape": 5916,
    "program": 5917,
    "▁bus": 5918,
    "▁nob": 5919,
    "ervation": 5920,
    "▁leaving": 5921,
    "▁Standard": 5922,
    "orb": 5923,
    "altar": 5924,
    "icode": 5925,
    "entury": 5926,
    "▁chosen": 5927,
    "▁strength": 5928,
    "Euro": 5929,
    "disc": 5930,
    "▁Miss": 5931,
    "▁Port": 5932,
    "▁atoms": 5933,
    "▁wanted": 5934,
    "▁normally": 5935,
    "agement": 5936,
    "ificial": 5937,
    "def": 5938,
    "idden": 5939,
    "▁Wood": 5940,
    "▁asked": 5941,
    "▁tried": 5942,
    "▁characteristics": 5943,
    "nth": 5944,
    "sur": 5945,
    "ylan": 5946,
    "urisd": 5947,
    "▁glass": 5948,
    "▁dut": 5949,
    "▁appropri": 5950,
    "▁hab": 5951,
    "Human": 5952,
    "▁lingu": 5953,
    "cu": 5954,
    "▁Out": 5955,
    "▁die": 5956,
    "olute": 5957,
    "▁pair": 5958,
    "zantine": 5959,
    "standing": 5960,
    "▁college": 5961,
    "▁someone": 5962,
    "▁Sir": 5963,
    "alter": 5964,
    "▁Kenn": 5965,
    "▁Poland": 5966,
    "▁failure": 5967,
    "ка": 5968,
    "iser": 5969,
    "otor": 5970,
    "▁defeat": 5971,
    "▁nuclear": 5972,
    "▁describes": 5973,
    "SO": 5974,
    "His": 5975,
    "low": 5976,
    "pet": 5977,
    "umm": 5978,
    "uto": 5979,
    "fare": 5980,
    "iants": 5981,
    "omics": 5982,
    "author": 5983,
    "Sub": 5984,
    "rapy": 5985,
    "▁Bra": 5986,
    "▁bodies": 5987,
    "▁dynasty": 5988,
    "ricultural": 5989,
    "▁regarding": 5990,
    "Res": 5991,
    "story": 5992,
    "▁territories": 5993,
    "▁presidential": 5994,
    "▁traditionally": 5995,
    "room": 5996,
    "▁Mem": 5997,
    "pread": 5998,
    "common": 5999,
    "ducing": 6000,
    "▁exclus": 6001,
    "▁explos": 6002,
    "▁Richard": 6003,
    "▁speakers": 6004,
    "▁determine": 6005,
    "▁initially": 6006,
    "▁leadership": 6007,
    "▁principles": 6008,
    "▁competition": 6009,
    "ransportation": 6010,
    "isf": 6011,
    "uted": 6012,
    "▁Wall": 6013,
    "▁Islamic": 6014,
    "▁writings": 6015,
    "▁subsequent": 6016,
    "▁Mont": 6017,
    "▁prep": 6018,
    "▁violence": 6019,
    "▁generation": 6020,
    "wer": 6021,
    "▁il": 6022,
    "▁told": 6023,
    "▁comic": 6024,
    "olumbus": 6025,
    "chem": 6026,
    "▁Sur": 6027,
    "▁armed": 6028,
    "olomb": 6029,
    "▁inspired": 6030,
    "▁technical": 6031,
    "▁launched": 6032,
    "▁soldiers": 6033,
    "heim": 6034,
    "border": 6035,
    "▁Online": 6036,
    "▁assert": 6037,
    "ibraltar": 6038,
    "▁hardware": 6039,
    "▁Foundation": 6040,
    "nti": 6041,
    "gment": 6042,
    "▁fish": 6043,
    "▁opening": 6044,
    "utt": 6045,
    "hird": 6046,
    "▁goes": 6047,
    "▁combat": 6048,
    "▁twenty": 6049,
    "▁depending": 6050,
    "det": 6051,
    "▁kg": 6052,
    "emin": 6053,
    "▁global": 6054,
    "▁descend": 6055,
    "lexandria": 6056,
    "▁musician": 6057,
    "RI": 6058,
    "sa": 6059,
    "olis": 6060,
    "rmen": 6061,
    "rose": 6062,
    "reedom": 6063,
    "▁interpretation": 6064,
    "ancing": 6065,
    "▁annual": 6066,
    "vo": 6067,
    "sid": 6068,
    "riev": 6069,
    "▁Rock": 6070,
    "▁invent": 6071,
    "▁representation": 6072,
    "ilk": 6073,
    "aneous": 6074,
    "possible": 6075,
    "▁electronic": 6076,
    "hop": 6077,
    "What": 6078,
    "itler": 6079,
    "ouston": 6080,
    "▁prime": 6081,
    "▁insert": 6082,
    "▁master": 6083,
    "leveland": 6084,
    "▁repeated": 6085,
    "lat": 6086,
    "ums": 6087,
    "Brit": 6088,
    "Super": 6089,
    "▁exam": 6090,
    "▁vowel": 6091,
    "aration": 6092,
    "olecules": 6093,
    "mathbf": 6094,
    "▁police": 6095,
    "ependent": 6096,
    "starting": 6097,
    "▁alleged": 6098,
    "▁forward": 6099,
    "ependence": 6100,
    "iac": 6101,
    "rod": 6102,
    "celand": 6103,
    "elligent": 6104,
    "▁transfer": 6105,
    "table": 6106,
    "▁folk": 6107,
    "Modern": 6108,
    "apital": 6109,
    "▁Death": 6110,
    "▁Domin": 6111,
    "▁strugg": 6112,
    "▁symbols": 6113,
    "ups": 6114,
    "▁dance": 6115,
    "▁genre": 6116,
    "▁wides": 6117,
    "▁achieved": 6118,
    "▁supposed": 6119,
    "universities": 6120,
    "tlas": 6121,
    "▁Victor": 6122,
    "rederick": 6123,
    "▁battles": 6124,
    "▁monarch": 6125,
    "▁surrounding": 6126,
    "▁Encyclopedia": 6127,
    "Sir": 6128,
    "▁Big": 6129,
    "ohann": 6130,
    "▁Bern": 6131,
    "▁pick": 6132,
    "Brazil": 6133,
    "innish": 6134,
    "▁movements": 6135,
    "▁distinction": 6136,
    "So": 6137,
    "mn": 6138,
    "▁Met": 6139,
    "▁pieces": 6140,
    "si": 6141,
    "Fre": 6142,
    "anon": 6143,
    "▁ends": 6144,
    "▁protocol": 6145,
    "▁quarter": 6146,
    "▁winning": 6147,
    "Ott": 6148,
    "cia": 6149,
    "enna": 6150,
    "velt": 6151,
    "▁reput": 6152,
    "archive": 6153,
    "roadcast": 6154,
    "▁reports": 6155,
    "▁Software": 6156,
    "ubs": 6157,
    "uras": 6158,
    "▁price": 6159,
    "▁split": 6160,
    "ropical": 6161,
    "▁meeting": 6162,
    "▁opposite": 6163,
    "onso": 6164,
    "then": 6165,
    "▁plane": 6166,
    "▁tim": 6167,
    "▁Moon": 6168,
    "▁Wars": 6169,
    "▁fort": 6170,
    "▁dialects": 6171,
    "je": 6172,
    "star": 6173,
    "▁iron": 6174,
    "▁Spirit": 6175,
    "aribbean": 6176,
    "▁showing": 6177,
    "▁projects": 6178,
    "pan": 6179,
    "Earth": 6180,
    "found": 6181,
    "▁seats": 6182,
    "theless": 6183,
    "colleges": 6184,
    "▁Lincoln": 6185,
    "onstantine": 6186,
    "▁widespread": 6187,
    "lie": 6188,
    "bout": 6189,
    "total": 6190,
    "▁Form": 6191,
    "▁cold": 6192,
    "▁reality": 6193,
    "▁machines": 6194,
    "lock": 6195,
    "▁chain": 6196,
    "▁accomp": 6197,
    "▁covered": 6198,
    "▁density": 6199,
    "▁dispute": 6200,
    "▁granted": 6201,
    "Haw": 6202,
    "unar": 6203,
    "▁Radio": 6204,
    "dminist": 6205,
    "▁movies": 6206,
    "▁proport": 6207,
    "▁suffered": 6208,
    "MD": 6209,
    "lines": 6210,
    "▁Mars": 6211,
    "portun": 6212,
    "▁thing": 6213,
    "▁Prince": 6214,
    "▁editor": 6215,
    "▁showed": 6216,
    "▁capacity": 6217,
    "▁fighting": 6218,
    "▁practices": 6219,
    "ommunications": 6220,
    "icy": 6221,
    "Indo": 6222,
    "▁Bah": 6223,
    "asure": 6224,
    "▁imag": 6225,
    "arters": 6226,
    "▁parents": 6227,
    "elevision": 6228,
    "▁indicate": 6229,
    "▁exception": 6230,
    "bes": 6231,
    "shire": 6232,
    "Social": 6233,
    "▁height": 6234,
    "▁reduce": 6235,
    "▁connect": 6236,
    "▁cars": 6237,
    "osevelt": 6238,
    "▁studied": 6239,
    "iterature": 6240,
    "▁particles": 6241,
    "▁mathematic": 6242,
    "SM": 6243,
    "ibn": 6244,
    "Port": 6245,
    "ingly": 6246,
    "▁unus": 6247,
    "comput": 6248,
    "▁adapt": 6249,
    "▁strict": 6250,
    "▁Foreign": 6251,
    "▁proceed": 6252,
    "itionally": 6253,
    "onference": 6254,
    "unciation": 6255,
    "▁represents": 6256,
    "▁communication": 6257,
    "eed": 6258,
    "▁sal": 6259,
    "iously": 6260,
    "▁Saint": 6261,
    "▁piece": 6262,
    "▁awarded": 6263,
    "▁medicine": 6264,
    "▁Francisco": 6265,
    "▁influential": 6266,
    "IF": 6267,
    "ails": 6268,
    "▁What": 6269,
    "▁roughly": 6270,
    "▁worship": 6271,
    "▁Di": 6272,
    "Link": 6273,
    "ormon": 6274,
    "▁liqu": 6275,
    "▁dates": 6276,
    "Ireland": 6277,
    "▁novels": 6278,
    "▁clearly": 6279,
    "▁Best": 6280,
    "▁noun": 6281,
    "▁deriv": 6282,
    "▁Florida": 6283,
    "▁expression": 6284,
    "▁subsequently": 6285,
    "know": 6286,
    "nglo": 6287,
    "▁Str": 6288,
    "books": 6289,
    "▁Barb": 6290,
    "ricket": 6291,
    "▁exhib": 6292,
    "▁phrase": 6293,
    "▁Division": 6294,
    "▁Dictionary": 6295,
    "anging": 6296,
    "iblical": 6297,
    "▁Family": 6298,
    "▁message": 6299,
    "▁perfect": 6300,
    "UR": 6301,
    "gate": 6302,
    "grad": 6303,
    "▁Hel": 6304,
    "spect": 6305,
    "▁feat": 6306,
    "▁wild": 6307,
    "▁zone": 6308,
    "▁moral": 6309,
    "Infobox": 6310,
    "▁titles": 6311,
    "▁ordered": 6312,
    "▁involves": 6313,
    "▁manufactur": 6314,
    "mm": 6315,
    "una": 6316,
    "▁rates": 6317,
    "▁conscious": 6318,
    "▁inhabitants": 6319,
    "ер": 6320,
    "enge": 6321,
    "▁phase": 6322,
    "▁anything": 6323,
    "ypr": 6324,
    "talk": 6325,
    "alent": 6326,
    "emple": 6327,
    "▁gain": 6328,
    "▁gods": 6329,
    "rizona": 6330,
    "ictions": 6331,
    "▁doctrine": 6332,
    "fo": 6333,
    "rows": 6334,
    "etter": 6335,
    "thens": 6336,
    "▁Earl": 6337,
    "▁Fact": 6338,
    "▁orbit": 6339,
    "▁bridge": 6340,
    "▁questions": 6341,
    "▁syn": 6342,
    "udget": 6343,
    "online": 6344,
    "country": 6345,
    "▁Edward": 6346,
    "▁Office": 6347,
    "▁Despite": 6348,
    "llen": 6349,
    "nost": 6350,
    "sche": 6351,
    "▁lat": 6352,
    "heory": 6353,
    "▁Four": 6354,
    "▁negot": 6355,
    "▁advent": 6356,
    "▁narrow": 6357,
    "ocuments": 6358,
    "▁organized": 6359,
    "BI": 6360,
    "White": 6361,
    "▁wave": 6362,
    "ricity": 6363,
    "▁actors": 6364,
    "▁saying": 6365,
    "▁Development": 6366,
    "ISO": 6367,
    "bat": 6368,
    "▁vel": 6369,
    "icide": 6370,
    "ourse": 6371,
    "seud": 6372,
    "▁roy": 6373,
    "ltern": 6374,
    "atters": 6375,
    "▁Liber": 6376,
    "biology": 6377,
    "awa": 6378,
    "itled": 6379,
    "ynamic": 6380,
    "onfeder": 6381,
    "unch": 6382,
    "▁issued": 6383,
    "official": 6384,
    "Mor": 6385,
    "isot": 6386,
    "▁End": 6387,
    "achine": 6388,
    "▁weeks": 6389,
    "▁explan": 6390,
    "Fort": 6391,
    "▁Lake": 6392,
    "▁Rights": 6393,
    "▁historians": 6394,
    "opt": 6395,
    "inder": 6396,
    "Victor": 6397,
    "ession": 6398,
    "▁traffic": 6399,
    "End": 6400,
    "utral": 6401,
    "▁Post": 6402,
    "▁isol": 6403,
    "▁Order": 6404,
    "▁check": 6405,
    "▁enemy": 6406,
    "▁urban": 6407,
    "tionary": 6408,
    "▁Democr": 6409,
    "▁persons": 6410,
    "▁understood": 6411,
    "alg": 6412,
    "tes": 6413,
    "▁Pop": 6414,
    "▁Sat": 6415,
    "ennis": 6416,
    "resent": 6417,
    "▁doing": 6418,
    "SR": 6419,
    "gain": 6420,
    "▁Moore": 6421,
    "▁jurisd": 6422,
    "kes": 6423,
    "▁Ke": 6424,
    "jamin": 6425,
    "▁Blue": 6426,
    "▁honor": 6427,
    "▁proof": 6428,
    "▁weapon": 6429,
    "▁degrees": 6430,
    "▁publication": 6431,
    "на": 6432,
    "▁sector": 6433,
    "that": 6434,
    "▁root": 6435,
    "▁wear": 6436,
    "▁literary": 6437,
    "▁occupied": 6438,
    "▁contained": 6439,
    "▁providing": 6440,
    "▁alcohol": 6441,
    "▁discovery": 6442,
    "▁practical": 6443,
    "▁components": 6444,
    "▁translated": 6445,
    "rb": 6446,
    "▁Long": 6447,
    "isions": 6448,
    "▁minim": 6449,
    "▁capable": 6450,
    "▁workers": 6451,
    "▁radiation": 6452,
    "len": 6453,
    "thew": 6454,
    "▁sen": 6455,
    "▁lands": 6456,
    "▁Health": 6457,
    "▁diplom": 6458,
    "▁expanded": 6459,
    "▁pronounced": 6460,
    "▁resistance": 6461,
    "▁composition": 6462,
    "mu": 6463,
    "Lord": 6464,
    "▁Bro": 6465,
    "green": 6466,
    "▁oldest": 6467,
    "▁recomm": 6468,
    "Washington": 6469,
    "IDS": 6470,
    "▁Bos": 6471,
    "▁score": 6472,
    "speranto": 6473,
    "▁respond": 6474,
    "▁politician": 6475,
    "Post": 6476,
    "▁felt": 6477,
    "▁Labor": 6478,
    "▁beaut": 6479,
    "▁principal": 6480,
    "Jac": 6481,
    "▁swe": 6482,
    "eller": 6483,
    "iffer": 6484,
    "omial": 6485,
    "▁Oper": 6486,
    "▁valid": 6487,
    "▁Father": 6488,
    "▁massive": 6489,
    "larg": 6490,
    "ailed": 6491,
    "▁towns": 6492,
    "jection": 6493,
    "▁Michael": 6494,
    "▁extreme": 6495,
    "▁obtained": 6496,
    "▁mechanics": 6497,
    "roph": 6498,
    "apter": 6499,
    "Boston": 6500,
    "rystal": 6501,
    "▁physic": 6502,
    "▁classic": 6503,
    "▁poll": 6504,
    "▁victim": 6505,
    "Football": 6506,
    "▁Journal": 6507,
    "Bul": 6508,
    "herent": 6509,
    "▁nomin": 6510,
    "ylvania": 6511,
    "ommodore": 6512,
    "▁speaking": 6513,
    "▁university": 6514,
    "Death": 6515,
    "aptism": 6516,
    "▁plans": 6517,
    "Economy": 6518,
    "content": 6519,
    "ographical": 6520,
    "onservative": 6521,
    "ED": 6522,
    "Ma": 6523,
    "ipher": 6524,
    "▁Inst": 6525,
    "aptain": 6526,
    "▁Kings": 6527,
    "▁ending": 6528,
    "division": 6529,
    "▁refused": 6530,
    "angl": 6531,
    "area": 6532,
    "arry": 6533,
    "lovak": 6534,
    "▁rejected": 6535,
    "ega": 6536,
    "▁mm": 6537,
    "hire": 6538,
    "othe": 6539,
    "▁font": 6540,
    "Donald": 6541,
    "▁rarely": 6542,
    "▁strongly": 6543,
    "aya": 6544,
    "high": 6545,
    "▁demand": 6546,
    "▁planet": 6547,
    "▁Massachusetts": 6548,
    "iate": 6549,
    "writer": 6550,
    "▁mathematical": 6551,
    "▁da": 6552,
    "▁Home": 6553,
    "illing": 6554,
    "ecutive": 6555,
    "ugustus": 6556,
    "▁Valley": 6557,
    "▁bottom": 6558,
    "▁merely": 6559,
    "▁significantly": 6560,
    "su": 6561,
    "aste": 6562,
    "▁exc": 6563,
    "icate": 6564,
    "techn": 6565,
    "ietnam": 6566,
    "▁maint": 6567,
    "▁whereas": 6568,
    "▁worldwide": 6569,
    "iox": 6570,
    "▁recip": 6571,
    "▁Hungary": 6572,
    "▁coordin": 6573,
    "▁killing": 6574,
    "odz": 6575,
    "resh": 6576,
    "stan": 6577,
    "atible": 6578,
    "▁defend": 6579,
    "▁collapse": 6580,
    "Sec": 6581,
    "▁bow": 6582,
    "hrough": 6583,
    "▁codes": 6584,
    "▁files": 6585,
    "utenberg": 6586,
    "▁Indiana": 6587,
    "▁portion": 6588,
    "▁rapidly": 6589,
    "▁suggests": 6590,
    "▁Secretary": 6591,
    "▁interview": 6592,
    "ingle": 6593,
    "▁susp": 6594,
    "ih": 6595,
    "Jack": 6596,
    "▁flat": 6597,
    "▁dedic": 6598,
    "▁nucle": 6599,
    "▁truth": 6600,
    "▁divers": 6601,
    "▁shared": 6602,
    "▁unable": 6603,
    "▁genetic": 6604,
    "▁District": 6605,
    "this": 6606,
    "antly": 6607,
    "▁magn": 6608,
    "ía": 6609,
    "psych": 6610,
    "▁Ball": 6611,
    "▁Bond": 6612,
    "physics": 6613,
    "▁propos": 6614,
    "▁sought": 6615,
    "▁measures": 6616,
    "kt": 6617,
    "ima": 6618,
    "▁Sal": 6619,
    "▁ago": 6620,
    "amous": 6621,
    "▁cool": 6622,
    "▁rese": 6623,
    "▁store": 6624,
    "▁engines": 6625,
    "▁consonant": 6626,
    "Mary": 6627,
    "▁huge": 6628,
    "▁severe": 6629,
    "▁assumed": 6630,
    "▁impossible": 6631,
    "▁mist": 6632,
    "enesis": 6633,
    "▁react": 6634,
    "▁stock": 6635,
    "▁portray": 6636,
    "itzerland": 6637,
    "▁explicit": 6638,
    "government": 6639,
    "▁Jerusalem": 6640,
    "▁producing": 6641,
    "▁occasionally": 6642,
    "zy": 6643,
    "Sun": 6644,
    "rait": 6645,
    "▁Work": 6646,
    "▁feed": 6647,
    "▁rend": 6648,
    "▁teach": 6649,
    "Sk": 6650,
    "igr": 6651,
    "lon": 6652,
    "▁abb": 6653,
    "anian": 6654,
    "iciency": 6655,
    "▁really": 6656,
    "▁currency": 6657,
    "▁apparently": 6658,
    "mic": 6659,
    "osc": 6660,
    "ilia": 6661,
    "yles": 6662,
    "compl": 6663,
    "▁room": 6664,
    "▁wars": 6665,
    "▁cable": 6666,
    "igenous": 6667,
    "vertical": 6668,
    "▁exactly": 6669,
    "▁Southern": 6670,
    "▁opportun": 6671,
    "ugh": 6672,
    "▁har": 6673,
    "▁corn": 6674,
    "▁nine": 6675,
    "▁begin": 6676,
    "▁accounts": 6677,
    "▁captured": 6678,
    "succession": 6679,
    "▁societies": 6680,
    "ez": 6681,
    "Mel": 6682,
    "fire": 6683,
    "itage": 6684,
    "▁Star": 6685,
    "▁frag": 6686,
    "Martin": 6687,
    "cluded": 6688,
    "iginal": 6689,
    "▁Super": 6690,
    "▁edits": 6691,
    "▁coming": 6692,
    "▁mountain": 6693,
    "cos": 6694,
    "sum": 6695,
    "asts": 6696,
    "igma": 6697,
    "▁zero": 6698,
    "▁ratio": 6699,
    "▁Joseph": 6700,
    "▁Judaism": 6701,
    "▁Supreme": 6702,
    "ucl": 6703,
    "▁Lee": 6704,
    "▁got": 6705,
    "tlanta": 6706,
    "▁Bridge": 6707,
    "▁prohib": 6708,
    "anguages": 6709,
    "▁Federal": 6710,
    "▁molecules": 6711,
    "▁succeeded": 6712,
    "construction": 6713,
    "yah": 6714,
    "ture": 6715,
    "olitan": 6716,
    "ellation": 6717,
    "▁Sk": 6718,
    "abul": 6719,
    "ibli": 6720,
    "▁Dead": 6721,
    "▁cook": 6722,
    "olecule": 6723,
    "▁straight": 6724,
    "ontributions": 6725,
    "▁universities": 6726,
    "zo": 6727,
    "ams": 6728,
    "dams": 6729,
    "▁Sol": 6730,
    "IBM": 6731,
    "oen": 6732,
    "coll": 6733,
    "iced": 6734,
    "▁Line": 6735,
    "ynamics": 6736,
    "▁advert": 6737,
    "ensional": 6738,
    "▁executive": 6739,
    "uits": 6740,
    "▁Boston": 6741,
    "▁indeed": 6742,
    "▁viewed": 6743,
    "herefore": 6744,
    "▁ultimately": 6745,
    "ski": 6746,
    "▁Don": 6747,
    "Paris": 6748,
    "iences": 6749,
    "▁anarch": 6750,
    "▁assass": 6751,
    "▁detect": 6752,
    "▁necessarily": 6753,
    "ão": 6754,
    "cha": 6755,
    "pot": 6756,
    "rium": 6757,
    "othic": 6758,
    "Jud": 6759,
    "Bern": 6760,
    "eman": 6761,
    "greg": 6762,
    "▁Spr": 6763,
    "apoleon": 6764,
    "▁detailed": 6765,
    "▁invented": 6766,
    "olph": 6767,
    "osph": 6768,
    "unct": 6769,
    "garia": 6770,
    "alia": 6771,
    "laud": 6772,
    "▁Only": 6773,
    "▁Play": 6774,
    "▁dism": 6775,
    "ranean": 6776,
    "▁houses": 6777,
    "chemical": 6778,
    "▁existed": 6779,
    "▁colonies": 6780,
    "cr": 6781,
    "Mad": 6782,
    "rts": 6783,
    "antry": 6784,
    "▁rich": 6785,
    "▁preced": 6786,
    "▁managed": 6787,
    "▁district": 6788,
    "iful": 6789,
    "irty": 6790,
    "Mount": 6791,
    "illes": 6792,
    "radio": 6793,
    "▁lies": 6794,
    "▁fought": 6795,
    "▁listed": 6796,
    "▁medium": 6797,
    "▁winter": 6798,
    "▁setting": 6799,
    "svg": 6800,
    "▁ce": 6801,
    "file": 6802,
    "miga": 6803,
    "▁Mer": 6804,
    "alaxy": 6805,
    "▁easy": 6806,
    "▁batter": 6807,
    "▁orders": 6808,
    "▁throne": 6809,
    "ructions": 6810,
    "hl": 6811,
    "▁Sox": 6812,
    "▁Who": 6813,
    "anged": 6814,
    "▁ring": 6815,
    "▁route": 6816,
    "▁trial": 6817,
    "electron": 6818,
    "▁circuit": 6819,
    "▁maximum": 6820,
    "roduction": 6821,
    "▁spiritual": 6822,
    "bn": 6823,
    "uns": 6824,
    "▁pit": 6825,
    "prise": 6826,
    "▁ampl": 6827,
    "▁fashion": 6828,
    "Los": 6829,
    "dist": 6830,
    "▁Fort": 6831,
    "▁paid": 6832,
    "second": 6833,
    "▁sched": 6834,
    "Rom": 6835,
    "ontrol": 6836,
    "▁calls": 6837,
    "▁Polish": 6838,
    "▁arrest": 6839,
    "function": 6840,
    "▁improved": 6841,
    "▁candidate": 6842,
    "Id": 6843,
    "Off": 6844,
    "who": 6845,
    "amine": 6846,
    "irmed": 6847,
    "ristot": 6848,
    "▁chrom": 6849,
    "▁compl": 6850,
    "▁permanent": 6851,
    "Map": 6852,
    "hips": 6853,
    "osta": 6854,
    "▁sole": 6855,
    "▁drugs": 6856,
    "present": 6857,
    "▁strategy": 6858,
    "bian": 6859,
    "mund": 6860,
    "ustin": 6861,
    "▁layer": 6862,
    "▁theat": 6863,
    "▁visit": 6864,
    "▁dialect": 6865,
    "▁interests": 6866,
    "Jul": 6867,
    "▁walk": 6868,
    "abinet": 6869,
    "▁joint": 6870,
    "product": 6871,
    "▁teaching": 6872,
    "circ": 6873,
    "▁canon": 6874,
    "▁producer": 6875,
    "▁developing": 6876,
    "▁Ho": 6877,
    "▁IR": 6878,
    "▁sn": 6879,
    "Mont": 6880,
    "Oper": 6881,
    "word": 6882,
    "osaur": 6883,
    "ugged": 6884,
    "▁seat": 6885,
    "▁crime": 6886,
    "▁hydrogen": 6887,
    "gave": 6888,
    "▁cerem": 6889,
    "▁neither": 6890,
    "▁constructed": 6891,
    "Mag": 6892,
    "▁VI": 6893,
    "Mass": 6894,
    "romag": 6895,
    "white": 6896,
    "yprus": 6897,
    "▁Records": 6898,
    "plications": 6899,
    "uum": 6900,
    "olin": 6901,
    "elson": 6902,
    "pective": 6903,
    "elsh": 6904,
    "▁Equ": 6905,
    "istical": 6906,
    "aux": 6907,
    "eus": 6908,
    "enns": 6909,
    "▁synd": 6910,
    "hedral": 6911,
    "iology": 6912,
    "▁define": 6913,
    "▁founder": 6914,
    "▁picture": 6915,
    "▁learning": 6916,
    "▁expensive": 6917,
    "Kn": 6918,
    "aron": 6919,
    "rail": 6920,
    "party": 6921,
    "apping": 6922,
    "ortion": 6923,
    "▁audio": 6924,
    "▁researc": 6925,
    "▁employed": 6926,
    "female": 6927,
    "▁periods": 6928,
    "▁investig": 6929,
    "▁modified": 6930,
    "Bur": 6931,
    "Vol": 6932,
    "▁Hell": 6933,
    "▁wrong": 6934,
    "▁planned": 6935,
    "▁neighbor": 6936,
    "▁household": 6937,
    "EF": 6938,
    "Rob": 6939,
    "ordon": 6940,
    "▁clock": 6941,
    "▁stress": 6942,
    "Reverted": 6943,
    "▁Michigan": 6944,
    "▁Military": 6945,
    "▁documents": 6946,
    "nim": 6947,
    "▁obv": 6948,
    "ierre": 6949,
    "orrow": 6950,
    "▁Bell": 6951,
    "▁bits": 6952,
    "▁elimin": 6953,
    "▁taught": 6954,
    "▁Israeli": 6955,
    "▁amounts": 6956,
    "▁concert": 6957,
    "Wiki": 6958,
    "▁try": 6959,
    "video": 6960,
    "▁Power": 6961,
    "▁theme": 6962,
    "▁stands": 6963,
    "▁Williams": 6964,
    "ifications": 6965,
    "▁interface": 6966,
    "▁References": 6967,
    "▁destruction": 6968,
    "sm": 6969,
    "uat": 6970,
    "van": 6971,
    "ownt": 6972,
    "Queen": 6973,
    "▁fear": 6974,
    "▁server": 6975,
    "▁termin": 6976,
    "▁Russell": 6977,
    "▁causing": 6978,
    "▁dedicated": 6979,
    "dim": 6980,
    "ido": 6981,
    "enus": 6982,
    "wall": 6983,
    "erals": 6984,
    "▁mode": 6985,
    "atomic": 6986,
    "▁universal": 6987,
    "osy": 6988,
    "▁fil": 6989,
    "▁none": 6990,
    "claimed": 6991,
    "▁dollar": 6992,
    "eneration": 6993,
    "anth": 6994,
    "notes": 6995,
    "urance": 6996,
    "▁arbit": 6997,
    "Persian": 6998,
    "▁Brother": 6999,
    "▁settled": 7000,
    "Microsoft": 7001,
    "▁Protocol": 7002,
    "és": 7003,
    "Rock": 7004,
    "orest": 7005,
    "regor": 7006,
    "▁Fire": 7007,
    "▁mixed": 7008,
    "▁dominant": 7009,
    "▁networks": 7010,
    "oj": 7011,
    "aga": 7012,
    "▁ran": 7013,
    "antum": 7014,
    "Histor": 7015,
    "ishops": 7016,
    "▁error": 7017,
    "▁Sweden": 7018,
    "iterranean": 7019,
    "ennsylvania": 7020,
    "ester": 7021,
    "going": 7022,
    "ampion": 7023,
    "▁drawn": 7024,
    "ishment": 7025,
    "jective": 7026,
    "▁behavi": 7027,
    "▁Philosophy": 7028,
    "anic": 7029,
    "load": 7030,
    "▁mel": 7031,
    "rance": 7032,
    "bishop": 7033,
    "▁Board": 7034,
    "▁recording": 7035,
    "▁atmosphere": 7036,
    "ubb": 7037,
    "▁Mad": 7038,
    "▁pione": 7039,
    "▁tools": 7040,
    "Kingdom": 7041,
    "odzilla": 7042,
    "▁safety": 7043,
    "hristopher": 7044,
    "sea": 7045,
    "body": 7046,
    "orter": 7047,
    "▁Brun": 7048,
    "ntario": 7049,
    "▁Early": 7050,
    "▁Major": 7051,
    "▁twice": 7052,
    "▁choose": 7053,
    "▁Justice": 7054,
    "▁essential": 7055,
    "how": 7056,
    "uin": 7057,
    "axon": 7058,
    "ugar": 7059,
    "ugos": 7060,
    "▁authorities": 7061,
    "▁contributed": 7062,
    "dev": 7063,
    "▁qual": 7064,
    "encing": 7065,
    "people": 7066,
    "unting": 7067,
    "▁Jackson": 7068,
    "▁essentially": 7069,
    "Sat": 7070,
    "▁vs": 7071,
    "▁Hon": 7072,
    "▁Labour": 7073,
    "▁orient": 7074,
    "▁holding": 7075,
    "▁identical": 7076,
    "▁maintained": 7077,
    "nne": 7078,
    "Holy": 7079,
    "Life": 7080,
    "efef": 7081,
    "▁dry": 7082,
    "▁evil": 7083,
    "aptist": 7084,
    "▁staff": 7085,
    "▁topic": 7086,
    "▁trees": 7087,
    "Political": 7088,
    "leep": 7089,
    "▁semi": 7090,
    "ienced": 7091,
    "▁leads": 7092,
    "issance": 7093,
    "▁treated": 7094,
    "▁featuring": 7095,
    "onstantinople": 7096,
    "lit": 7097,
    "oter": 7098,
    "ulpt": 7099,
    "▁abol": 7100,
    "isource": 7101,
    "▁Hitler": 7102,
    "▁attend": 7103,
    "▁diamond": 7104,
    "▁audience": 7105,
    "▁discover": 7106,
    "▁converted": 7107,
    "▁appropriate": 7108,
    "anim": 7109,
    "ynch": 7110,
    "▁Field": 7111,
    "▁liber": 7112,
    "▁stone": 7113,
    "plication": 7114,
    "oli": 7115,
    "yan": 7116,
    "unit": 7117,
    "▁mor": 7118,
    "▁treaty": 7119,
    "▁achieve": 7120,
    "ami": 7121,
    "Open": 7122,
    "rarr": 7123,
    "inson": 7124,
    "ische": 7125,
    "▁peak": 7126,
    "▁innov": 7127,
    "▁motor": 7128,
    "Foreign": 7129,
    "reation": 7130,
    "▁platform": 7131,
    "▁component": 7132,
    "▁Portuguese": 7133,
    "cht": 7134,
    "Blue": 7135,
    "mers": 7136,
    "umes": 7137,
    "▁Mel": 7138,
    "etime": 7139,
    "▁arts": 7140,
    "insula": 7141,
    "nuclear": 7142,
    "Scotland": 7143,
    "▁origins": 7144,
    "▁relationships": 7145,
    "ро": 7146,
    "▁EU": 7147,
    "ista": 7148,
    "ersey": 7149,
    "▁Stan": 7150,
    "▁dict": 7151,
    "▁nick": 7152,
    "▁clean": 7153,
    "▁paint": 7154,
    "▁prefer": 7155,
    "▁remove": 7156,
    "▁sovere": 7157,
    "▁Several": 7158,
    "▁democracy": 7159,
    "▁attributed": 7160,
    "ME": 7161,
    "Disc": 7162,
    "lang": 7163,
    "publ": 7164,
    "udes": 7165,
    "▁evolved": 7166,
    "▁opinion": 7167,
    "▁newspaper": 7168,
    "▁effectively": 7169,
    "▁environmental": 7170,
    "Ern": 7171,
    "▁lit": 7172,
    "ransp": 7173,
    "Berlin": 7174,
    "▁assist": 7175,
    "▁sounds": 7176,
    "▁arrived": 7177,
    "MI": 7178,
    "fre": 7179,
    "orman": 7180,
    "▁Lewis": 7181,
    "▁Scottish": 7182,
    "▁affected": 7183,
    "▁compounds": 7184,
    "▁involving": 7185,
    "▁commission": 7186,
    "▁Up": 7187,
    "acon": 7188,
    "album": 7189,
    "▁anthrop": 7190,
    "▁overall": 7191,
    "political": 7192,
    "▁subjects": 7193,
    "▁civilization": 7194,
    "▁temperatures": 7195,
    "dou": 7196,
    "educ": 7197,
    "unday": 7198,
    "▁Song": 7199,
    "direct": 7200,
    "▁costs": 7201,
    "▁affect": 7202,
    "▁faster": 7203,
    "▁stable": 7204,
    "▁cuisine": 7205,
    "▁visible": 7206,
    "operation": 7207,
    "television": 7208,
    "▁philosopher": 7209,
    "uv": 7210,
    "▁Po": 7211,
    "▁wall": 7212,
    "▁items": 7213,
    "▁Wilson": 7214,
    "Scottish": 7215,
    "▁designs": 7216,
    "▁selection": 7217,
    "▁homosexual": 7218,
    "▁intellectual": 7219,
    "▁Ma": 7220,
    "prov": 7221,
    "▁Luc": 7222,
    "▁tact": 7223,
    "alileo": 7224,
    "▁bands": 7225,
    "▁courts": 7226,
    "▁Roosevelt": 7227,
    "▁membership": 7228,
    "cut": 7229,
    "▁Op": 7230,
    "aped": 7231,
    "crib": 7232,
    "▁Dun": 7233,
    "family": 7234,
    "▁analy": 7235,
    "▁mouth": 7236,
    "▁reven": 7237,
    "atorial": 7238,
    "▁Battle": 7239,
    "▁desert": 7240,
    "DR": 7241,
    "acle": 7242,
    "riff": 7243,
    "▁voc": 7244,
    "ifest": 7245,
    "▁core": 7246,
    "etween": 7247,
    "▁worth": 7248,
    "▁warfare": 7249,
    "▁acquired": 7250,
    "▁concerned": 7251,
    "▁Fa": 7252,
    "iner": 7253,
    "ropy": 7254,
    "▁hus": 7255,
    "▁san": 7256,
    "istle": 7257,
    "▁revealed": 7258,
    "▁conservative": 7259,
    "hum": 7260,
    "mun": 7261,
    "Major": 7262,
    "iopia": 7263,
    "▁apart": 7264,
    "▁separated": 7265,
    "▁electrical": 7266,
    "▁reputation": 7267,
    "iti": 7268,
    "Stat": 7269,
    "helm": 7270,
    "reeks": 7271,
    "▁vess": 7272,
    "former": 7273,
    "▁murder": 7274,
    "▁priest": 7275,
    "nel": 7276,
    "ners": 7277,
    "▁Fle": 7278,
    "ivate": 7279,
    "▁Ohio": 7280,
    "▁bind": 7281,
    "solete": 7282,
    "uations": 7283,
    "▁adding": 7284,
    "▁stored": 7285,
    "Of": 7286,
    "sat": 7287,
    "▁gra": 7288,
    "iliar": 7289,
    "quest": 7290,
    "sters": 7291,
    "▁prem": 7292,
    "ornell": 7293,
    "system": 7294,
    "uscript": 7295,
    "▁remark": 7296,
    "evolution": 7297,
    "▁minority": 7298,
    "data": 7299,
    "▁bran": 7300,
    "▁moder": 7301,
    "▁plate": 7302,
    "▁Studies": 7303,
    "▁deliver": 7304,
    "aeus": 7305,
    "card": 7306,
    "Domin": 7307,
    "aware": 7308,
    "inity": 7309,
    "integ": 7310,
    "metic": 7311,
    "▁logo": 7312,
    "▁substance": 7313,
    "athy": 7314,
    "imdb": 7315,
    "ocity": 7316,
    "Sweden": 7317,
    "hronic": 7318,
    "▁Scott": 7319,
    "▁Intelligence": 7320,
    "Luc": 7321,
    "akh": 7322,
    "▁Dec": 7323,
    "▁Pen": 7324,
    "▁sons": 7325,
    "icians": 7326,
    "▁daily": 7327,
    "Unicode": 7328,
    "alvador": 7329,
    "rection": 7330,
    "▁favour": 7331,
    "iph": 7332,
    "ples": 7333,
    "▁trou": 7334,
    "▁committed": 7335,
    "▁supporters": 7336,
    "Mc": 7337,
    "Mic": 7338,
    "sem": 7339,
    "▁ban": 7340,
    "▁rival": 7341,
    "▁trying": 7342,
    "▁imperial": 7343,
    "▁Republican": 7344,
    "aca": 7345,
    "aret": 7346,
    "reas": 7347,
    "acles": 7348,
    "worth": 7349,
    "▁Road": 7350,
    "inners": 7351,
    "ocaust": 7352,
    "nglican": 7353,
    "ospital": 7354,
    "▁anyone": 7355,
    "▁depart": 7356,
    "▁radical": 7357,
    "rc": 7358,
    "aza": 7359,
    "stm": 7360,
    "eton": 7361,
    "idel": 7362,
    "open": 7363,
    "civil": 7364,
    "dvent": 7365,
    "Johann": 7366,
    "▁agree": 7367,
    "▁hence": 7368,
    "▁inher": 7369,
    "▁lists": 7370,
    "▁owned": 7371,
    "▁accompl": 7372,
    "▁affairs": 7373,
    "▁disorder": 7374,
    "▁entitled": 7375,
    "▁extension": 7376,
    "ku": 7377,
    "Land": 7378,
    "term": 7379,
    "udio": 7380,
    "ounded": 7381,
    "roatia": 7382,
    "▁veget": 7383,
    "Digital": 7384,
    "▁notion": 7385,
    "▁mainstream": 7386,
    "▁phenomenon": 7387,
    "oved": 7388,
    "onnect": 7389,
    "▁Dylan": 7390,
    "abilities": 7391,
    "▁finished": 7392,
    "▁dangerous": 7393,
    "▁statistics": 7394,
    "yo": 7395,
    "HMS": 7396,
    "nan": 7397,
    "ori": 7398,
    "fall": 7399,
    "prop": 7400,
    "▁Rod": 7401,
    "orses": 7402,
    "▁crown": 7403,
    "Pre": 7404,
    "orwe": 7405,
    "osed": 7406,
    "▁Hay": 7407,
    "▁explo": 7408,
    "▁launch": 7409,
    "▁sister": 7410,
    "cfm": 7411,
    "▁OS": 7412,
    "erse": 7413,
    "ypes": 7414,
    "▁plus": 7415,
    "▁verb": 7416,
    "▁royal": 7417,
    "process": 7418,
    "▁circle": 7419,
    "▁nearby": 7420,
    "ployment": 7421,
    "▁consisting": 7422,
    "aro": 7423,
    "▁Id": 7424,
    "▁HIV": 7425,
    "ptoms": 7426,
    "source": 7427,
    "weight": 7428,
    "▁Buddh": 7429,
    "▁broke": 7430,
    "▁excess": 7431,
    "▁unusual": 7432,
    "▁vehicles": 7433,
    "▁dominated": 7434,
    "▁efficient": 7435,
    "▁provinces": 7436,
    "adi": 7437,
    "Hell": 7438,
    "issue": 7439,
    "lobal": 7440,
    "orship": 7441,
    "olombia": 7442,
    "▁Systems": 7443,
    "▁request": 7444,
    "▁recognition": 7445,
    "▁philosophical": 7446,
    "ethe": 7447,
    "lton": 7448,
    "ricts": 7449,
    "Daniel": 7450,
    "asters": 7451,
    "Hungary": 7452,
    "pressed": 7453,
    "▁Review": 7454,
    "▁Edition": 7455,
    "Dev": 7456,
    "▁Pict": 7457,
    "▁advance": 7458,
    "▁decline": 7459,
    "▁missile": 7460,
    "Portuguese": 7461,
    "▁gradually": 7462,
    "▁officials": 7463,
    "▁categories": 7464,
    "▁classified": 7465,
    "▁Will": 7466,
    "▁sales": 7467,
    "▁rivers": 7468,
    "▁collabor": 7469,
    "▁fictional": 7470,
    "▁satellite": 7471,
    "icht": 7472,
    "rice": 7473,
    "▁cru": 7474,
    "unnel": 7475,
    "annels": 7476,
    "nthony": 7477,
    "▁false": 7478,
    "▁femin": 7479,
    "▁roots": 7480,
    "▁partly": 7481,
    "communic": 7482,
    "mythology": 7483,
    "▁measured": 7484,
    "aco": 7485,
    "cho": 7486,
    "euro": 7487,
    "▁Men": 7488,
    "ancer": 7489,
    "athan": 7490,
    "Public": 7491,
    "general": 7492,
    "ometric": 7493,
    "▁vehicle": 7494,
    "▁predomin": 7495,
    "▁rational": 7496,
    "▁Education": 7497,
    "▁philosophers": 7498,
    "▁corresponding": 7499,
    "EL": 7500,
    "nds": 7501,
    "cape": 7502,
    "omes": 7503,
    "ropolitan": 7504,
    "▁Economic": 7505,
    "▁Virginia": 7506,
    "▁academic": 7507,
    "Sen": 7508,
    "orms": 7509,
    "quis": 7510,
    "Windows": 7511,
    "▁Kennedy": 7512,
    "▁graphics": 7513,
    "uer": 7514,
    "ulin": 7515,
    "▁crim": 7516,
    "ollins": 7517,
    "▁Hawai": 7518,
    "▁aware": 7519,
    "▁resemb": 7520,
    "▁Berkeley": 7521,
    "Bre": 7522,
    "lap": 7523,
    "iary": 7524,
    "rayer": 7525,
    "▁narr": 7526,
    "▁soul": 7527,
    "Pacific": 7528,
    "▁linked": 7529,
    "speaking": 7530,
    "▁selected": 7531,
    "▁superior": 7532,
    "▁legislation": 7533,
    "▁characteristic": 7534,
    "ел": 7535,
    "uity": 7536,
    "▁Like": 7537,
    "▁bear": 7538,
    "▁hair": 7539,
    "ruption": 7540,
    "▁beings": 7541,
    "▁acceler": 7542,
    "▁carrier": 7543,
    "▁secondary": 7544,
    "▁successor": 7545,
    "▁concerning": 7546,
    "▁Mu": 7547,
    "▁fit": 7548,
    "▁multi": 7549,
    "ustries": 7550,
    "western": 7551,
    "▁Franklin": 7552,
    "▁particle": 7553,
    "▁equations": 7554,
    "▁administrative": 7555,
    "SD": 7556,
    "eh": 7557,
    "▁inn": 7558,
    "▁lot": 7559,
    "nimal": 7560,
    "incinn": 7561,
    "▁shell": 7562,
    "english": 7563,
    "iations": 7564,
    "▁oxygen": 7565,
    "▁accident": 7566,
    "▁patients": 7567,
    "philosophy": 7568,
    "▁occupation": 7569,
    "hose": 7570,
    "▁cas": 7571,
    "Doctor": 7572,
    "▁crypt": 7573,
    "▁pitch": 7574,
    "▁Mexico": 7575,
    "▁colony": 7576,
    "Democratic": 7577,
    "▁experienced": 7578,
    "▁interesting": 7579,
    "▁possibility": 7580,
    "▁constitutional": 7581,
    "eda": 7582,
    "lik": 7583,
    "hess": 7584,
    "eenth": 7585,
    "▁febr": 7586,
    "carbon": 7587,
    "▁Korea": 7588,
    "▁walls": 7589,
    "▁analog": 7590,
    "▁leaves": 7591,
    "▁Profess": 7592,
    "▁denomin": 7593,
    "▁changing": 7594,
    "▁thousand": 7595,
    "▁convention": 7596,
    "Pan": 7597,
    "Hong": 7598,
    "prot": 7599,
    "▁join": 7600,
    "▁broken": 7601,
    "quarters": 7602,
    "aren": 7603,
    "case": 7604,
    "oger": 7605,
    "▁eat": 7606,
    "▁Light": 7607,
    "▁ideal": 7608,
    "owntown": 7609,
    "▁spring": 7610,
    "▁perceived": 7611,
    "▁accessdate": 7612,
    "▁investment": 7613,
    "▁incorporated": 7614,
    "hron": 7615,
    "iang": 7616,
    "ubble": 7617,
    "▁crop": 7618,
    "airman": 7619,
    "▁fleet": 7620,
    "▁occas": 7621,
    "Federal": 7622,
    "▁decade": 7623,
    "▁discip": 7624,
    "▁liquid": 7625,
    "wikitable": 7626,
    "▁Einstein": 7627,
    "▁Movement": 7628,
    "▁patterns": 7629,
    "vironmental": 7630,
    "him": 7631,
    "▁na": 7632,
    "hart": 7633,
    "olas": 7634,
    "▁Sil": 7635,
    "scape": 7636,
    "▁Dale": 7637,
    "▁Full": 7638,
    "idency": 7639,
    "▁heard": 7640,
    "▁terror": 7641,
    "▁Similar": 7642,
    "Equ": 7643,
    "ods": 7644,
    "appa": 7645,
    "anton": 7646,
    "▁Ruth": 7647,
    "▁onto": 7648,
    "▁Histor": 7649,
    "▁commit": 7650,
    "▁Elizabeth": 7651,
    "▁mechanism": 7652,
    "▁substantial": 7653,
    "▁Dam": 7654,
    "▁subt": 7655,
    "▁agent": 7656,
    "▁kings": 7657,
    "▁prepar": 7658,
    "rchitect": 7659,
    "▁Denmark": 7660,
    "▁capture": 7661,
    "▁shortly": 7662,
    "▁uniform": 7663,
    "▁chemistry": 7664,
    "▁conducted": 7665,
    "▁concentration": 7666,
    "onom": 7667,
    "▁DVD": 7668,
    "itism": 7669,
    "▁Writ": 7670,
    "▁Peace": 7671,
    "▁breed": 7672,
    "▁youth": 7673,
    "▁library": 7674,
    "OP": 7675,
    "fil": 7676,
    "Part": 7677,
    "othing": 7678,
    "ulating": 7679,
    "▁stream": 7680,
    "orwegian": 7681,
    "▁explain": 7682,
    "▁protein": 7683,
    "▁biological": 7684,
    "▁°": 7685,
    "Hom": 7686,
    "Ray": 7687,
    "awn": 7688,
    "agle": 7689,
    "hyth": 7690,
    "amber": 7691,
    "itual": 7692,
    "Poland": 7693,
    "▁increases": 7694,
    "▁successfully": 7695,
    "Val": 7696,
    "soc": 7697,
    "iego": 7698,
    "rors": 7699,
    "▁amb": 7700,
    "▁Spec": 7701,
    "▁answer": 7702,
    "▁census": 7703,
    "▁switch": 7704,
    "▁unless": 7705,
    "▁manager": 7706,
    "▁formally": 7707,
    "▁abandoned": 7708,
    "Rome": 7709,
    "beta": 7710,
    "oiced": 7711,
    "▁expand": 7712,
    "▁regime": 7713,
    "▁computing": 7714,
    "ар": 7715,
    "agh": 7716,
    "obi": 7717,
    "lium": 7718,
    "▁nav": 7719,
    "novel": 7720,
    "▁eyes": 7721,
    "ommand": 7722,
    "rieved": 7723,
    "military": 7724,
    "▁accurate": 7725,
    "ansk": 7726,
    "▁Fox": 7727,
    "aesar": 7728,
    "letter": 7729,
    "riptions": 7730,
    "▁Defense": 7731,
    "incinnati": 7732,
    "Ol": 7733,
    "Hol": 7734,
    "icut": 7735,
    "onan": 7736,
    "▁Dra": 7737,
    "emper": 7738,
    "onder": 7739,
    "▁plot": 7740,
    "upiter": 7741,
    "▁Daniel": 7742,
    "▁ensure": 7743,
    "Hz": 7744,
    "Sal": 7745,
    "don": 7746,
    "iom": 7747,
    "lpha": 7748,
    "wich": 7749,
    "hered": 7750,
    "▁Expl": 7751,
    "adelph": 7752,
    "▁linear": 7753,
    "▁license": 7754,
    "▁Egyptian": 7755,
    "▁mountains": 7756,
    "▁variations": 7757,
    "Log": 7758,
    "dig": 7759,
    "orf": 7760,
    "anol": 7761,
    "east": 7762,
    "▁sin": 7763,
    "intosh": 7764,
    "▁draft": 7765,
    "▁matters": 7766,
    "omorphism": 7767,
    "▁assembly": 7768,
    "▁infinite": 7769,
    "EEE": 7770,
    "dep": 7771,
    "atra": 7772,
    "mass": 7773,
    "etball": 7774,
    "rowser": 7775,
    "▁random": 7776,
    "▁spelling": 7777,
    "evertheless": 7778,
    "nc": 7779,
    "Day": 7780,
    "opter": 7781,
    "▁park": 7782,
    "hapter": 7783,
    "lements": 7784,
    "▁Romans": 7785,
    "▁prices": 7786,
    "▁multipl": 7787,
    "▁criminal": 7788,
    "▁governor": 7789,
    "rv": 7790,
    "ught": 7791,
    "ibniz": 7792,
    "▁Lords": 7793,
    "▁repro": 7794,
    "arolina": 7795,
    "ilation": 7796,
    "▁meters": 7797,
    "▁reforms": 7798,
    "▁variable": 7799,
    "▁residents": 7800,
    "▁fly": 7801,
    "▁athl": 7802,
    "▁iocc": 7803,
    "alling": 7804,
    "uffalo": 7805,
    "alendar": 7806,
    "▁visual": 7807,
    "▁concerns": 7808,
    "▁preferred": 7809,
    "▁distinguish": 7810,
    "amel": 7811,
    "elly": 7812,
    "▁Ott": 7813,
    "▁icon": 7814,
    "pected": 7815,
    "▁holid": 7816,
    "emplate": 7817,
    "▁binary": 7818,
    "inations": 7819,
    "▁everything": 7820,
    "он": 7821,
    "eria": 7822,
    "lger": 7823,
    "riot": 7824,
    "▁Pet": 7825,
    "State": 7826,
    "ifies": 7827,
    "ordan": 7828,
    "using": 7829,
    "▁sections": 7830,
    "edd": 7831,
    "▁Rh": 7832,
    "▁Pre": 7833,
    "▁eye": 7834,
    "unter": 7835,
    "▁Show": 7836,
    "▁bill": 7837,
    "▁task": 7838,
    "Prince": 7839,
    "▁newly": 7840,
    "▁branches": 7841,
    "▁Represent": 7842,
    "▁instruction": 7843,
    "▁agricultural": 7844,
    "mk": 7845,
    "hot": 7846,
    "gence": 7847,
    "while": 7848,
    "ermans": 7849,
    "orning": 7850,
    "planet": 7851,
    "▁Davis": 7852,
    "▁acting": 7853,
    "▁chance": 7854,
    "▁colors": 7855,
    "▁complexity": 7856,
    "lg": 7857,
    "Hyd": 7858,
    "Over": 7859,
    "oons": 7860,
    "micro": 7861,
    "▁mort": 7862,
    "Polish": 7863,
    "▁Water": 7864,
    "▁produces": 7865,
    "▁consumption": 7866,
    "Ke": 7867,
    "Web": 7868,
    "Pres": 7869,
    "▁pan": 7870,
    "▁rac": 7871,
    "omers": 7872,
    "▁Hindu": 7873,
    "▁Design": 7874,
    "▁abbrev": 7875,
    "▁depends": 7876,
    "▁hundreds": 7877,
    "▁succession": 7878,
    "▁circumstances": 7879,
    "lar": 7880,
    "nty": 7881,
    "tre": 7882,
    "Four": 7883,
    "▁coup": 7884,
    "▁infr": 7885,
    "Science": 7886,
    "playing": 7887,
    "▁styles": 7888,
    "unicipal": 7889,
    "▁disappe": 7890,
    "▁distinguished": 7891,
    "Dec": 7892,
    "riel": 7893,
    "▁firm": 7894,
    "ioxide": 7895,
    "ourney": 7896,
    "▁fifth": 7897,
    "inburgh": 7898,
    "▁Report": 7899,
    "▁Portugal": 7900,
    "FFFF": 7901,
    "aver": 7902,
    "▁Rem": 7903,
    "▁gene": 7904,
    "▁Years": 7905,
    "▁index": 7906,
    "hildren": 7907,
    "▁serving": 7908,
    "▁Pakistan": 7909,
    "Us": 7910,
    "alm": 7911,
    "oks": 7912,
    "Intel": 7913,
    "Water": 7914,
    "▁Well": 7915,
    "irtual": 7916,
    "Liberal": 7917,
    "▁mental": 7918,
    "▁Instead": 7919,
    "▁dropped": 7920,
    "▁improve": 7921,
    "▁trading": 7922,
    "Er": 7923,
    "ال": 7924,
    "Fer": 7925,
    "amma": 7926,
    "four": 7927,
    "names": 7928,
    "orous": 7929,
    "ductor": 7930,
    "▁Enter": 7931,
    "▁camer": 7932,
    "▁exerc": 7933,
    "Belgium": 7934,
    "▁bishop": 7935,
    "▁emerged": 7936,
    "ки": 7937,
    "Bra": 7938,
    "▁Ha": 7939,
    "avel": 7940,
    "orer": 7941,
    "▁Hug": 7942,
    "oding": 7943,
    "category": 7944,
    "▁husband": 7945,
    "Jo": 7946,
    "Ver": 7947,
    "ieth": 7948,
    "oque": 7949,
    "▁Ext": 7950,
    "appro": 7951,
    "ounce": 7952,
    "▁hole": 7953,
    "▁poem": 7954,
    "▁yield": 7955,
    "▁episodes": 7956,
    "▁notation": 7957,
    "▁spectrum": 7958,
    "Sur": 7959,
    "yer": 7960,
    "Lake": 7961,
    "▁mir": 7962,
    "bible": 7963,
    "merce": 7964,
    "ronze": 7965,
    "levant": 7966,
    "▁rural": 7967,
    "▁touch": 7968,
    "▁Danish": 7969,
    "ristotle": 7970,
    "▁restric": 7971,
    "▁identify": 7972,
    "▁republic": 7973,
    "▁distributed": 7974,
    "▁requirements": 7975,
    "▁classification": 7976,
    "tw": 7977,
    "Def": 7978,
    "Law": 7979,
    "var": 7980,
    "▁ly": 7981,
    "Ford": 7982,
    "▁boy": 7983,
    "▁enh": 7984,
    "aiwan": 7985,
    "owder": 7986,
    "riers": 7987,
    "▁wing": 7988,
    "spiracy": 7989,
    "▁sacrif": 7990,
    "▁vision": 7991,
    "aturally": 7992,
    "▁channels": 7993,
    "▁database": 7994,
    "cart": 7995,
    "sect": 7996,
    "anter": 7997,
    "ossil": 7998,
    "ureau": 7999,
    "ailing": 8000,
    "Denmark": 8001,
    "▁compre": 8002,
    "▁frequent": 8003,
    "▁geometry": 8004,
    "▁divisions": 8005,
    "lib": 8006,
    "wind": 8007,
    "▁hier": 8008,
    "▁goals": 8009,
    "section": 8010,
    "anglades": 8011,
    "plicated": 8012,
    "▁balance": 8013,
    "▁variant": 8014,
    "▁executed": 8015,
    "Protestant": 8016,
    "hon": 8017,
    "Stan": 8018,
    "ignty": 8019,
    "▁Beng": 8020,
    "▁Data": 8021,
    "vision": 8022,
    "chestra": 8023,
    "▁passing": 8024,
    "▁accompan": 8025,
    "▁organisms": 8026,
    "▁establishment": 8027,
    "Sl": 8028,
    "Mer": 8029,
    "USS": 8030,
    "inch": 8031,
    "ools": 8032,
    "astle": 8033,
    "▁Down": 8034,
    "▁beer": 8035,
    "father": 8036,
    "▁Front": 8037,
    "▁moves": 8038,
    "hensive": 8039,
    "▁crisis": 8040,
    "▁museum": 8041,
    "▁strings": 8042,
    "▁operated": 8043,
    "▁explained": 8044,
    "▁foundation": 8045,
    "offs": 8046,
    "▁Han": 8047,
    "▁beat": 8048,
    "incess": 8049,
    "lberta": 8050,
    "▁satisf": 8051,
    "▁Examples": 8052,
    "Demographics": 8053,
    "▁institution": 8054,
    "iji": 8055,
    "▁MP": 8056,
    "endo": 8057,
    "raine": 8058,
    "▁List": 8059,
    "▁recon": 8060,
    "minster": 8061,
    "▁fairly": 8062,
    "▁spaces": 8063,
    "▁assigned": 8064,
    "rik": 8065,
    "wig": 8066,
    "Karl": 8067,
    "hris": 8068,
    "itus": 8069,
    "scale": 8070,
    "▁Mess": 8071,
    "▁clar": 8072,
    "Palest": 8073,
    "▁signs": 8074,
    "issions": 8075,
    "although": 8076,
    "▁challeng": 8077,
    "▁Ob": 8078,
    "prison": 8079,
    "▁closer": 8080,
    "erritory": 8081,
    "▁facilities": 8082,
    "##": 8083,
    "bow": 8084,
    "boy": 8085,
    "olo": 8086,
    "▁dece": 8087,
    "modern": 8088,
    "▁Persian": 8089,
    "▁Stadium": 8090,
    "▁signals": 8091,
    "▁standing": 8092,
    "onnecticut": 8093,
    "raditional": 8094,
    "▁resolution": 8095,
    "רי": 8096,
    "pub": 8097,
    "uchy": 8098,
    "▁Ess": 8099,
    "andin": 8100,
    "esley": 8101,
    "ijing": 8102,
    "▁Marx": 8103,
    "▁votes": 8104,
    "Further": 8105,
    "culture": 8106,
    "▁biology": 8107,
    "▁attached": 8108,
    "▁symptoms": 8109,
    "▁characterized": 8110,
    "eam": 8111,
    "last": 8112,
    "olve": 8113,
    "oust": 8114,
    "▁Van": 8115,
    "Organ": 8116,
    "ivals": 8117,
    "owell": 8118,
    "▁Pruss": 8119,
    "▁horiz": 8120,
    "▁dioxide": 8121,
    "▁absolute": 8122,
    "▁collected": 8123,
    "ls": 8124,
    "Bos": 8125,
    "But": 8126,
    "▁mi": 8127,
    "Iraq": 8128,
    "▁Hem": 8129,
    "emble": 8130,
    "▁cosm": 8131,
    "ompson": 8132,
    "▁shift": 8133,
    "Because": 8134,
    "▁comedy": 8135,
    "▁racing": 8136,
    "▁Babylon": 8137,
    "▁officer": 8138,
    "▁Province": 8139,
    "▁formerly": 8140,
    "▁arguments": 8141,
    "py": 8142,
    "▁ה": 8143,
    "Mil": 8144,
    "▁PR": 8145,
    "enev": 8146,
    "▁Mur": 8147,
    "break": 8148,
    "onomy": 8149,
    "▁phon": 8150,
    "astron": 8151,
    "hammad": 8152,
    "nderson": 8153,
    "▁voting": 8154,
    "▁markets": 8155,
    "▁scholar": 8156,
    "▁Medicine": 8157,
    "international": 8158,
    "Ha": 8159,
    "Head": 8160,
    "▁IBM": 8161,
    "Under": 8162,
    "ierce": 8163,
    "oogle": 8164,
    "openh": 8165,
    "years": 8166,
    "▁Page": 8167,
    "▁trav": 8168,
    "Southern": 8169,
    "ithmetic": 8170,
    "▁visited": 8171,
    "▁populations": 8172,
    "▁implementation": 8173,
    "irk": 8174,
    "lets": 8175,
    "leum": 8176,
    "limate": 8177,
    "ported": 8178,
    "▁coach": 8179,
    "▁finite": 8180,
    "▁compound": 8181,
    "▁pictures": 8182,
    "▁percentage": 8183,
    "▁explanation": 8184,
    "DM": 8185,
    "IE": 8186,
    "____": 8187,
    "hent": 8188,
    "▁maps": 8189,
    "riarch": 8190,
    "Stephen": 8191,
    "▁bright": 8192,
    "▁county": 8193,
    "▁select": 8194,
    "▁grammar": 8195,
    "Elizabeth": 8196,
    "▁approved": 8197,
    "▁officers": 8198,
    "▁ordinary": 8199,
    "Ob": 8200,
    "ds": 8201,
    "nih": 8202,
    "▁aer": 8203,
    "lbania": 8204,
    "▁Saints": 8205,
    "▁limits": 8206,
    "baseball": 8207,
    "Friedrich": 8208,
    "Population": 8209,
    "▁mechanical": 8210,
    "OW": 8211,
    "?''": 8212,
    "Ret": 8213,
    "base": 8214,
    "brid": 8215,
    "iscop": 8216,
    "ridge": 8217,
    "▁Fame": 8218,
    "▁ster": 8219,
    "ersion": 8220,
    "heatre": 8221,
    "omical": 8222,
    "▁Holly": 8223,
    "▁hockey": 8224,
    "▁thinking": 8225,
    "▁Democrats": 8226,
    "▁musicians": 8227,
    "roadcasting": 8228,
    "oni": 8229,
    "anga": 8230,
    "chen": 8231,
    "odia": 8232,
    "▁Hor": 8233,
    "lingu": 8234,
    "dinand": 8235,
    "▁grown": 8236,
    "▁guard": 8237,
    "▁themes": 8238,
    "▁vector": 8239,
    "outheast": 8240,
    "software": 8241,
    "▁younger": 8242,
    "▁opponent": 8243,
    "▁Following": 8244,
    "▁locations": 8245,
    "ол": 8246,
    "bec": 8247,
    "mph": 8248,
    "cock": 8249,
    "estab": 8250,
    "short": 8251,
    "▁Farm": 8252,
    "▁tall": 8253,
    "▁depos": 8254,
    "▁train": 8255,
    "central": 8256,
    "▁colour": 8257,
    "▁obtain": 8258,
    "▁varies": 8259,
    "etroleum": 8260,
    "▁descent": 8261,
    "▁Hamilton": 8262,
    "▁statements": 8263,
    "ée": 8264,
    "uta": 8265,
    "erto": 8266,
    "▁Shar": 8267,
    "▁dual": 8268,
    "▁laid": 8269,
    "ianism": 8270,
    "▁forth": 8271,
    "▁intern": 8272,
    "▁renamed": 8273,
    "onfederate": 8274,
    "zone": 8275,
    "▁Jul": 8276,
    "opper": 8277,
    "uatem": 8278,
    "▁tell": 8279,
    "▁Short": 8280,
    "▁throw": 8281,
    "▁Forces": 8282,
    "▁divine": 8283,
    "▁street": 8284,
    "Frederick": 8285,
    "▁religions": 8286,
    "▁descendants": 8287,
    "WB": 8288,
    "oker": 8289,
    "omon": 8290,
    "orah": 8291,
    "Hindu": 8292,
    "error": 8293,
    "▁fran": 8294,
    "rations": 8295,
    "▁reserv": 8296,
    "▁neutral": 8297,
    "▁!!": 8298,
    "hell": 8299,
    "hero": 8300,
    "▁Est": 8301,
    "Steve": 8302,
    "ateur": 8303,
    "▁Here": 8304,
    "▁diet": 8305,
    "▁tool": 8306,
    "groups": 8307,
    "▁begun": 8308,
    "▁buried": 8309,
    "▁amongst": 8310,
    "▁colonial": 8311,
    "▁Federation": 8312,
    "▁association": 8313,
    "RP": 8314,
    "num": 8315,
    "Marc": 8316,
    "esty": 8317,
    "▁Jac": 8318,
    "▁Log": 8319,
    "▁ion": 8320,
    "ushed": 8321,
    "Philip": 8322,
    "comics": 8323,
    "ramaic": 8324,
    "▁doesn": 8325,
    "▁usual": 8326,
    "hompson": 8327,
    "ivation": 8328,
    "▁easier": 8329,
    "▁exceed": 8330,
    "▁excell": 8331,
    "▁illegal": 8332,
    "▁looking": 8333,
    "▁medieval": 8334,
    "▁interaction": 8335,
    "ige": 8336,
    "mid": 8337,
    "two": 8338,
    "Play": 8339,
    "anger": 8340,
    "child": 8341,
    "square": 8342,
    "▁arbitr": 8343,
    "▁consult": 8344,
    "▁Business": 8345,
    "▁hypothesis": 8346,
    "▁influences": 8347,
    "ikh": 8348,
    "indi": 8349,
    "mbox": 8350,
    "▁Fantasy": 8351,
    "▁charged": 8352,
    "▁Magazine": 8353,
    "▁colleges": 8354,
    "▁constitu": 8355,
    "▁transmission": 8356,
    "aked": 8357,
    "ascal": 8358,
    "iesel": 8359,
    "liter": 8360,
    "▁stim": 8361,
    "Finland": 8362,
    "▁emphasis": 8363,
    "▁generated": 8364,
    "▁preserved": 8365,
    "▁boundaries": 8366,
    "▁experiments": 8367,
    "RY": 8368,
    "show": 8369,
    "uled": 8370,
    "Isaac": 8371,
    "faces": 8372,
    "▁fine": 8373,
    "ancell": 8374,
    "▁kinds": 8375,
    "ampbell": 8376,
    "journal": 8377,
    "complete": 8378,
    "▁goddess": 8379,
    "▁village": 8380,
    "▁familiar": 8381,
    "▁opponents": 8382,
    "▁Ly": 8383,
    "argo": 8384,
    "itis": 8385,
    "omed": 8386,
    "berde": 8387,
    "ifier": 8388,
    "igins": 8389,
    "▁Hand": 8390,
    "ennium": 8391,
    "fortun": 8392,
    "▁param": 8393,
    "▁Swedish": 8394,
    "▁attacked": 8395,
    "▁attended": 8396,
    "ор": 8397,
    "bus": 8398,
    "ulu": 8399,
    "▁Pope": 8400,
    "▁absor": 8401,
    "▁steps": 8402,
    "▁therm": 8403,
    "▁finding": 8404,
    "▁decisions": 8405,
    "Bu": 8406,
    "gal": 8407,
    "Eric": 8408,
    "avia": 8409,
    "onial": 8410,
    "eeeeee": 8411,
    "ributes": 8412,
    "▁learned": 8413,
    "▁integral": 8414,
    "▁variation": 8415,
    "▁psychology": 8416,
    "Rh": 8417,
    "fit": 8418,
    "ados": 8419,
    "Books": 8420,
    "ennes": 8421,
    "udden": 8422,
    "▁atom": 8423,
    "▁hope": 8424,
    "otable": 8425,
    "▁fruit": 8426,
    "vements": 8427,
    "standard": 8428,
    "▁forming": 8429,
    "▁meanings": 8430,
    "▁manuscript": 8431,
    "▁supporting": 8432,
    "Ext": 8433,
    "Men": 8434,
    "jud": 8435,
    "dmir": 8436,
    "ietz": 8437,
    "▁reb": 8438,
    "▁owner": 8439,
    "▁archae": 8440,
    "▁historian": 8441,
    "▁definitions": 8442,
    "▁moon": 8443,
    "▁seek": 8444,
    "▁birds": 8445,
    "▁doubt": 8446,
    "ameroon": 8447,
    "▁railway": 8448,
    "▁prepared": 8449,
    "▁virtually": 8450,
    "bro": 8451,
    "▁Hot": 8452,
    "astro": 8453,
    "▁cogn": 8454,
    "▁rain": 8455,
    "▁parad": 8456,
    "▁column": 8457,
    "▁benefit": 8458,
    "▁Hungarian": 8459,
    "LE": 8460,
    "Lat": 8461,
    "Mod": 8462,
    "esh": 8463,
    "enny": 8464,
    "rous": 8465,
    "▁Pan": 8466,
    "▁tal": 8467,
    "Final": 8468,
    "Music": 8469,
    "▁chem": 8470,
    "enburg": 8471,
    "▁prove": 8472,
    "▁Liberal": 8473,
    "▁elsewhere": 8474,
    "ibliography": 8475,
    "substantial": 8476,
    "▁conventional": 8477,
    "male": 8478,
    "▁Mic": 8479,
    "onian": 8480,
    "Muslim": 8481,
    "▁pilot": 8482,
    "▁desire": 8483,
    "▁twelve": 8484,
    "gressive": 8485,
    "▁Olympic": 8486,
    "▁chapter": 8487,
    "▁execution": 8488,
    "▁literally": 8489,
    "WP": 8490,
    "phot": 8491,
    "▁Khan": 8492,
    "▁athe": 8493,
    "Boeing": 8494,
    "hedron": 8495,
    "▁Every": 8496,
    "iveness": 8497,
    "onymous": 8498,
    "finition": 8499,
    "▁Special": 8500,
    "▁partner": 8501,
    "▁Salvador": 8502,
    "▁approxim": 8503,
    "▁alternate": 8504,
    "▁difficulty": 8505,
    "orp": 8506,
    "Brian": 8507,
    "acent": 8508,
    "brane": 8509,
    "laude": 8510,
    "▁Kent": 8511,
    "▁thin": 8512,
    "Direct": 8513,
    "avalry": 8514,
    "▁ruler": 8515,
    "complex": 8516,
    "▁copies": 8517,
    "▁escape": 8518,
    "▁intent": 8519,
    "atholicism": 8520,
    "▁indicates": 8521,
    "▁referring": 8522,
    "▁transition": 8523,
    "Han": 8524,
    "tym": 8525,
    "zym": 8526,
    "Mike": 8527,
    "▁VII": 8528,
    "format": 8529,
    "stonia": 8530,
    "▁Basque": 8531,
    "▁Sunday": 8532,
    "▁agents": 8533,
    "▁albums": 8534,
    "aneously": 8535,
    "research": 8536,
    "angladesh": 8537,
    "▁operator": 8538,
    "BSD": 8539,
    "exp": 8540,
    "Miss": 8541,
    "oked": 8542,
    "okes": 8543,
    "▁Hond": 8544,
    "algary": 8545,
    "cision": 8546,
    "cuador": 8547,
    "overty": 8548,
    "ogether": 8549,
    "▁Harvard": 8550,
    "▁accused": 8551,
    "▁withdraw": 8552,
    "esc": 8553,
    "vin": 8554,
    "aiti": 8555,
    "blue": 8556,
    "▁Once": 8557,
    "commons": 8558,
    "▁Jersey": 8559,
    "▁accord": 8560,
    "▁myster": 8561,
    "▁unlike": 8562,
    "▁Muslims": 8563,
    "▁quantum": 8564,
    "▁partially": 8565,
    "▁Protestant": 8566,
    "▁representing": 8567,
    "mac": 8568,
    "emen": 8569,
    "ugen": 8570,
    "aceae": 8571,
    "▁conj": 8572,
    "reements": 8573,
    "▁operate": 8574,
    "▁discussed": 8575,
    "HE": 8576,
    "ür": 8577,
    "hana": 8578,
    "inds": 8579,
    "query": 8580,
    "▁stre": 8581,
    "▁cited": 8582,
    "prising": 8583,
    "▁skills": 8584,
    "▁predict": 8585,
    "▁Biography": 8586,
    "▁offensive": 8587,
    "▁assistance": 8588,
    "Sil": 8589,
    "sin": 8590,
    "Barb": 8591,
    "▁hal": 8592,
    "▁ing": 8593,
    "annib": 8594,
    "creen": 8595,
    "super": 8596,
    "▁guide": 8597,
    "entieth": 8598,
    "▁budget": 8599,
    "ietzsche": 8600,
    "▁insubstantial": 8601,
    "Mo": 8602,
    "iy": 8603,
    "abil": 8604,
    "▁fled": 8605,
    "▁dress": 8606,
    "▁refuge": 8607,
    "opyright": 8608,
    "▁confirmed": 8609,
    "oil": 8610,
    "iege": 8611,
    "orum": 8612,
    "unte": 8613,
    "▁Bowl": 8614,
    "▁Jack": 8615,
    "▁ment": 8616,
    "▁tone": 8617,
    "▁males": 8618,
    "adelphia": 8619,
    "▁painting": 8620,
    "▁survived": 8621,
    "▁commander": 8622,
    "▁solutions": 8623,
    "▁educational": 8624,
    "▁consciousness": 8625,
    "bul": 8626,
    "uzz": 8627,
    "yth": 8628,
    "Hans": 8629,
    "only": 8630,
    "ucky": 8631,
    "death": 8632,
    "server": 8633,
    "▁Psych": 8634,
    "▁covers": 8635,
    "▁sevent": 8636,
    "Portugal": 8637,
    "▁relativity": 8638,
    "▁publications": 8639,
    "Es": 8640,
    "cm": 8641,
    "ais": 8642,
    "raham": 8643,
    "▁Sing": 8644,
    "▁VIII": 8645,
    "▁edge": 8646,
    "metric": 8647,
    "ourism": 8648,
    "▁april": 8649,
    "▁roles": 8650,
    "usually": 8651,
    "▁Little": 8652,
    "▁poetry": 8653,
    "▁stages": 8654,
    "▁winner": 8655,
    "▁absence": 8656,
    "▁calling": 8657,
    "▁variants": 8658,
    "▁democratic": 8659,
    "▁originated": 8660,
    "▁Pennsylvania": 8661,
    "dog": 8662,
    "anni": 8663,
    "iece": 8664,
    "itan": 8665,
    "mill": 8666,
    "onto": 8667,
    "orps": 8668,
    "quir": 8669,
    "▁bin": 8670,
    "esian": 8671,
    "prote": 8672,
    "▁util": 8673,
    "arians": 8674,
    "rkansas": 8675,
    "▁config": 8676,
    "ographer": 8677,
    "▁involve": 8678,
    "▁printed": 8679,
    "▁syndrome": 8680,
    "▁procedure": 8681,
    "Ec": 8682,
    "MF": 8683,
    "Dun": 8684,
    "bas": 8685,
    "faq": 8686,
    "lay": 8687,
    "oga": 8688,
    "Rich": 8689,
    "good": 8690,
    "ifer": 8691,
    "iral": 8692,
    "izer": 8693,
    "quar": 8694,
    "▁vac": 8695,
    "essed": 8696,
    "omega": 8697,
    "uable": 8698,
    "▁Ross": 8699,
    "▁depth": 8700,
    "partial": 8701,
    "ugoslav": 8702,
    "▁acknow": 8703,
    "▁dating": 8704,
    "▁offers": 8705,
    "▁testing": 8706,
    "classical": 8707,
    "▁remember": 8708,
    "▁legislative": 8709,
    "MM": 8710,
    "Mars": 8711,
    "ardo": 8712,
    "cross": 8713,
    "ienna": 8714,
    "night": 8715,
    "though": 8716,
    "▁fresh": 8717,
    "Project": 8718,
    "▁encounter": 8719,
    "▁compression": 8720,
    "Lab": 8721,
    "Dist": 8722,
    "Java": 8723,
    "alic": 8724,
    "tech": 8725,
    "▁fix": 8726,
    "▁guns": 8727,
    "▁solo": 8728,
    "marine": 8729,
    "igrants": 8730,
    "mericas": 8731,
    "▁Disney": 8732,
    "▁borders": 8733,
    "▁witness": 8734,
    "gutenberg": 8735,
    "▁bacteria": 8736,
    "▁dependent": 8737,
    "kl": 8738,
    "ин": 8739,
    "anas": 8740,
    "▁Bon": 8741,
    "owned": 8742,
    "▁filled": 8743,
    "▁franch": 8744,
    "▁sculpt": 8745,
    "udi": 8746,
    "▁wa": 8747,
    "song": 8748,
    "stro": 8749,
    "adder": 8750,
    "iders": 8751,
    "phone": 8752,
    "▁Your": 8753,
    "▁girl": 8754,
    "▁jump": 8755,
    "Pierre": 8756,
    "lephone": 8757,
    "▁Donald": 8758,
    "▁rebell": 8759,
    "▁regist": 8760,
    "▁Festival": 8761,
    "▁confused": 8762,
    "dditionally": 8763,
    "▁depression": 8764,
    "▁manufacturing": 8765,
    "Long": 8766,
    "oppy": 8767,
    "gener": 8768,
    "mazon": 8769,
    "▁save": 8770,
    "▁syll": 8771,
    "▁coalition": 8772,
    "▁researchers": 8773,
    "Uk": 8774,
    "Ill": 8775,
    "Best": 8776,
    "capt": 8777,
    "live": 8778,
    "osto": 8779,
    "exist": 8780,
    "oster": 8781,
    "▁spot": 8782,
    "atalan": 8783,
    "ective": 8784,
    "▁tests": 8785,
    "lliance": 8786,
    "verseas": 8787,
    "▁diseases": 8788,
    "▁restricted": 8789,
    "▁probability": 8790,
    "▁responsibility": 8791,
    "zz": 8792,
    "iar": 8793,
    "oup": 8794,
    "Home": 8795,
    "atus": 8796,
    "elle": 8797,
    "▁orb": 8798,
    "▁tank": 8799,
    "▁drawing": 8800,
    "▁enemies": 8801,
    "▁perspective": 8802,
    "Est": 8803,
    "fam": 8804,
    "ugs": 8805,
    "aman": 8806,
    "feld": 8807,
    "aylor": 8808,
    "liber": 8809,
    "▁Dick": 8810,
    "▁snow": 8811,
    "ritics": 8812,
    "▁angle": 8813,
    "▁Dublin": 8814,
    "▁edited": 8815,
    "▁contrad": 8816,
    "aki": 8817,
    "blog": 8818,
    "kept": 8819,
    "▁Sem": 8820,
    "abled": 8821,
    "▁Fair": 8822,
    "ocaine": 8823,
    "timore": 8824,
    "▁naval": 8825,
    "▁deliber": 8826,
    "▁incident": 8827,
    "▁struggle": 8828,
    "▁Indonesia": 8829,
    "ti": 8830,
    "▁nom": 8831,
    "▁odd": 8832,
    "athol": 8833,
    "▁Mart": 8834,
    "▁fert": 8835,
    "▁harb": 8836,
    "▁hour": 8837,
    "▁fluid": 8838,
    "▁stret": 8839,
    "▁diverse": 8840,
    "▁behaviour": 8841,
    "▁implemented": 8842,
    "adv": 8843,
    "god": 8844,
    "lia": 8845,
    "mem": 8846,
    "rek": 8847,
    "oids": 8848,
    "rike": 8849,
    "▁Run": 8850,
    "▁uns": 8851,
    "prime": 8852,
    "▁nort": 8853,
    "▁Story": 8854,
    "▁merch": 8855,
    "Pakistan": 8856,
    "astructure": 8857,
    "▁continent": 8858,
    "Jos": 8859,
    "oyd": 8860,
    "acker": 8861,
    "▁Site": 8862,
    "▁bases": 8863,
    "ritical": 8864,
    "▁dismiss": 8865,
    "▁passage": 8866,
    "▁promote": 8867,
    "▁Sciences": 8868,
    "dor": 8869,
    "ooth": 8870,
    "▁Son": 8871,
    "▁ham": 8872,
    "bling": 8873,
    "▁poly": 8874,
    "▁soil": 8875,
    "▁abuse": 8876,
    "▁plain": 8877,
    "endment": 8878,
    "▁certainly": 8879,
    "▁instructions": 8880,
    "lk": 8881,
    "zeg": 8882,
    "ilst": 8883,
    "antor": 8884,
    "ovina": 8885,
    "ucose": 8886,
    "▁Rand": 8887,
    "▁prol": 8888,
    "▁rein": 8889,
    "▁merged": 8890,
    "▁notice": 8891,
    "▁cartoon": 8892,
    "▁credited": 8893,
    "information": 8894,
    "Max": 8895,
    "Mus": 8896,
    "iva": 8897,
    "Herm": 8898,
    "▁Dom": 8899,
    "Harry": 8900,
    "lavic": 8901,
    "▁Main": 8902,
    "▁didn": 8903,
    "orrect": 8904,
    "▁chart": 8905,
    "▁funds": 8906,
    "▁squad": 8907,
    "▁appeal": 8908,
    "▁gravity": 8909,
    "▁grounds": 8910,
    "▁longest": 8911,
    "▁molecule": 8912,
    "▁electrons": 8913,
    "Fe": 8914,
    "PM": 8915,
    "iov": 8916,
    "full": 8917,
    "iast": 8918,
    "ogram": 8919,
    "secut": 8920,
    "Living": 8921,
    "before": 8922,
    "▁legit": 8923,
    "▁milit": 8924,
    "otional": 8925,
    "▁condem": 8926,
    "▁gender": 8927,
    "▁studio": 8928,
    "▁Ontario": 8929,
    "▁historic": 8930,
    "▁phenomena": 8931,
    "lob": 8932,
    "More": 8933,
    "▁rom": 8934,
    "nergy": 8935,
    "orient": 8936,
    "▁skill": 8937,
    "lovakia": 8938,
    "▁seemed": 8939,
    "electric": 8940,
    "▁survive": 8941,
    "Historical": 8942,
    "▁encouraged": 8943,
    "▁possession": 8944,
    "▁Engineering": 8945,
    "▁transferred": 8946,
    "▁communications": 8947,
    "RS": 8948,
    "rox": 8949,
    "acre": 8950,
    "amps": 8951,
    "arms": 8952,
    "uban": 8953,
    "ocket": 8954,
    "▁mand": 8955,
    "bourne": 8956,
    "coming": 8957,
    "▁diagn": 8958,
    "▁displ": 8959,
    "▁inner": 8960,
    "hrugged": 8961,
    "▁serves": 8962,
    "hydrogen": 8963,
    "▁keeping": 8964,
    "▁Imperial": 8965,
    "▁Microsoft": 8966,
    "▁reactions": 8967,
    "▁celebrated": 8968,
    "acts": 8969,
    "orate": 8970,
    "rchae": 8971,
    "labama": 8972,
    "▁Baron": 8973,
    "▁clubs": 8974,
    "▁steel": 8975,
    "▁counties": 8976,
    "izz": 8977,
    "▁Su": 8978,
    "owed": 8979,
    "▁Dog": 8980,
    "▁Hob": 8981,
    "olicy": 8982,
    "ateral": 8983,
    "iggest": 8984,
    "▁watch": 8985,
    "▁Others": 8986,
    "Benjamin": 8987,
    "▁carrying": 8988,
    "▁Furthermore": 8989,
    "iko": 8990,
    "loc": 8991,
    "nasa": 8992,
    "actor": 8993,
    "annon": 8994,
    "argon": 8995,
    "▁Iowa": 8996,
    "▁forb": 8997,
    "histor": 8998,
    "algebra": 8999,
    "iginally": 9000,
    "▁Digital": 9001,
    "claration": 9002,
    "▁velocity": 9003,
    "▁Esperanto": 9004,
    "▁Publishing": 9005,
    "▁interpreted": 9006,
    "Po": 9007,
    "ahn": 9008,
    "furt": 9009,
    "ulty": 9010,
    "engers": 9011,
    "regular": 9012,
    "▁margin": 9013,
    "▁plural": 9014,
    "ancellor": 9015,
    "▁regularly": 9016,
    "▁exclusively": 9017,
    "EY": 9018,
    "cio": 9019,
    "ssy": 9020,
    "best": 9021,
    "conn": 9022,
    "emic": 9023,
    "Media": 9024,
    "graph": 9025,
    "ravel": 9026,
    "▁kick": 9027,
    "▁send": 9028,
    "Oxford": 9029,
    "oronto": 9030,
    "▁waves": 9031,
    "▁Howard": 9032,
    "▁losing": 9033,
    "▁rulers": 9034,
    "▁simult": 9035,
    "▁economics": 9036,
    "▁intelligent": 9037,
    "ét": 9038,
    "Bro": 9039,
    "abol": 9040,
    "phal": 9041,
    "atever": 9042,
    "ffffff": 9043,
    "▁acids": 9044,
    "▁facts": 9045,
    "▁solar": 9046,
    "Islamic": 9047,
    "▁comics": 9048,
    "▁couple": 9049,
    "▁ritual": 9050,
    "ollywood": 9051,
    "▁Belgium": 9052,
    "▁violent": 9053,
    "▁physicist": 9054,
    "▁consistent": 9055,
    "▁transportation": 9056,
    "aho": 9057,
    "nch": 9058,
    "Phys": 9059,
    "arin": 9060,
    "look": 9061,
    "▁Que": 9062,
    "▁sky": 9063,
    "Jesus": 9064,
    "▁Head": 9065,
    "double": 9066,
    "regory": 9067,
    "dvanced": 9068,
    "▁starts": 9069,
    "▁undert": 9070,
    "▁vowels": 9071,
    "▁focused": 9072,
    "▁planning": 9073,
    "▁situations": 9074,
    "▁restrictions": 9075,
    "ión": 9076,
    "ipel": 9077,
    "▁Bruce": 9078,
    "▁camps": 9079,
    "intendo": 9080,
    "▁Batman": 9081,
    "▁recept": 9082,
    "▁rowspan": 9083,
    "▁selling": 9084,
    "▁kilometers": 9085,
    "▁distinctive": 9086,
    "apes": 9087,
    "▁buy": 9088,
    "▁cle": 9089,
    "▁egg": 9090,
    "ngola": 9091,
    "ransl": 9092,
    "▁adap": 9093,
    "▁brand": 9094,
    "▁exped": 9095,
    "▁tells": 9096,
    "▁Luther": 9097,
    "▁Palace": 9098,
    "▁Indians": 9099,
    "▁diagram": 9100,
    "▁keyboard": 9101,
    "▁vertical": 9102,
    "▁demonstrated": 9103,
    "Wil": 9104,
    "iot": 9105,
    "▁Mr": 9106,
    "▁nut": 9107,
    "hardt": 9108,
    "plant": 9109,
    "▁Scot": 9110,
    "▁hits": 9111,
    "Secret": 9112,
    "▁grant": 9113,
    "▁temple": 9114,
    "▁bishops": 9115,
    "▁minimum": 9116,
    "▁proteins": 9117,
    "griculture": 9118,
    "▁≡": 9119,
    "nes": 9120,
    "orus": 9121,
    "ibert": 9122,
    "▁Rica": 9123,
    "▁knew": 9124,
    "▁soft": 9125,
    "▁Works": 9126,
    "▁Master": 9127,
    "velation": 9128,
    "▁coastal": 9129,
    "▁getting": 9130,
    "▁patient": 9131,
    "▁entertain": 9132,
    "▁naturally": 9133,
    "▁comparison": 9134,
    "communications": 9135,
    "▁pronunciation": 9136,
    "ия": 9137,
    "eded": 9138,
    "elts": 9139,
    "Hawai": 9140,
    "otype": 9141,
    "▁Sign": 9142,
    "inated": 9143,
    "▁Women": 9144,
    "Harvard": 9145,
    "roadway": 9146,
    "▁slowly": 9147,
    "▁waters": 9148,
    "▁champion": 9149,
    "▁followers": 9150,
    "Il": 9151,
    "Joe": 9152,
    "nail": 9153,
    "garian": 9154,
    "▁Point": 9155,
    "▁blues": 9156,
    "▁floor": 9157,
    "▁armies": 9158,
    "▁prophe": 9159,
    "▁charges": 9160,
    "▁precise": 9161,
    "angelical": 9162,
    "▁sentence": 9163,
    "▁ownership": 9164,
    "▁industries": 9165,
    "▁agriculture": 9166,
    "nut": 9167,
    "quo": 9168,
    "ycl": 9169,
    "auss": 9170,
    "eping": 9171,
    "ograf": 9172,
    "▁Dark": 9173,
    "▁Fund": 9174,
    "▁sure": 9175,
    "▁turns": 9176,
    "ocities": 9177,
    "▁briefly": 9178,
    "anterbury": 9179,
    "▁founding": 9180,
    "dimensional": 9181,
    "▁Historical": 9182,
    "IO": 9183,
    "uj": 9184,
    "Deb": 9185,
    "ela": 9186,
    "ipe": 9187,
    "syn": 9188,
    "rior": 9189,
    "▁rig": 9190,
    "cript": 9191,
    "▁mood": 9192,
    "▁node": 9193,
    "▁chose": 9194,
    "▁surre": 9195,
    "▁virus": 9196,
    "irlines": 9197,
    "▁Before": 9198,
    "▁flying": 9199,
    "▁Website": 9200,
    "Byzantine": 9201,
    "▁Baseball": 9202,
    "▁retained": 9203,
    "jö": 9204,
    "Hen": 9205,
    "isa": 9206,
    "blem": 9207,
    "unes": 9208,
    "Bible": 9209,
    "agues": 9210,
    "otten": 9211,
    "▁Beck": 9212,
    "cludes": 9213,
    "onents": 9214,
    "▁enorm": 9215,
    "Despite": 9216,
    "digital": 9217,
    "▁Square": 9218,
    "religion": 9219,
    "▁protected": 9220,
    "constitution": 9221,
    "Que": 9222,
    "aft": 9223,
    "ses": 9224,
    "▁cm": 9225,
    "aden": 9226,
    "bach": 9227,
    "evin": 9228,
    "hous": 9229,
    "itts": 9230,
    "▁Lic": 9231,
    "▁Sax": 9232,
    "▁fat": 9233,
    "earth": 9234,
    "erald": 9235,
    "onfuc": 9236,
    "robot": 9237,
    "▁Hard": 9238,
    "▁inhib": 9239,
    "▁judge": 9240,
    "▁ocean": 9241,
    "▁assault": 9242,
    "construct": 9243,
    "▁humanity": 9244,
    "▁singular": 9245,
    "▁scientist": 9246,
    "Ro": 9247,
    "aq": 9248,
    "▁Sin": 9249,
    "oters": 9250,
    "▁tube": 9251,
    "▁comed": 9252,
    "▁expos": 9253,
    "matical": 9254,
    "▁Unlike": 9255,
    "▁drives": 9256,
    "▁mixture": 9257,
    "ος": 9258,
    "chi": 9259,
    "mel": 9260,
    "egel": 9261,
    "ffee": 9262,
    "rove": 9263,
    "scar": 9264,
    "sign": 9265,
    "▁nit": 9266,
    "allas": 9267,
    "eness": 9268,
    "▁Wild": 9269,
    "▁sell": 9270,
    "formed": 9271,
    "icycle": 9272,
    "▁disag": 9273,
    "▁hyper": 9274,
    "itative": 9275,
    "uminium": 9276,
    "▁Bureau": 9277,
    "▁lowest": 9278,
    "▁routes": 9279,
    "▁scheme": 9280,
    "▁yellow": 9281,
    "uatemala": 9282,
    "▁Douglas": 9283,
    "▁Politics": 9284,
    "Parliament": 9285,
    "▁specified": 9286,
    "▁candidates": 9287,
    "LO": 9288,
    "Pet": 9289,
    "\\,&": 9290,
    "abe": 9291,
    "ando": 9292,
    "asks": 9293,
    "itime": 9294,
    "pages": 9295,
    "▁cens": 9296,
    "▁skin": 9297,
    "▁trust": 9298,
    "▁allies": 9299,
    "rational": 9300,
    "▁interior": 9301,
    "▁confusion": 9302,
    "lice": 9303,
    "oron": 9304,
    "▁pet": 9305,
    "Buddh": 9306,
    "simov": 9307,
    "ugene": 9308,
    "▁lect": 9309,
    "itudes": 9310,
    "berdeen": 9311,
    "ornwall": 9312,
    "▁doctor": 9313,
    "▁sudden": 9314,
    "▁mathematician": 9315,
    "uf": 9316,
    "Ken": 9317,
    "anz": 9318,
    "emon": 9319,
    "wick": 9320,
    "track": 9321,
    "uplic": 9322,
    "Batman": 9323,
    "rolled": 9324,
    "▁blind": 9325,
    "▁Region": 9326,
    "▁Houston": 9327,
    "▁biggest": 9328,
    "▁exports": 9329,
    "▁landing": 9330,
    "▁obvious": 9331,
    "▁weather": 9332,
    "Hungarian": 9333,
    "▁depicted": 9334,
    "▁happened": 9335,
    "▁insurance": 9336,
    "▁championship": 9337,
    "agu": 9338,
    "Form": 9339,
    "ugby": 9340,
    "▁Ray": 9341,
    "▁pra": 9342,
    "avery": 9343,
    "▁Barn": 9344,
    "▁manip": 9345,
    "▁secure": 9346,
    "▁tracks": 9347,
    "▁magnetic": 9348,
    "▁districts": 9349,
    "▁considerably": 9350,
    "▁contributions": 9351,
    "prim": 9352,
    "▁Low": 9353,
    "Space": 9354,
    "ustion": 9355,
    "▁assign": 9356,
    "▁emperors": 9357,
    "dministration": 9358,
    "Ly": 9359,
    "ben": 9360,
    "dys": 9361,
    "nap": 9362,
    "▁Jo": 9363,
    "plus": 9364,
    "heres": 9365,
    "osome": 9366,
    "▁Back": 9367,
    "▁Mand": 9368,
    "exican": 9369,
    "century": 9370,
    "laudius": 9371,
    "▁horses": 9372,
    "restrial": 9373,
    "▁properly": 9374,
    "enaissance": 9375,
    "▁conquered": 9376,
    "▁jurisdiction": 9377,
    "SU": 9378,
    "Up": 9379,
    "bia": 9380,
    "adow": 9381,
    "amas": 9382,
    "orde": 9383,
    "ethyl": 9384,
    "▁Sand": 9385,
    "▁enforce": 9386,
    "▁logical": 9387,
    "▁Services": 9388,
    "▁starring": 9389,
    "▁Retrieved": 9390,
    "▁describing": 9391,
    "gent": 9392,
    "▁dub": 9393,
    "▁fer": 9394,
    "▁rif": 9395,
    "▁squ": 9396,
    "▁vul": 9397,
    "heric": 9398,
    "▁summ": 9399,
    "▁flood": 9400,
    "▁Dynasty": 9401,
    "Operation": 9402,
    "▁Building": 9403,
    "▁disputed": 9404,
    "▁monarchy": 9405,
    "▁criticized": 9406,
    "▁accompanied": 9407,
    "▁historically": 9408,
    "Mah": 9409,
    "gun": 9410,
    "▁Ol": 9411,
    "auge": 9412,
    "held": 9413,
    "made": 9414,
    "rell": 9415,
    "▁bes": 9416,
    "▁Mill": 9417,
    "▁Prem": 9418,
    "engine": 9419,
    "atholics": 9420,
    "▁engaged": 9421,
    "▁offices": 9422,
    "▁victims": 9423,
    "▁compatible": 9424,
    "▁explicitly": 9425,
    "oku": 9426,
    "auer": 9427,
    "just": 9428,
    "ndre": 9429,
    "Mexico": 9430,
    "ascism": 9431,
    "rising": 9432,
    "▁sight": 9433,
    "quantum": 9434,
    "omputing": 9435,
    "▁Princip": 9436,
    "▁restaur": 9437,
    "▁annivers": 9438,
    "▁covering": 9439,
    "▁Hollywood": 9440,
    "pm": 9441,
    "Just": 9442,
    "▁Ell": 9443,
    "istol": 9444,
    "▁Whit": 9445,
    "arious": 9446,
    "ivered": 9447,
    "strong": 9448,
    "▁races": 9449,
    "▁driver": 9450,
    "reenland": 9451,
    "▁females": 9452,
    "▁painter": 9453,
    "▁reducing": 9454,
    "▁diplomatic": 9455,
    "▁specialized": 9456,
    "▁manufacturers": 9457,
    "dm": 9458,
    "uh": 9459,
    "ал": 9460,
    "beg": 9461,
    "augh": 9462,
    "chers": 9463,
    "▁volt": 9464,
    "▁wire": 9465,
    "▁conven": 9466,
    "▁propag": 9467,
    "▁Finnish": 9468,
    "▁compact": 9469,
    "▁Harrison": 9470,
    "▁mainland": 9471,
    "▁supports": 9472,
    "▁biography": 9473,
    "▁processor": 9474,
    "▁receiving": 9475,
    "▁synthesis": 9476,
    "hav": 9477,
    "▁ha": 9478,
    "affe": 9479,
    "alin": 9480,
    "ulus": 9481,
    "Delta": 9482,
    "▁eval": 9483,
    "Indiana": 9484,
    "inceton": 9485,
    "sterdam": 9486,
    "▁strike": 9487,
    "▁Stephen": 9488,
    "▁retired": 9489,
    "▁declined": 9490,
    "romagnetic": 9491,
    "▁inflation": 9492,
    "én": 9493,
    "Ele": 9494,
    "asi": 9495,
    "zek": 9496,
    "▁Sl": 9497,
    "ophy": 9498,
    "Union": 9499,
    "ongol": 9500,
    "▁hall": 9501,
    "ibilities": 9502,
    "ontinental": 9503,
    "▁substances": 9504,
    "BO": 9505,
    "PI": 9506,
    "SF": 9507,
    "Det": 9508,
    "iga": 9509,
    "optic": 9510,
    "▁Much": 9511,
    "▁sand": 9512,
    "akespe": 9513,
    "cribed": 9514,
    "▁array": 9515,
    "▁mobile": 9516,
    "Les": 9517,
    "Back": 9518,
    "aide": 9519,
    "▁Dor": 9520,
    "▁Los": 9521,
    "▁tot": 9522,
    "Radio": 9523,
    "blood": 9524,
    "ovich": 9525,
    "▁empt": 9526,
    "▁safe": 9527,
    "▁shif": 9528,
    "region": 9529,
    "building": 9530,
    "▁benefits": 9531,
    "▁reduction": 9532,
    "▁continuing": 9533,
    "▁indigenous": 9534,
    "▁subdivision": 9535,
    "communication": 9536,
    "▁headquarters": 9537,
    "▁observations": 9538,
    "LL": 9539,
    "oded": 9540,
    "oren": 9541,
    "ensed": 9542,
    "▁lose": 9543,
    "▁vice": 9544,
    "lfonso": 9545,
    "linear": 9546,
    "▁compr": 9547,
    "▁thick": 9548,
    "caption": 9549,
    "▁inspir": 9550,
    "▁transp": 9551,
    "atherine": 9552,
    "anchester": 9553,
    "▁Ministry": 9554,
    "Bay": 9555,
    "Jan": 9556,
    "oqu": 9557,
    "ugu": 9558,
    "idad": 9559,
    "imir": 9560,
    "▁Ori": 9561,
    "▁lie": 9562,
    "Danish": 9563,
    "▁Model": 9564,
    "Iceland": 9565,
    "islative": 9566,
    "▁Railway": 9567,
    "▁penalty": 9568,
    "▁varying": 9569,
    "▁passenger": 9570,
    "▁arrangement": 9571,
    "▁opportunity": 9572,
    "▁replacement": 9573,
    "▁Has": 9574,
    "▁Vis": 9575,
    "▁ren": 9576,
    "dated": 9577,
    "eland": 9578,
    "Darwin": 9579,
    "ntonio": 9580,
    "▁termed": 9581,
    "▁revision": 9582,
    "▁immediate": 9583,
    "▁permitted": 9584,
    "Kh": 9585,
    "Ell": 9586,
    "▁Es": 9587,
    "arks": 9588,
    "borg": 9589,
    "kind": 9590,
    "ryan": 9591,
    "▁sale": 9592,
    "ulsion": 9593,
    "ussels": 9594,
    "▁rocks": 9595,
    "▁gather": 9596,
    "▁rising": 9597,
    "economic": 9598,
    "▁boundary": 9599,
    "▁reaching": 9600,
    "ologically": 9601,
    "▁experiences": 9602,
    "▁Independence": 9603,
    "lu": 9604,
    "acs": 9605,
    "gas": 9606,
    "both": 9607,
    "food": 9608,
    "ipse": 9609,
    "otto": 9610,
    "agger": 9611,
    "▁mile": 9612,
    "▁spin": 9613,
    "gallery": 9614,
    "lbanian": 9615,
    "▁elabor": 9616,
    "▁therapy": 9617,
    "Switzerland": 9618,
    "▁proportion": 9619,
    "▁theoretical": 9620,
    "harl": 9621,
    "eneva": 9622,
    "▁crow": 9623,
    "▁keys": 9624,
    "▁wish": 9625,
    "▁curve": 9626,
    "▁habit": 9627,
    "▁loyal": 9628,
    "▁Miller": 9629,
    "akespeare": 9630,
    "▁isolated": 9631,
    "▁composers": 9632,
    "▁interested": 9633,
    "▁profession": 9634,
    "▁connections": 9635,
    "▁encyclopedia": 9636,
    "Data": 9637,
    "Sing": 9638,
    "bird": 9639,
    "enic": 9640,
    "gold": 9641,
    "loss": 9642,
    "▁Last": 9643,
    "▁coin": 9644,
    "▁insc": 9645,
    "amburg": 9646,
    "errari": 9647,
    "illage": 9648,
    "veolar": 9649,
    "▁overs": 9650,
    "annibal": 9651,
    "▁Wright": 9652,
    "▁ranges": 9653,
    "▁illness": 9654,
    "▁seasons": 9655,
    "▁brothers": 9656,
    "expl": 9657,
    "othy": 9658,
    "town": 9659,
    "▁Wat": 9660,
    "▁din": 9661,
    "fault": 9662,
    "ultan": 9663,
    "▁Pass": 9664,
    "▁gets": 9665,
    "▁pairs": 9666,
    "▁Summer": 9667,
    "▁banned": 9668,
    "▁scenes": 9669,
    "msterdam": 9670,
    "▁infantry": 9671,
    "▁infection": 9672,
    "▁translations": 9673,
    "Spe": 9674,
    "mut": 9675,
    "Leon": 9676,
    "iest": 9677,
    "▁Jon": 9678,
    "arcel": 9679,
    "▁guar": 9680,
    "ushing": 9681,
    "Ottoman": 9682,
    "density": 9683,
    "ovenant": 9684,
    "riminal": 9685,
    "▁borrow": 9686,
    "▁fellow": 9687,
    "▁filter": 9688,
    "▁option": 9689,
    "ifferent": 9690,
    "▁claiming": 9691,
    "▁missiles": 9692,
    "▁afterwards": 9693,
    "dy": 9694,
    "elli": 9695,
    "otsw": 9696,
    "rele": 9697,
    "odium": 9698,
    "achers": 9699,
    "ivated": 9700,
    "anskrit": 9701,
    "▁passes": 9702,
    "computing": 9703,
    "▁alliance": 9704,
    "▁Macintosh": 9705,
    "dé": 9706,
    "ín": 9707,
    "Sol": 9708,
    "▁ca": 9709,
    "core": 9710,
    "early": 9711,
    "rates": 9712,
    "speed": 9713,
    "▁sust": 9714,
    "termin": 9715,
    "untary": 9716,
    "▁delay": 9717,
    "▁imper": 9718,
    "▁toler": 9719,
    "▁expert": 9720,
    "▁volumes": 9721,
    "▁predecess": 9722,
    "▁commentary": 9723,
    "Ir": 9724,
    "nu": 9725,
    "aso": 9726,
    "▁Ent": 9727,
    "▁Lim": 9728,
    "▁axis": 9729,
    "Little": 9730,
    "▁heads": 9731,
    "▁stead": 9732,
    "▁Indeed": 9733,
    "▁duties": 9734,
    "▁patent": 9735,
    "▁ruling": 9736,
    "▁publicly": 9737,
    "▁beautiful": 9738,
    "▁purchased": 9739,
    "▁Literature": 9740,
    "▁accessyear": 9741,
    "▁designated": 9742,
    "rms": 9743,
    "sal": 9744,
    "▁Ltd": 9745,
    "▁Euro": 9746,
    "▁cruc": 9747,
    "▁item": 9748,
    "ritrea": 9749,
    "▁alien": 9750,
    "ersonal": 9751,
    "▁crimes": 9752,
    "magazine": 9753,
    "ypically": 9754,
    "▁planets": 9755,
    "▁developments": 9756,
    "Bor": 9757,
    "pin": 9758,
    "rak": 9759,
    "Jeff": 9760,
    "esia": 9761,
    "▁rum": 9762,
    "ching": 9763,
    "month": 9764,
    "▁fulf": 9765,
    "▁spons": 9766,
    "▁revers": 9767,
    "Imperial": 9768,
    "collapse": 9769,
    "oiceless": 9770,
    "▁chamber": 9771,
    "▁conquest": 9772,
    "▁suitable": 9773,
    "▁delivered": 9774,
    "▁prisoners": 9775,
    "Will": 9776,
    "▁Der": 9777,
    "aders": 9778,
    "ambda": 9779,
    "guard": 9780,
    "▁Prop": 9781,
    "▁diam": 9782,
    "▁exile": 9783,
    "bstract": 9784,
    "fiction": 9785,
    "▁equally": 9786,
    "▁extract": 9787,
    "▁stopped": 9788,
    "▁punishment": 9789,
    "publications": 9790,
    "Ur": 9791,
    "oom": 9792,
    "uma": 9793,
    "Bell": 9794,
    "rift": 9795,
    "▁Him": 9796,
    "▁KEY": 9797,
    "▁hip": 9798,
    "apore": 9799,
    "glass": 9800,
    "heart": 9801,
    "▁debt": 9802,
    "▁tele": 9803,
    "▁Beach": 9804,
    "▁craft": 9805,
    "popular": 9806,
    "▁cinema": 9807,
    "▁depict": 9808,
    "▁labour": 9809,
    "pressive": 9810,
    "▁millions": 9811,
    "▁intention": 9812,
    "▁surviving": 9813,
    "▁establishing": 9814,
    "▁experimental": 9815,
    "▁Representatives": 9816,
    "kil": 9817,
    "uct": 9818,
    "Duke": 9819,
    "ilib": 9820,
    "yram": 9821,
    "▁hex": 9822,
    "andal": 9823,
    "berry": 9824,
    "rnold": 9825,
    "urric": 9826,
    "▁tape": 9827,
    "ishers": 9828,
    "making": 9829,
    "school": 9830,
    "▁Faith": 9831,
    "▁decay": 9832,
    "▁laure": 9833,
    "Swedish": 9834,
    "ensively": 9835,
    "idential": 9836,
    "zegovina": 9837,
    "▁Freedom": 9838,
    "▁restored": 9839,
    "▁professor": 9840,
    "▁complicated": 9841,
    "Su": 9842,
    "Dep": 9843,
    "mil": 9844,
    "eoff": 9845,
    "etry": 9846,
    "opic": 9847,
    "▁Six": 9848,
    "▁pul": 9849,
    "olini": 9850,
    "▁duty": 9851,
    "orence": 9852,
    "orinth": 9853,
    "▁escap": 9854,
    "▁falls": 9855,
    "▁genus": 9856,
    "▁Mormon": 9857,
    "▁heaven": 9858,
    "▁survey": 9859,
    "isations": 9860,
    "character": 9861,
    "▁Document": 9862,
    "linguistics": 9863,
    "▁integrated": 9864,
    "▁Broadcasting": 9865,
    "Far": 9866,
    "Hor": 9867,
    "Mem": 9868,
    "eil": 9869,
    "lew": 9870,
    "▁lb": 9871,
    "arsh": 9872,
    "irce": 9873,
    "▁Yan": 9874,
    "▁asc": 9875,
    "ardin": 9876,
    "autom": 9877,
    "rator": 9878,
    "▁flav": 9879,
    "apters": 9880,
    "illery": 9881,
    "nation": 9882,
    "teenth": 9883,
    "▁Hitch": 9884,
    "▁campus": 9885,
    "▁prompt": 9886,
    "▁versus": 9887,
    "▁Detroit": 9888,
    "▁Matthew": 9889,
    "▁implies": 9890,
    "▁seconds": 9891,
    "ju": 9892,
    "Jon": 9893,
    "phy": 9894,
    "ymn": 9895,
    "Love": 9896,
    "Magn": 9897,
    "burn": 9898,
    "isch": 9899,
    "odge": 9900,
    "▁Leb": 9901,
    "eting": 9902,
    "▁Bang": 9903,
    "▁wine": 9904,
    "entaur": 9905,
    "finite": 9906,
    "▁Minor": 9907,
    "▁annex": 9908,
    "▁banks": 9909,
    "▁roads": 9910,
    "▁tight": 9911,
    "abulary": 9912,
    "ippines": 9913,
    "▁camera": 9914,
    "▁harmon": 9915,
    "▁lyrics": 9916,
    "▁presum": 9917,
    "Standard": 9918,
    "tainment": 9919,
    "▁devoted": 9920,
    "▁turning": 9921,
    "▁relevant": 9922,
    "lc": 9923,
    "vy": 9924,
    "oal": 9925,
    "aton": 9926,
    "heod": 9927,
    "umen": 9928,
    "umph": 9929,
    "▁Beg": 9930,
    "▁Mid": 9931,
    "ector": 9932,
    "float": 9933,
    "ydney": 9934,
    "▁Berg": 9935,
    "▁chess": 9936,
    "Vietnam": 9937,
    "rticles": 9938,
    "unicode": 9939,
    "▁Samuel": 9940,
    "▁driven": 9941,
    "Victoria": 9942,
    "▁enjoyed": 9943,
    "▁funding": 9944,
    "▁reverse": 9945,
    "▁theatre": 9946,
    "▁downtown": 9947,
    "▁strictly": 9948,
    "▁Mountains": 9949,
    "▁involvement": 9950,
    "▁technologies": 9951,
    "amo": 9952,
    "nab": 9953,
    "vet": 9954,
    "▁OF": 9955,
    "Fire": 9956,
    "Lith": 9957,
    "laus": 9958,
    "▁cul": 9959,
    "anese": 9960,
    "media": 9961,
    "omplex": 9962,
    "opping": 9963,
    "review": 9964,
    "season": 9965,
    "▁essay": 9966,
    "▁oblig": 9967,
    "▁tends": 9968,
    "▁Method": 9969,
    "▁adjust": 9970,
    "▁capita": 9971,
    "haracter": 9972,
    "regorian": 9973,
    "▁adapted": 9974,
    "▁convers": 9975,
    "▁teacher": 9976,
    "▁Holocaust": 9977,
    "▁corporate": 9978,
    "▁artificial": 9979,
    "▁comprehensive": 9980,
    "ав": 9981,
    "ded": 9982,
    "apor": 9983,
    "atty": 9984,
    "audi": 9985,
    "bank": 9986,
    "fund": 9987,
    "ivism": 9988,
    "redit": 9989,
    "▁Iron": 9990,
    "rinity": 9991,
    "roatian": 9992,
    "▁entity": 9993,
    "ountries": 9994,
    "▁charter": 9995,
    "▁imprison": 9996,
    "▁recognize": 9997,
    "▁uncertain": 9998,
    "▁conclusion": 9999,
    "▁performing": 10000,
    "MO": 10001,
    "Out": 10002,
    "Kore": 10003,
    "anna": 10004,
    "apit": 10005,
    "ermin": 10006,
    "range": 10007,
    "third": 10008,
    "▁door": 10009,
    "Walter": 10010,
    "inical": 10011,
    "inking": 10012,
    "▁Exper": 10013,
    "gateway": 10014,
    "iscopal": 10015,
    "▁Knight": 10016,
    "▁export": 10017,
    "echnical": 10018,
    "▁approval": 10019,
    "▁quantity": 10020,
    "▁defensive": 10021,
    "▁spacecraft": 10022,
    "▁advertising": 10023,
    "aks": 10024,
    "iem": 10025,
    "cula": 10026,
    "▁Eli": 10027,
    "frika": 10028,
    "▁Bart": 10029,
    "riction": 10030,
    "▁Volume": 10031,
    "▁senior": 10032,
    "▁titled": 10033,
    "▁accuracy": 10034,
    "▁register": 10035,
    "▁theology": 10036,
    "▁indicated": 10037,
    "▁magnitude": 10038,
    "▁variables": 10039,
    "▁quantities": 10040,
    "▁settlements": 10041,
    "▁concentrated": 10042,
    "olds": 10043,
    "ouri": 10044,
    "stad": 10045,
    "zerb": 10046,
    "▁Due": 10047,
    "ipper": 10048,
    "▁gone": 10049,
    "Samuel": 10050,
    "annica": 10051,
    "ingham": 10052,
    "▁Brand": 10053,
    "▁Intel": 10054,
    "▁faced": 10055,
    "onomous": 10056,
    "▁assume": 10057,
    "▁valley": 10058,
    "oriented": 10059,
    "wikiquote": 10060,
    "▁adjacent": 10061,
    "▁everyone": 10062,
    "▁messages": 10063,
    "▁Similarly": 10064,
    "▁excellent": 10065,
    "▁maintains": 10066,
    "▁consequence": 10067,
    "BE": 10068,
    "fy": 10069,
    "hyp": 10070,
    "may": 10071,
    "ruly": 10072,
    "aphys": 10073,
    "often": 10074,
    "quake": 10075,
    "▁fric": 10076,
    "▁meat": 10077,
    "sexual": 10078,
    "▁appre": 10079,
    "▁enzym": 10080,
    "Babylon": 10081,
    "Detroit": 10082,
    "icholas": 10083,
    "▁relief": 10084,
    "▁resist": 10085,
    "▁varied": 10086,
    "▁Medical": 10087,
    "▁efficiency": 10088,
    "Rad": 10089,
    "aer": 10090,
    "jib": 10091,
    "▁Lo": 10092,
    "conf": 10093,
    "emed": 10094,
    "enal": 10095,
    "Roger": 10096,
    "forest": 10097,
    "listen": 10098,
    "master": 10099,
    "▁verse": 10100,
    "mediate": 10101,
    "▁overth": 10102,
    "▁applies": 10103,
    "▁cricket": 10104,
    "▁herself": 10105,
    "▁consequences": 10106,
    "IX": 10107,
    "zt": 10108,
    "Bank": 10109,
    "cium": 10110,
    "punk": 10111,
    "harma": 10112,
    "▁Band": 10113,
    "reater": 10114,
    "▁Dance": 10115,
    "▁Diego": 10116,
    "▁chlor": 10117,
    "▁Scotia": 10118,
    "▁slaves": 10119,
    "▁volcan": 10120,
    "▁cavalry": 10121,
    "▁justice": 10122,
    "employment": 10123,
    "▁dimension": 10124,
    "▁varieties": 10125,
    "▁regardless": 10126,
    "bio": 10127,
    "lag": 10128,
    "alus": 10129,
    "ippi": 10130,
    "▁Jos": 10131,
    "▁Lib": 10132,
    "Brown": 10133,
    "llied": 10134,
    "▁ethics": 10135,
    "▁multip": 10136,
    "urrently": 10137,
    "▁Belarus": 10138,
    "▁exposed": 10139,
    "thumbnail": 10140,
    "▁Mountain": 10141,
    "▁missions": 10142,
    "▁concluded": 10143,
    "uw": 10144,
    "ов": 10145,
    "ти": 10146,
    "hew": 10147,
    "hex": 10148,
    "ario": 10149,
    "iley": 10150,
    "lore": 10151,
    "▁Lost": 10152,
    "▁Walk": 10153,
    "lgeria": 10154,
    "▁Forum": 10155,
    "▁Medal": 10156,
    "▁Hughes": 10157,
    "▁shorter": 10158,
    "▁disaster": 10159,
    "▁observation": 10160,
    "HL": 10161,
    "cz": 10162,
    "Ent": 10163,
    "uam": 10164,
    "▁Er": 10165,
    "adic": 10166,
    "▁Yah": 10167,
    "arist": 10168,
    "built": 10169,
    "dding": 10170,
    "narch": 10171,
    "plane": 10172,
    "▁Jeff": 10173,
    "▁abund": 10174,
    "▁accum": 10175,
    "▁aimed": 10176,
    "ynomial": 10177,
    "▁august": 10178,
    "▁credit": 10179,
    "▁organic": 10180,
    "▁neighbour": 10181,
    "\\,": 10182,
    "likely": 10183,
    "ournals": 10184,
    "▁Peters": 10185,
    "▁headed": 10186,
    "Following": 10187,
    "▁situated": 10188,
    "▁independently": 10189,
    "'&": 10190,
    "Bot": 10191,
    "Mid": 10192,
    "Dave": 10193,
    "Mult": 10194,
    "pent": 10195,
    "ults": 10196,
    "▁Lev": 10197,
    "▁adm": 10198,
    "ooper": 10199,
    "▁Real": 10200,
    "▁amin": 10201,
    "▁hear": 10202,
    "▁info": 10203,
    "inrich": 10204,
    "▁vocal": 10205,
    "omplete": 10206,
    "▁voters": 10207,
    "▁chronic": 10208,
    "▁Ethiopia": 10209,
    "▁directors": 10210,
    "▁photograph": 10211,
    "▁automatically": 10212,
    "▁participation": 10213,
    "EO": 10214,
    "LU": 10215,
    "Hall": 10216,
    "gers": 10217,
    "hatt": 10218,
    "wave": 10219,
    "▁Inf": 10220,
    "final": 10221,
    "istem": 10222,
    "links": 10223,
    "▁tail": 10224,
    "avaria": 10225,
    "incial": 10226,
    "▁Stand": 10227,
    "delaide": 10228,
    "▁atomic": 10229,
    "▁airport": 10230,
    "▁arrival": 10231,
    "▁morning": 10232,
    "chemistry": 10233,
    "▁controls": 10234,
    "▁Friedrich": 10235,
    "▁algorithms": 10236,
    "usa": 10237,
    "dest": 10238,
    "ribe": 10239,
    "stud": 10240,
    "▁Wis": 10241,
    "Simon": 10242,
    "ensis": 10243,
    "local": 10244,
    "porter": 10245,
    "▁Maced": 10246,
    "▁Maria": 10247,
    "▁catch": 10248,
    "▁opera": 10249,
    "▁theor": 10250,
    "▁tourn": 10251,
    "▁voted": 10252,
    "written": 10253,
    "▁Members": 10254,
    "▁falling": 10255,
    "▁protest": 10256,
    "▁suicide": 10257,
    "▁abstract": 10258,
    "▁civilian": 10259,
    "restrictions": 10260,
    "▁parliamentary": 10261,
    "▁representatives": 10262,
    "cies": 10263,
    "mont": 10264,
    "phon": 10265,
    "▁Fri": 10266,
    "orton": 10267,
    "▁vent": 10268,
    "System": 10269,
    "▁extend": 10270,
    "artmouth": 10271,
    "▁citizen": 10272,
    "▁entropy": 10273,
    "▁agencies": 10274,
    "▁engineer": 10275,
    "Jew": 10276,
    "ROM": 10277,
    "hai": 10278,
    "athe": 10279,
    "cdot": 10280,
    "pled": 10281,
    "ppro": 10282,
    "rosc": 10283,
    "ulum": 10284,
    "▁Hop": 10285,
    "▁ISO": 10286,
    "avian": 10287,
    "icity": 10288,
    "nders": 10289,
    "ocked": 10290,
    "▁cous": 10291,
    "▁euro": 10292,
    "▁wins": 10293,
[...]
